{
  "version": "1.0",
  "truncation": null,
  "padding": {
    "strategy": "BatchLongest",
    "direction": "Right",
    "pad_to_multiple_of": null,
    "pad_id": 3,
    "pad_type_id": 0,
    "pad_token": "[PAD]"
  },
  "added_tokens": [
    {
      "id": 0,
      "content": "[UNK]",
      "single_word": false,
      "lstrip": false,
      "rstrip": false,
      "normalized": false,
      "special": true
    },
    {
      "id": 1,
      "content": "[CLS]",
      "single_word": false,
      "lstrip": false,
      "rstrip": false,
      "normalized": false,
      "special": true
    },
    {
      "id": 2,
      "content": "[SEP]",
      "single_word": false,
      "lstrip": false,
      "rstrip": false,
      "normalized": false,
      "special": true
    },
    {
      "id": 3,
      "content": "[PAD]",
      "single_word": false,
      "lstrip": false,
      "rstrip": false,
      "normalized": false,
      "special": true
    },
    {
      "id": 4,
      "content": "[MASK]",
      "single_word": false,
      "lstrip": false,
      "rstrip": false,
      "normalized": false,
      "special": true
    }
  ],
  "normalizer": null,
  "pre_tokenizer": {
    "type": "Sequence",
    "pretokenizers": [
      {
        "type": "Whitespace"
      }
    ]
  },
  "post_processor": {
    "type": "TemplateProcessing",
    "single": [
      {
        "SpecialToken": {
          "id": "[CLS]",
          "type_id": 0
        }
      },
      {
        "Sequence": {
          "id": "A",
          "type_id": 0
        }
      },
      {
        "SpecialToken": {
          "id": "[SEP]",
          "type_id": 0
        }
      }
    ],
    "pair": [
      {
        "SpecialToken": {
          "id": "[CLS]",
          "type_id": 0
        }
      },
      {
        "Sequence": {
          "id": "A",
          "type_id": 0
        }
      },
      {
        "SpecialToken": {
          "id": "[SEP]",
          "type_id": 0
        }
      },
      {
        "Sequence": {
          "id": "B",
          "type_id": 1
        }
      },
      {
        "SpecialToken": {
          "id": "[SEP]",
          "type_id": 1
        }
      }
    ],
    "special_tokens": {
      "[CLS]": {
        "id": "[CLS]",
        "ids": [
          1
        ],
        "tokens": [
          "[CLS]"
        ]
      },
      "[SEP]": {
        "id": "[SEP]",
        "ids": [
          2
        ],
        "tokens": [
          "[SEP]"
        ]
      }
    }
  },
  "decoder": null,
  "model": {
    "type": "BPE",
    "dropout": 0.1,
    "unk_token": "[UNK]",
    "continuing_subword_prefix": null,
    "end_of_word_suffix": null,
    "fuse_unk": false,
    "byte_fallback": false,
    "vocab": {
      "[UNK]": 0,
      "[CLS]": 1,
      "[SEP]": 2,
      "[PAD]": 3,
      "[MASK]": 4,
      "!": 5,
      "\"": 6,
      "#": 7,
      "$": 8,
      "%": 9,
      "&": 10,
      "'": 11,
      "(": 12,
      ")": 13,
      "*": 14,
      "+": 15,
      ",": 16,
      "-": 17,
      ".": 18,
      "/": 19,
      "0": 20,
      "1": 21,
      "2": 22,
      "3": 23,
      "4": 24,
      "5": 25,
      "6": 26,
      "7": 27,
      "8": 28,
      "9": 29,
      ":": 30,
      ";": 31,
      "<": 32,
      "=": 33,
      ">": 34,
      "?": 35,
      "@": 36,
      "A": 37,
      "B": 38,
      "C": 39,
      "D": 40,
      "E": 41,
      "F": 42,
      "G": 43,
      "H": 44,
      "I": 45,
      "J": 46,
      "K": 47,
      "L": 48,
      "M": 49,
      "N": 50,
      "O": 51,
      "P": 52,
      "Q": 53,
      "R": 54,
      "S": 55,
      "T": 56,
      "U": 57,
      "V": 58,
      "W": 59,
      "X": 60,
      "Y": 61,
      "Z": 62,
      "[": 63,
      "\\": 64,
      "]": 65,
      "^": 66,
      "_": 67,
      "`": 68,
      "a": 69,
      "b": 70,
      "c": 71,
      "d": 72,
      "e": 73,
      "f": 74,
      "g": 75,
      "h": 76,
      "i": 77,
      "j": 78,
      "k": 79,
      "l": 80,
      "m": 81,
      "n": 82,
      "o": 83,
      "p": 84,
      "q": 85,
      "r": 86,
      "s": 87,
      "t": 88,
      "u": 89,
      "v": 90,
      "w": 91,
      "x": 92,
      "y": 93,
      "z": 94,
      "{": 95,
      "|": 96,
      "}": 97,
      "~": 98,
      "": 99,
      "": 100,
      "": 101,
      "¡": 102,
      "£": 103,
      "§": 104,
      "¨": 105,
      "©": 106,
      "®": 107,
      "°": 108,
      "±": 109,
      "²": 110,
      "³": 111,
      "¼": 112,
      "½": 113,
      "¾": 114,
      "À": 115,
      "Á": 116,
      "Â": 117,
      "È": 118,
      "Ð": 119,
      "Ö": 120,
      "×": 121,
      "á": 122,
      "â": 123,
      "æ": 124,
      "ç": 125,
      "è": 126,
      "é": 127,
      "í": 128,
      "ï": 129,
      "ð": 130,
      "ñ": 131,
      "ò": 132,
      "ó": 133,
      "ö": 134,
      "÷": 135,
      "ü": 136,
      "ý": 137,
      "ň": 138,
      "œ": 139,
      "š": 140,
      "ż": 141,
      "ž": 142,
      "˚": 143,
      "α": 144,
      "β": 145,
      "θ": 146,
      "λ": 147,
      "μ": 148,
      "ν": 149,
      "π": 150,
      "φ": 151,
      "ω": 152,
      "А": 153,
      "Ч": 154,
      "а": 155,
      "в": 156,
      "д": 157,
      "е": 158,
      "й": 159,
      "н": 160,
      "о": 161,
      "п": 162,
      "р": 163,
      "ئ": 164,
      "ا": 165,
      "ب": 166,
      "ت": 167,
      "ج": 168,
      "ح": 169,
      "د": 170,
      "ر": 171,
      "س": 172,
      "ش": 173,
      "ص": 174,
      "ط": 175,
      "ع": 176,
      "غ": 177,
      "ف": 178,
      "ق": 179,
      "ك": 180,
      "ل": 181,
      "م": 182,
      "ن": 183,
      "ه": 184,
      "و": 185,
      "ي": 186,
      "ँ": 187,
      "ं": 188,
      "ः": 189,
      "अ": 190,
      "आ": 191,
      "इ": 192,
      "ई": 193,
      "उ": 194,
      "ऊ": 195,
      "ऋ": 196,
      "ऌ": 197,
      "ऍ": 198,
      "ऎ": 199,
      "ए": 200,
      "ऐ": 201,
      "ऑ": 202,
      "ओ": 203,
      "औ": 204,
      "क": 205,
      "ख": 206,
      "ग": 207,
      "घ": 208,
      "ङ": 209,
      "च": 210,
      "छ": 211,
      "ज": 212,
      "झ": 213,
      "ञ": 214,
      "ट": 215,
      "ठ": 216,
      "ड": 217,
      "ढ": 218,
      "ण": 219,
      "त": 220,
      "थ": 221,
      "द": 222,
      "ध": 223,
      "न": 224,
      "ऩ": 225,
      "प": 226,
      "फ": 227,
      "ब": 228,
      "भ": 229,
      "म": 230,
      "य": 231,
      "र": 232,
      "ऱ": 233,
      "ल": 234,
      "ळ": 235,
      "ऴ": 236,
      "व": 237,
      "श": 238,
      "ष": 239,
      "स": 240,
      "ह": 241,
      "़": 242,
      "ा": 243,
      "ि": 244,
      "ी": 245,
      "ु": 246,
      "ू": 247,
      "ृ": 248,
      "ॅ": 249,
      "ॆ": 250,
      "े": 251,
      "ै": 252,
      "ॉ": 253,
      "ॊ": 254,
      "ो": 255,
      "ौ": 256,
      "्": 257,
      "क़": 258,
      "ख़": 259,
      "ग़": 260,
      "ज़": 261,
      "ड़": 262,
      "ढ़": 263,
      "फ़": 264,
      "य़": 265,
      "ॣ": 266,
      "।": 267,
      "॥": 268,
      "०": 269,
      "१": 270,
      "२": 271,
      "३": 272,
      "४": 273,
      "५": 274,
      "६": 275,
      "७": 276,
      "८": 277,
      "९": 278,
      "॰": 279,
      "ආ": 280,
      "ජ": 281,
      "බ": 282,
      "ය": 283,
      "ව": 284,
      "ා": 285,
      "ි": 286,
      "ේ": 287,
      "ෝ": 288,
      "ạ": 289,
      "ễ": 290,
      "​": 291,
      "‌": 292,
      "‍": 293,
      "–": 294,
      "—": 295,
      "‘": 296,
      "’": 297,
      "‚": 298,
      "“": 299,
      "”": 300,
      "•": 301,
      "…": 302,
      "′": 303,
      "″": 304,
      "⁴": 305,
      "⁵": 306,
      "⁶": 307,
      "€": 308,
      "⅓": 309,
      "⅔": 310,
      "⅕": 311,
      "⅖": 312,
      "⅗": 313,
      "⅘": 314,
      "⅙": 315,
      "→": 316,
      "↲": 317,
      "∕": 318,
      "√": 319,
      "∣": 320,
      "≠": 321,
      "≤": 322,
      "≥": 323,
      "⌈": 324,
      "⌉": 325,
      "⌊": 326,
      "⌋": 327,
      "♪": 328,
      "♫": 329,
      "か": 330,
      "さ": 331,
      "な": 332,
      "に": 333,
      "の": 334,
      "ん": 335,
      "サ": 336,
      "ス": 337,
      "ッ": 338,
      "ト": 339,
      "プ": 340,
      "ラ": 341,
      "ル": 342,
      "ン": 343,
      "一": 344,
      "人": 345,
      "品": 346,
      "字": 347,
      "材": 348,
      "漢": 349,
      "秒": 350,
      "逸": 351,
      "食": 352,
      "﻿": 353,
      "�": 354,
      "है": 355,
      "ें": 356,
      "और": 357,
      "ने": 358,
      "के": 359,
      "या": 360,
      "कर": 361,
      "ार": 362,
      "से": 363,
      "कि": 364,
      "ों": 365,
      "ही": 366,
      "को": 367,
      "तु": 368,
      "में": 369,
      "की": 370,
      "तुम": 371,
      "ता": 372,
      "का": 373,
      "ला": 374,
      "्र": 375,
      "उन": 376,
      "ना": 377,
      "ते": 378,
      "तो": 379,
      "क्": 380,
      "ान": 381,
      "पर": 382,
      "हो": 383,
      "वा": 384,
      "उस": 385,
      "्ह": 386,
      "स्": 387,
      "दा": 388,
      "लि": 389,
      "हीं": 390,
      "लो": 391,
      "दि": 392,
      "हम": 393,
      "हा": 394,
      "नहीं": 395,
      "जा": 396,
      "ले": 397,
      "दे": 398,
      "ल्": 399,
      "सा": 400,
      "जो": 401,
      "र्": 402,
      "लोग": 403,
      "हैं": 404,
      "रा": 405,
      "अप": 406,
      "नि": 407,
      "भी": 408,
      "जि": 409,
      "बा": 410,
      "न्": 411,
      "तुम्ह": 412,
      "वह": 413,
      "प्र": 414,
      "मा": 415,
      "िर": 416,
      "लिए": 417,
      "हु": 418,
      "गा": 419,
      "कु": 420,
      "रह": 421,
      "इस": 422,
      "एक": 423,
      "ुदा": 424,
      "पा": 425,
      "गे": 426,
      "ारे": 427,
      "मु": 428,
      "ड़": 429,
      "चा": 430,
      "वे": 431,
      "्य": 432,
      "कार": 433,
      "मै": 434,
      "मान": 435,
      "मे": 436,
      "ल्ला": 437,
      "सी": 438,
      "ल्लाह": 439,
      "वि": 440,
      "अल्लाह": 441,
      "अपने": 442,
      "नी": 443,
      "ये": 444,
      "..": 445,
      "मैं": 446,
      "सं": 447,
      "फिर": 448,
      "रे": 449,
      "ति": 450,
      "क्या": 451,
      "ती": 452,
      "किया": 453,
      "कुछ": 454,
      "लोगों": 455,
      "री": 456,
      "ख़ुदा": 457,
      "सू": 458,
      "फ़": 459,
      "मि": 460,
      "खा": 461,
      "यह": 462,
      "जब": 463,
      "आप": 464,
      "दो": 465,
      "उनके": 466,
      "ज़": 467,
      "कोई": 468,
      "करें": 469,
      "ली": 470,
      "सम": 471,
      "था": 472,
      "जिस": 473,
      "उन्ह": 474,
      "श्": 475,
      "यों": 476,
      "बे": 477,
      "कह": 478,
      "एँ": 479,
      "तुम्हारे": 480,
      "हर": 481,
      "च्": 482,
      "ारी": 483,
      "करते": 484,
      "त्": 485,
      "करने": 486,
      "सि": 487,
      "गर": 488,
      "सब": 489,
      "चाह": 490,
      "उसके": 491,
      "रहे": 492,
      "हमने": 493,
      "दी": 494,
      "ित": 495,
      "क्ष": 496,
      "सक": 497,
      "ची": 498,
      "करो": 499,
      "हाँ": 500,
      "तर": 501,
      "ूँ": 502,
      "रख": 503,
      "दिया": 504,
      "थे": 505,
      "बना": 506,
      "पू": 507,
      "उसे": 508,
      "ारा": 509,
      "ईमान": 510,
      "गी": 511,
      "जिन": 512,
      "सु": 513,
      "वर": 514,
      "क़": 515,
      "उन्हें": 516,
      "रसू": 517,
      "मी": 518,
      "रसूल": 519,
      "जान": 520,
      "ज़ा": 521,
      "ख्": 522,
      "तुम्हें": 523,
      "बात": 524,
      "्ट": 525,
      "साथ": 526,
      "त्र": 527,
      "रू": 528,
      "...": 529,
      "कहा": 530,
      "मुझ": 531,
      "बर": 532,
      "इन": 533,
      "पै": 534,
      "अपनी": 535,
      "जाए": 536,
      "लों": 537,
      "नु": 538,
      "दिन": 539,
      "।\"": 540,
      "पास": 541,
      "च्छ": 542,
      "गु": 543,
      "ख़": 544,
      "रो": 545,
      "िया": 546,
      "टा": 547,
      "देख": 548,
      "दू": 549,
      "शा": 550,
      "डा": 551,
      "गया": 552,
      "पह": 553,
      "चु": 554,
      "यो": 555,
      "बु": 556,
      "अच्छ": 557,
      "ज्": 558,
      "रहा": 559,
      "रब": 560,
      "किसी": 561,
      "वाला": 562,
      "मत": 563,
      "गार": 564,
      "मुझे": 565,
      "भा": 566,
      "तक": 567,
      "दु": 568,
      "ंग": 569,
      "हि": 570,
      "वाले": 571,
      "on": 572,
      "प्": 573,
      "रि": 574,
      "बद": 575,
      "हूँ": 576,
      "जी": 577,
      "बी": 578,
      "बहु": 579,
      "डर": 580,
      "अगर": 581,
      "चे": 582,
      "म्": 583,
      "मार": 584,
      "उसकी": 585,
      "देश": 586,
      "द्": 587,
      "पु": 588,
      "न्द": 589,
      "ेंगे": 590,
      "क्र": 591,
      "पी": 592,
      "धि": 593,
      "मेरे": 594,
      "तरह": 595,
      "यदि": 596,
      "करता": 597,
      "काम": 598,
      "ti": 599,
      "उनकी": 600,
      "सर": 601,
      "me": 602,
      "पहले": 603,
      "ाइ": 604,
      "स्त": 605,
      "परवर": 606,
      "अत": 607,
      "दिगार": 608,
      "होगा": 609,
      "ओर": 610,
      "वही": 611,
      "वालों": 612,
      "बहुत": 613,
      "परवरदिगार": 614,
      "करे": 615,
      "हों": 616,
      "यत": 617,
      "ोंने": 618,
      "नों": 619,
      "बाद": 620,
      "बि": 621,
      "लग": 622,
      "ष्ट": 623,
      "उसने": 624,
      "शी": 625,
      "हुए": 626,
      "ानी": 627,
      "दिखा": 628,
      "चय": 629,
      "दार": 630,
      "छो": 631,
      "भे": 632,
      "अनु": 633,
      "हमारे": 634,
      "ड़ा": 635,
      "ाइल": 636,
      "शक": 637,
      "मो": 638,
      "पहु": 639,
      "ज़ि": 640,
      "बस": 641,
      "tion": 642,
      "वी": 643,
      "हे": 644,
      "ज्ञ": 645,
      "क्त": 646,
      "बड़": 647,
      "ताकि": 648,
      "लिया": 649,
      "निश्": 650,
      "टे": 651,
      "क्यों": 652,
      "डि": 653,
      "हुआ": 654,
      "यू": 655,
      "उनसे": 656,
      "अब": 657,
      "दर": 658,
      "नाम": 659,
      "शन": 660,
      "खो": 661,
      "पैदा": 662,
      "उसी": 663,
      "ढ़": 664,
      "याद": 665,
      "ंड": 666,
      "वर्": 667,
      "पि": 668,
      "मू": 669,
      "लें": 670,
      "an": 671,
      "तुम्हारी": 672,
      "तू": 673,
      "बो": 674,
      "यहाँ": 675,
      "थी": 676,
      "पहुँ": 677,
      "समझ": 678,
      "ame": 679,
      "सकता": 680,
      "जाएँ": 681,
      "उप": 682,
      "सकते": 683,
      "उन्होंने": 684,
      "खु": 685,
      "ताब": 686,
      "तना": 687,
      "क़ी": 688,
      "ग्र": 689,
      "स्थ": 690,
      "बू": 691,
      "फ़ाइल": 692,
      "उनको": 693,
      "रु": 694,
      "अज़ा": 695,
      "गए": 696,
      "उसका": 697,
      "ठी": 698,
      "दर्": 699,
      "ठा": 700,
      "माल": 701,
      "खुदा": 702,
      "परि": 703,
      "अज़ाब": 704,
      "जाओ": 705,
      "काश": 706,
      "ब्": 707,
      "किताब": 708,
      "अव": 709,
      "संदेश": 710,
      "करना": 711,
      "मौ": 712,
      "ोल्": 713,
      "ड़े": 714,
      "ऐसे": 715,
      "साम": 716,
      "उससे": 717,
      "योग": 718,
      "तुम्हारा": 719,
      "मार्": 720,
      "तरफ": 721,
      "जे": 722,
      "मेरी": 723,
      "जाएगा": 724,
      "अच्छा": 725,
      "दूस": 726,
      "क्ति": 727,
      "in": 728,
      "जू": 729,
      "टि": 730,
      "अधि": 731,
      "मीन": 732,
      "सिवा": 733,
      "उनमें": 734,
      "er": 735,
      "बै": 736,
      "कै": 737,
      "शु": 738,
      "बेशक": 739,
      "पे": 740,
      "मार्ग": 741,
      "निश्चय": 742,
      "ठीक": 743,
      "प्रा": 744,
      "धर": 745,
      "ज़मीन": 746,
      "व्य": 747,
      "लाए": 748,
      "झु": 749,
      "चीज़": 750,
      "जह": 751,
      "निक": 752,
      "दोनों": 753,
      "आस": 754,
      "रूप": 755,
      "शि": 756,
      "स्ते": 757,
      "ऐसा": 758,
      "तुमसे": 759,
      "प्त": 760,
      "ड़ी": 761,
      "निया": 762,
      "चि": 763,
      "तों": 764,
      "कृ": 765,
      "it": 766,
      "हाल": 767,
      "किए": 768,
      "al": 769,
      "मगर": 770,
      "ख़ुदा": 771,
      "टी": 772,
      "डी": 773,
      "कर्": 774,
      "पता": 775,
      "समय": 776,
      "यही": 777,
      "त्य": 778,
      "आद": 779,
      "निर्": 780,
      "अं": 781,
      "इनकार": 782,
      "अपना": 783,
      "जै": 784,
      "हरा": 785,
      "बार": 786,
      "ियों": 787,
      "चाहता": 788,
      "पस": 789,
      "वार": 790,
      "चल": 791,
      "धरती": 792,
      "es": 793,
      "किन": 794,
      "मद": 795,
      "उनका": 796,
      "la": 797,
      "लगा": 798,
      "हमारी": 799,
      "मिल": 800,
      "गें": 801,
      "उसमें": 802,
      "इसमें": 803,
      "बरा": 804,
      "सुन": 805,
      "यक़ी": 806,
      "ौम": 807,
      "चीज़": 808,
      "रत": 809,
      "न्त": 810,
      "तुमने": 811,
      "न्तु": 812,
      "दान": 813,
      "ोल्डर": 814,
      "कहते": 815,
      "बन्द": 816,
      "जानता": 817,
      "बल्": 818,
      "हुई": 819,
      "ियाँ": 820,
      "चाहते": 821,
      "ड़े": 822,
      "यान": 823,
      "हमें": 824,
      "देता": 825,
      "स्ता": 826,
      "ज्ञा": 827,
      "दुनिया": 828,
      "फल": 829,
      "or": 830,
      "यातना": 831,
      "घर": 832,
      "पूर्": 833,
      "लगे": 834,
      "ed": 835,
      "आए": 836,
      "निश": 837,
      "tr": 838,
      "िए": 839,
      "देह": 840,
      "ओं": 841,
      "मूसा": 842,
      "जिन्ह": 843,
      "स्ट": 844,
      "बल्कि": 845,
      "जाता": 846,
      "जिसने": 847,
      "यार": 848,
      "खे": 849,
      "फ्": 850,
      "झुठ": 851,
      "होंगे": 852,
      "आयत": 853,
      "सो": 854,
      "फ़ोल्डर": 855,
      "न्न": 856,
      "निस्": 857,
      "तुमको": 858,
      "दूसरे": 859,
      "होने": 860,
      "करेगा": 861,
      "अतः": 862,
      "यी": 863,
      "op": 864,
      "जिसे": 865,
      "राह": 866,
      "निका": 867,
      "आया": 868,
      "फे": 869,
      "हुक्": 870,
      "वक्त": 871,
      "मेरा": 872,
      "गिर": 873,
      "चार": 874,
      "गि": 875,
      "गो": 876,
      "उसको": 877,
      "इसके": 878,
      "बं": 879,
      "होता": 880,
      "क़ा": 881,
      "वाह": 882,
      "बारे": 883,
      "तान": 884,
      "चाहिए": 885,
      "झुठला": 886,
      "रात": 887,
      "आसमान": 888,
      "तौ": 889,
      "बड़ा": 890,
      "हुक्म": 891,
      "बुरा": 892,
      "टर": 893,
      "जाने": 894,
      "पीछ": 895,
      "सामने": 896,
      "सर्": 897,
      "अधिक": 898,
      "कम": 899,
      "र्थ": 900,
      "अच्छे": 901,
      "किन्तु": 902,
      "स्व": 903,
      "प्रति": 904,
      "वास्ते": 905,
      "सभी": 906,
      "कार्य": 907,
      "त्व": 908,
      "कहने": 909,
      "name": 910,
      "श्य": 911,
      "संदेह": 912,
      "ro": 913,
      "आकाश": 914,
      "th": 915,
      "gm": 916,
      "बता": 917,
      "ूब": 918,
      "वहाँ": 919,
      "kgm": 920,
      "सला": 921,
      "गई": 922,
      "सार": 923,
      "ूं": 924,
      "आग": 925,
      "लेकिन": 926,
      "फर": 927,
      "माँ": 928,
      "कौ": 929,
      "गुना": 930,
      "ष्": 931,
      "जानते": 932,
      "कभी": 933,
      "डाल": 934,
      "बैठ": 935,
      "सूची": 936,
      "ot": 937,
      "मर": 938,
      "भू": 939,
      "उठा": 940,
      "प्राप्त": 941,
      "ज़िल": 942,
      "यक़ीन": 943,
      "अन्": 944,
      "वान": 945,
      "बह": 946,
      "दिल": 947,
      "रही": 948,
      "बदला": 949,
      "नाज़िल": 950,
      "सारे": 951,
      "हाथ": 952,
      "ans": 953,
      "रहो": 954,
      "भु": 955,
      "कौन": 956,
      "रान": 957,
      "पीछे": 958,
      "लत": 959,
      "क्योंकि": 960,
      "देते": 961,
      "मदद": 962,
      "र्फ": 963,
      "क़ु": 964,
      "निस्संदेह": 965,
      "नें": 966,
      "क़या": 967,
      "बनाया": 968,
      "चना": 969,
      "बाहर": 970,
      "?\"": 971,
      "bl": 972,
      "त्या": 973,
      "चित": 974,
      "option": 975,
      "त्रु": 976,
      "रिश्": 977,
      "पर्": 978,
      "लौ": 979,
      "trans": 980,
      "वाली": 981,
      "कारी": 982,
      "ड़ा": 983,
      "ख़ा": 984,
      "transla": 985,
      "आख़": 986,
      "इन्": 987,
      "इसे": 988,
      "दया": 989,
      "डे": 990,
      "do": 991,
      "दें": 992,
      "सच्": 993,
      "यु": 994,
      "वारा": 995,
      "तम": 996,
      "रखते": 997,
      "झू": 998,
      "प्रकार": 999,
      "देगा": 1000,
      "ar": 1001,
      "सका": 1002,
      "िका": 1003,
      "ne": 1004,
      "कॉ": 1005,
      "क़यामत": 1006,
      "सिर्फ": 1007,
      "पानी": 1008,
      "क्षमा": 1009,
      "द्वारा": 1010,
      "्रे": 1011,
      "भेज": 1012,
      "पैग़": 1013,
      "पहुँचा": 1014,
      "लाने": 1015,
      "लिख": 1016,
      "optional": 1017,
      "देखो": 1018,
      "मन": 1019,
      "ाम": 1020,
      "होगी": 1021,
      "छवि": 1022,
      "उनपर": 1023,
      "आगे": 1024,
      "मिटा": 1025,
      "किस": 1026,
      "गह": 1027,
      "क्स": 1028,
      "प्रदान": 1029,
      "pro": 1030,
      "चुके": 1031,
      "ट्ट": 1032,
      "छोड़": 1033,
      "भला": 1034,
      "कू": 1035,
      "क्षा": 1036,
      "पूरा": 1037,
      "इससे": 1038,
      "चाहे": 1039,
      "व्यक्ति": 1040,
      "पं": 1041,
      "दृ": 1042,
      "बाप": 1043,
      "जाएँगे": 1044,
      "इं": 1045,
      "ख्या": 1046,
      "म्बर": 1047,
      "आदमी": 1048,
      "धे": 1049,
      "ल्म": 1050,
      "निशान": 1051,
      "शै": 1052,
      "मह": 1053,
      "ोर": 1054,
      "ख्त": 1055,
      "देखा": 1056,
      "यक़ीनन": 1057,
      "देने": 1058,
      "ज़ी": 1059,
      "नीचे": 1060,
      "Name": 1061,
      "बढ़": 1062,
      "मौजू": 1063,
      "पुकार": 1064,
      "करके": 1065,
      "ऊपर": 1066,
      "फा": 1067,
      "बड़ा": 1068,
      "शख्": 1069,
      "हाय": 1070,
      "जबकि": 1071,
      "शख्स": 1072,
      "00": 1073,
      "लू": 1074,
      "जोड़": 1075,
      "कुल": 1076,
      "आई": 1077,
      "कहो": 1078,
      "करेंगे": 1079,
      "भि": 1080,
      "बीच": 1081,
      "लिक": 1082,
      "ba": 1083,
      "translation": 1084,
      "पन": 1085,
      "पो": 1086,
      "उत्": 1087,
      "not": 1088,
      "जीव": 1089,
      "बेह": 1090,
      "लने": 1091,
      "जाना": 1092,
      "तब": 1093,
      "मैंने": 1094,
      "ख़ु": 1095,
      "यं": 1096,
      "प्रयोग": 1097,
      "कट": 1098,
      "कर्म": 1099,
      "क़ौम": 1100,
      "need": 1101,
      "पैग़म्बर": 1102,
      "रखो": 1103,
      "ity": 1104,
      "कहीं": 1105,
      "ज़ा": 1106,
      "पूछ": 1107,
      "्री": 1108,
      "अच्छी": 1109,
      "रखा": 1110,
      "भेजा": 1111,
      "घा": 1112,
      "होकर": 1113,
      "जगह": 1114,
      "दूर": 1115,
      "क़ि": 1116,
      "गुम": 1117,
      "पक": 1118,
      "लिम": 1119,
      "माम": 1120,
      "एं": 1121,
      "फि": 1122,
      "बन": 1123,
      "सहे": 1124,
      "मुँ": 1125,
      "हक़": 1126,
      "यम": 1127,
      "खि": 1128,
      "जाते": 1129,
      "City": 1130,
      "ूम": 1131,
      "बान": 1132,
      "does": 1133,
      "विक": 1134,
      "विष": 1135,
      "आयतों": 1136,
      "मुँह": 1137,
      "en": 1138,
      "bly": 1139,
      "proba": 1140,
      "probably": 1141,
      "उन्": 1142,
      "आख़िर": 1143,
      "यादा": 1144,
      "नित": 1145,
      "जु": 1146,
      "सूचना": 1147,
      "उत": 1148,
      "इसी": 1149,
      "नमा": 1150,
      "चुका": 1151,
      "माण": 1152,
      "रंग": 1153,
      "होते": 1154,
      "is": 1155,
      "्रि": 1156,
      "नया": 1157,
      "हमे": 1158,
      "बन्": 1159,
      "त्रुटि": 1160,
      "रूर": 1161,
      "सम्": 1162,
      "स्था": 1163,
      "दिखाएँ": 1164,
      "रोक": 1165,
      "सबसे": 1166,
      "ऊँ": 1167,
      "आपको": 1168,
      "ंक": 1169,
      "्रा": 1170,
      "सहाय": 1171,
      "सल": 1172,
      "अत्य": 1173,
      "टो": 1174,
      "वल": 1175,
      "ईमानदार": 1176,
      "ट्टी": 1177,
      "क़र": 1178,
      "छु": 1179,
      "स्प": 1180,
      "ैर": 1181,
      "धार": 1182,
      "रहम": 1183,
      "तेरे": 1184,
      "जन": 1185,
      "भाई": 1186,
      "कारण": 1187,
      "ष्ठ": 1188,
      "वाब": 1189,
      "हत": 1190,
      "इसलिए": 1191,
      "दिए": 1192,
      "द्ध": 1193,
      "पश्": 1194,
      "न्नु": 1195,
      "लु": 1196,
      "समा": 1197,
      "जिसके": 1198,
      "नू": 1199,
      "गुनाह": 1200,
      "चुनें": 1201,
      "ग़": 1202,
      "बचा": 1203,
      "शे": 1204,
      "जहन्नु": 1205,
      "अभी": 1206,
      "ज़र": 1207,
      "कृप": 1208,
      "र्द": 1209,
      "ख़्": 1210,
      "अत्यन्त": 1211,
      "रज़": 1212,
      "मोमि": 1213,
      "ic": 1214,
      "वै": 1215,
      "छोड़": 1216,
      "हीम": 1217,
      "जें": 1218,
      "ार्": 1219,
      "लब": 1220,
      "सफल": 1221,
      "फरमा": 1222,
      "तः": 1223,
      "सद": 1224,
      "लेकर": 1225,
      "भाग": 1226,
      "तन": 1227,
      "छि": 1228,
      "ंडो": 1229,
      "थो": 1230,
      "जिनके": 1231,
      "लगता": 1232,
      "हमेशा": 1233,
      "ंच": 1234,
      "जिन्होंने": 1235,
      "एह": 1236,
      "झूठ": 1237,
      "at": 1238,
      "कृपया": 1239,
      "पहुँच": 1240,
      "सान": 1241,
      "रहने": 1242,
      "जल्": 1243,
      "#-": 1244,
      "बन्दों": 1245,
      "बयान": 1246,
      "हाला": 1247,
      "ज्य": 1248,
      "बढ़": 1249,
      "याँ": 1250,
      "सर्वर": 1251,
      "विंडो": 1252,
      "मिला": 1253,
      "जीवन": 1254,
      "गिरो": 1255,
      "पर्क": 1256,
      "विषय": 1257,
      "फै": 1258,
      "फ़ि": 1259,
      "ऐसी": 1260,
      "रखता": 1261,
      "धी": 1262,
      "स्त्र": 1263,
      "ज़े": 1264,
      "आज": 1265,
      "जाती": 1266,
      "अता": 1267,
      "बत": 1268,
      "ज़रूर": 1269,
      "मालूम": 1270,
      "धा": 1271,
      "इबरा": 1272,
      "जैसे": 1273,
      "ठहरा": 1274,
      "निकल": 1275,
      "कमा": 1276,
      "समर्थ": 1277,
      "इबराहीम": 1278,
      "बाज़": 1279,
      "वापस": 1280,
      "िति": 1281,
      "डाक": 1282,
      "le": 1283,
      "तुमपर": 1284,
      "तुममें": 1285,
      "र्म": 1286,
      "क़ा": 1287,
      "नसी": 1288,
      "स्क": 1289,
      "प्रमाण": 1290,
      "ग़रज़": 1291,
      "शैतान": 1292,
      "आर": 1293,
      "छा": 1294,
      "स्पष्ट": 1295,
      "पृ": 1296,
      "करण": 1297,
      "दौ": 1298,
      "ग़ा": 1299,
      "स्वी": 1300,
      "भर": 1301,
      "प्रो": 1302,
      "वास": 1303,
      "प्रभु": 1304,
      "पूर्ण": 1305,
      "स्थिति": 1306,
      "बराबर": 1307,
      "देखते": 1308,
      "तै": 1309,
      "संपर्क": 1310,
      "चला": 1311,
      "ज्यादा": 1312,
      "संपा": 1313,
      "बड़ी": 1314,
      "रहेंगे": 1315,
      "केवल": 1316,
      "मेहर": 1317,
      "re": 1318,
      "श्त": 1319,
      "जाएगी": 1320,
      "क्रिया": 1321,
      "जिन्हें": 1322,
      "ou": 1323,
      "अग": 1324,
      "पत्": 1325,
      "कृत": 1326,
      "मौजूद": 1327,
      "करनेवालों": 1328,
      "पूरी": 1329,
      "जहन्नुम": 1330,
      "प्रत्य": 1331,
      "एव": 1332,
      "जिसमें": 1333,
      "बातें": 1334,
      "दायत": 1335,
      "हिदायत": 1336,
      "वास्त": 1337,
      "लट": 1338,
      "यदा": 1339,
      "कित": 1340,
      "कुफ्": 1341,
      "सन्": 1342,
      "जना": 1343,
      "सख्त": 1344,
      "औन": 1345,
      "अन": 1346,
      "दिलों": 1347,
      "र्च": 1348,
      "एस": 1349,
      "स्वयं": 1350,
      "चयनित": 1351,
      "डरा": 1352,
      "हमारा": 1353,
      "आकाशों": 1354,
      "फो": 1355,
      "बड़ी": 1356,
      "क़ौम": 1357,
      "ग्रह": 1358,
      "लोड": 1359,
      "डाला": 1360,
      "पाक": 1361,
      "उपयोग": 1362,
      "पश्चा": 1363,
      "पढ़": 1364,
      "बच्": 1365,
      "रीब": 1366,
      "प्रे": 1367,
      "फेर": 1368,
      "विश्": 1369,
      "चले": 1370,
      "आने": 1371,
      "सही": 1372,
      "काफ़": 1373,
      "मेल": 1374,
      "सत्य": 1375,
      "नसीहत": 1376,
      "कैसे": 1377,
      "ज्ञान": 1378,
      "रखने": 1379,
      "शब्": 1380,
      "ल्प": 1381,
      "्रो": 1382,
      "कल": 1383,
      "स्थान": 1384,
      "तुझ": 1385,
      "स्ति": 1386,
      "देंगे": 1387,
      "गिरोह": 1388,
      "लॉ": 1389,
      "वो": 1390,
      "स्म": 1391,
      "'%": 1392,
      "बंद": 1393,
      "पश्चात": 1394,
      "्ड": 1395,
      "गाह": 1396,
      "ंभ": 1397,
      "खोल": 1398,
      "निकाल": 1399,
      "निशानियाँ": 1400,
      "्या": 1401,
      "सुना": 1402,
      "र्य": 1403,
      "होती": 1404,
      "जहाँ": 1405,
      "प्रकाश": 1406,
      "आपके": 1407,
      "शख़्": 1408,
      "शब्द": 1409,
      "बख्": 1410,
      "पड़े": 1411,
      "फी": 1412,
      "बड़े": 1413,
      "िक": 1414,
      "हटा": 1415,
      "सेट": 1416,
      "बिल्": 1417,
      "st": 1418,
      "हला": 1419,
      "बदले": 1420,
      "डियो": 1421,
      "तैयार": 1422,
      "लड़": 1423,
      "शरी": 1424,
      "डिस्क": 1425,
      "अलग": 1426,
      "कत": 1427,
      "साल": 1428,
      "पढ़": 1429,
      "ूर": 1430,
      "लेख": 1431,
      "वाद": 1432,
      "ज़ी": 1433,
      "कहेंगे": 1434,
      "वाक़ि": 1435,
      "मेरि": 1436,
      "बुला": 1437,
      "बेहतर": 1438,
      "लड़": 1439,
      "शक़": 1440,
      "साफ": 1441,
      "एँगे": 1442,
      "ष्टि": 1443,
      "क़ुरान": 1444,
      "पत्र": 1445,
      "पसं": 1446,
      "खेल": 1447,
      "शील": 1448,
      "हरगि": 1449,
      "हरगिज़": 1450,
      "पड़": 1451,
      "एल": 1452,
      "बातों": 1453,
      "हिस्": 1454,
      "सरक": 1455,
      "बोल": 1456,
      "हां": 1457,
      "साब": 1458,
      "ौर": 1459,
      "सच्चे": 1460,
      "धन": 1461,
      "सज़ा": 1462,
      "फ़र": 1463,
      "जोड़ें": 1464,
      "आओ": 1465,
      "नो": 1466,
      "तरफ़": 1467,
      "om": 1468,
      "बूद": 1469,
      "एगा": 1470,
      "आदेश": 1471,
      "लाम": 1472,
      ":%": 1473,
      "रिश्ते": 1474,
      "चलो": 1475,
      "सह": 1476,
      "पाठ": 1477,
      "द्र": 1478,
      "पार": 1479,
      "यर": 1480,
      "क़रीब": 1481,
      "बैठे": 1482,
      "पड़े": 1483,
      "ँकि": 1484,
      "निश्चित": 1485,
      "सज": 1486,
      "जमा": 1487,
      "प्रार": 1488,
      "वृ": 1489,
      "#-#-": 1490,
      "्स": 1491,
      "अमेरि": 1492,
      "फ़ॉ": 1493,
      "खुद": 1494,
      "हालाँकि": 1495,
      "पित": 1496,
      "जादू": 1497,
      "पृष्ठ": 1498,
      "लेते": 1499,
      "उन्हीं": 1500,
      "स्क्र": 1501,
      "मं": 1502,
      "झुठलाया": 1503,
      "लै": 1504,
      "तथा": 1505,
      "स्ती": 1506,
      "\"%": 1507,
      "ol": 1508,
      "समू": 1509,
      "माबूद": 1510,
      "गल": 1511,
      "र्ष": 1512,
      "क्षम": 1513,
      "बल": 1514,
      "इबाद": 1515,
      "क्ट": 1516,
      "नुष": 1517,
      "दोस्त": 1518,
      "ख़बर": 1519,
      "शख़्श": 1520,
      "स्तु": 1521,
      "इबादत": 1522,
      "तत्व": 1523,
      "दृश्य": 1524,
      "वजह": 1525,
      "तौबा": 1526,
      "उम्": 1527,
      "ेक": 1528,
      "बूल": 1529,
      "झग": 1530,
      "दीन": 1531,
      "विकल्प": 1532,
      "जवाब": 1533,
      "मनुष": 1534,
      "मनुष्य": 1535,
      "यद": 1536,
      "सामान": 1537,
      "प्रत्येक": 1538,
      "जिसका": 1539,
      "ध्": 1540,
      "the": 1541,
      "करनेवाला": 1542,
      "परिवर्": 1543,
      "अभि": 1544,
      "ूँगा": 1545,
      "रक्ष": 1546,
      "शिश": 1547,
      "वालो": 1548,
      "पूर्व": 1549,
      "नेवाला": 1550,
      "योजना": 1551,
      "गुमरा": 1552,
      "क्षर": 1553,
      "भली": 1554,
      "आख़": 1555,
      "क्षे": 1556,
      "त्ता": 1557,
      "लन": 1558,
      "अन्य": 1559,
      "अत्या": 1560,
      "जिसकी": 1561,
      "अमेरिका": 1562,
      "चौ": 1563,
      "बदल": 1564,
      "समझते": 1565,
      "अर्": 1566,
      "men": 1567,
      "लौट": 1568,
      "क्ता": 1569,
      "उसपर": 1570,
      "पथ": 1571,
      "दन": 1572,
      "णी": 1573,
      "णाम": 1574,
      "आख़िर": 1575,
      "बख्श": 1576,
      "्न": 1577,
      "रूरत": 1578,
      "आकार": 1579,
      "ुल्म": 1580,
      "र्ट": 1581,
      "ठिका": 1582,
      "!\"": 1583,
      "se": 1584,
      "कों": 1585,
      "उठ": 1586,
      "पिछ": 1587,
      "बरी": 1588,
      "हिर": 1589,
      "लिब": 1590,
      "बले": 1591,
      "वायदा": 1592,
      "बिल्कुल": 1593,
      "ंट": 1594,
      "खोज": 1595,
      "रौ": 1596,
      "पेश": 1597,
      "ख़ास": 1598,
      "आँ": 1599,
      "दम": 1600,
      "हूं": 1601,
      "शाली": 1602,
      "खाता": 1603,
      "ंत": 1604,
      "फ़ार": 1605,
      "घट": 1606,
      "फ़ै": 1607,
      "कर्ता": 1608,
      "हरे": 1609,
      "अवश्य": 1610,
      "लं": 1611,
      "गवा": 1612,
      "घु": 1613,
      "पूज्य": 1614,
      "सिल": 1615,
      "सहायता": 1616,
      "गयी": 1617,
      "लिये": 1618,
      "गुमराही": 1619,
      "क्षेत्र": 1620,
      "ध्य": 1621,
      "यन": 1622,
      "ज़रु": 1623,
      "टै": 1624,
      "संख्या": 1625,
      "करा": 1626,
      "काफ़िर": 1627,
      "शीर्ष": 1628,
      "दर्शन": 1629,
      "छिपा": 1630,
      "रहते": 1631,
      "करनेवाले": 1632,
      "):": 1633,
      "तरी": 1634,
      "वादा": 1635,
      "दुख": 1636,
      "हक़": 1637,
      "शो": 1638,
      "ेगा": 1639,
      "कात": 1640,
      "el": 1641,
      "हालत": 1642,
      "वत": 1643,
      "पुरु": 1644,
      "लाइन": 1645,
      "पुरुष": 1646,
      "लित": 1647,
      "दस्ता": 1648,
      "कोशिश": 1649,
      "सके": 1650,
      "आयतें": 1651,
      "मेहरबान": 1652,
      "हराम": 1653,
      "परिणाम": 1654,
      "प्रती": 1655,
      "जैसा": 1656,
      "शुक्र": 1657,
      "ंस": 1658,
      "पट्टी": 1659,
      "ज़ि": 1660,
      "जारी": 1661,
      "निशानी": 1662,
      "परहे": 1663,
      "डरते": 1664,
      "यास": 1665,
      "सबको": 1666,
      "दस्तावे": 1667,
      "ओगे": 1668,
      "कठ": 1669,
      "ईमानदारों": 1670,
      "्रै": 1671,
      "हट": 1672,
      "साझ": 1673,
      "बुरी": 1674,
      "कता": 1675,
      "सहेजें": 1676,
      "्रिय": 1677,
      "प्लग": 1678,
      "आज्ञा": 1679,
      "जिसको": 1680,
      "सकती": 1681,
      "मुक़र": 1682,
      "क्का": 1683,
      "लेगा": 1684,
      "होना": 1685,
      "पाया": 1686,
      "बनाएँ": 1687,
      "हिस्सा": 1688,
      "कहाँ": 1689,
      "ठिकाना": 1690,
      "काफिर": 1691,
      "गवाह": 1692,
      "ख़ि": 1693,
      "ॉकि": 1694,
      "यूशन": 1695,
      "वित": 1696,
      "भरो": 1697,
      "पसंद": 1698,
      "हालॉकि": 1699,
      "वास्तव": 1700,
      "परा": 1701,
      "द्द": 1702,
      "माँग": 1703,
      "शिया": 1704,
      "र्क": 1705,
      "अह": 1706,
      "न्दा": 1707,
      "सौ": 1708,
      "दादा": 1709,
      "कदा": 1710,
      "यूसु": 1711,
      "विर": 1712,
      "जल्दी": 1713,
      "भाँ": 1714,
      "मालिक": 1715,
      "्रर": 1716,
      "बेटे": 1717,
      "इत": 1718,
      "आन": 1719,
      "भलाई": 1720,
      "फाइल": 1721,
      "अरे": 1722,
      "ीन": 1723,
      "दुआ": 1724,
      "तत्वदर्": 1725,
      "पहा": 1726,
      "ैन": 1727,
      "रों": 1728,
      "वस्तु": 1729,
      "गत": 1730,
      "नूह": 1731,
      "खोलें": 1732,
      "दयालु": 1733,
      "चान": 1734,
      "लाते": 1735,
      "नमाज़": 1736,
      "ोल्यूशन": 1737,
      "चुकी": 1738,
      "ut": 1739,
      "ज़ालिम": 1740,
      "न्दगी": 1741,
      "तुझे": 1742,
      "सच": 1743,
      "मानों": 1744,
      "धान": 1745,
      "आख़िरत": 1746,
      "भाँति": 1747,
      "गवाही": 1748,
      "कुफ्फ़ार": 1749,
      "ँच": 1750,
      "रिश्तों": 1751,
      "बनाए": 1752,
      "आवा": 1753,
      "नबी": 1754,
      "मुसल": 1755,
      "परहेज़": 1756,
      "भरोसा": 1757,
      "नत": 1758,
      "रखें": 1759,
      "तकली": 1760,
      "कं": 1761,
      "विन": 1762,
      "औला": 1763,
      "ज़रुर": 1764,
      "नर": 1765,
      "आपस": 1766,
      "खूब": 1767,
      "लेने": 1768,
      "ख्याल": 1769,
      "मुक़र्रर": 1770,
      "ग़ालिब": 1771,
      "सवा": 1772,
      "ड़ी": 1773,
      "अंत": 1774,
      "दयावान": 1775,
      "एवोल्यूशन": 1776,
      "दयालुता": 1777,
      "एम": 1778,
      "बुराई": 1779,
      "योक्ता": 1780,
      "जाओगे": 1781,
      "मिटाएँ": 1782,
      "नेअ": 1783,
      "बंध": 1784,
      "औरत": 1785,
      "उत्तम": 1786,
      "लाओ": 1787,
      "देना": 1788,
      "गोया": 1789,
      "लाया": 1790,
      "इसका": 1791,
      "कान": 1792,
      "हस्ता": 1793,
      "क़ु": 1794,
      "सजदा": 1795,
      "बन्दगी": 1796,
      "िक्त": 1797,
      "ac": 1798,
      "of": 1799,
      "यक़ीनी": 1800,
      "अफ": 1801,
      "मोह": 1802,
      "बोझ": 1803,
      "ज़ार": 1804,
      "मुना": 1805,
      "हार": 1806,
      "कने": 1807,
      "मृ": 1808,
      "्ठा": 1809,
      "बनाकर": 1810,
      "पंक्ति": 1811,
      "पलट": 1812,
      "नेवाले": 1813,
      "अतिर": 1814,
      "भाष": 1815,
      "नेअमत": 1816,
      "ंजी": 1817,
      "गुण": 1818,
      "तार": 1819,
      "ज़र": 1820,
      "शुरू": 1821,
      "चन्द": 1822,
      "औलाद": 1823,
      "अतिरिक्त": 1824,
      "फ़ैसला": 1825,
      "इसकी": 1826,
      "बरसा": 1827,
      "नही": 1828,
      "बाग़": 1829,
      "फिरऔन": 1830,
      "ment": 1831,
      "औरतों": 1832,
      "हिसाब": 1833,
      "तीन": 1834,
      "मज़": 1835,
      "जरूरत": 1836,
      "धर्म": 1837,
      "बदलें": 1838,
      "तं": 1839,
      "क्शन": 1840,
      "वर्ष": 1841,
      "्रोत": 1842,
      "म्मे": 1843,
      "ख़ुद": 1844,
      "प्रमाणपत्र": 1845,
      "ec": 1846,
      "जन्न": 1847,
      "दरत": 1848,
      "मति": 1849,
      "ख़बर": 1850,
      "ुक": 1851,
      "हवा": 1852,
      "ूप": 1853,
      "विश्वास": 1854,
      "करोगे": 1855,
      "पुन": 1856,
      "जहन्न": 1857,
      "निर्देश": 1858,
      "पंचा": 1859,
      "असफल": 1860,
      "पकड़": 1861,
      "परियोजना": 1862,
      "पंचांग": 1863,
      "जहन्नम": 1864,
      "चो": 1865,
      "ज़त": 1866,
      "पसन्द": 1867,
      "सीधे": 1868,
      "भट": 1869,
      "पैग़म्बरों": 1870,
      "इतना": 1871,
      "हरें": 1872,
      "रौशन": 1873,
      "अनुमति": 1874,
      "सलाम": 1875,
      "सन": 1876,
      "इसरा": 1877,
      "बिना": 1878,
      "रहमत": 1879,
      "ून": 1880,
      "ज़ाहिर": 1881,
      "कन": 1882,
      "हासिल": 1883,
      "भाव": 1884,
      "हिक": 1885,
      "युक्त": 1886,
      "सां": 1887,
      "मार्गदर्शन": 1888,
      "सच्चा": 1889,
      "खी": 1890,
      "जार": 1891,
      "अन्त": 1892,
      "il": 1893,
      "जित": 1894,
      "फ़िर": 1895,
      "क्रि": 1896,
      "साफ़": 1897,
      "तरित": 1898,
      "क्रम": 1899,
      "नमाज़": 1900,
      "तिम": 1901,
      "क़िया": 1902,
      "क़ियामत": 1903,
      "प्रभुत्व": 1904,
      "ing": 1905,
      "ईल": 1906,
      "उपयोक्ता": 1907,
      "_S": 1908,
      "सक्रिय": 1909,
      "मतलब": 1910,
      "निकट": 1911,
      "अनक़रीब": 1912,
      "बनाने": 1913,
      "कूट": 1914,
      "रहें": 1915,
      "न्ट": 1916,
      "ईसा": 1917,
      "द्धि": 1918,
      "न्यू": 1919,
      "हम्": 1920,
      "मियान": 1921,
      "200": 1922,
      "us": 1923,
      "दरमियान": 1924,
      "पिता": 1925,
      "ऑं": 1926,
      "तय": 1927,
      "रसूलों": 1928,
      "मुझसे": 1929,
      "कमांड": 1930,
      "ैव": 1931,
      "इन्कार": 1932,
      "अल": 1933,
      "तूने": 1934,
      "सदैव": 1935,
      "चलते": 1936,
      "ur": 1937,
      "खाली": 1938,
      "ज़िन्दा": 1939,
      "हस्ताक्षर": 1940,
      "शेष": 1941,
      "हाद": 1942,
      "ग्री": 1943,
      "तत्वदर्शी": 1944,
      "दूसरी": 1945,
      "क्षमाशील": 1946,
      "नए": 1947,
      "फ्र": 1948,
      "ओह": 1949,
      "कें": 1950,
      "भार": 1951,
      "ज़िन्दगी": 1952,
      "ख़ूब": 1953,
      "कदापि": 1954,
      "शक्ति": 1955,
      "विन्": 1956,
      "िश": 1957,
      "आयात": 1958,
      "शरीक": 1959,
      "यें": 1960,
      "फ़ा": 1961,
      "di": 1962,
      "मौत": 1963,
      "योग्य": 1964,
      "पेट": 1965,
      "दारों": 1966,
      "आख़िरत": 1967,
      "तला": 1968,
      "इश": 1969,
      "प्रि": 1970,
      "सन्तान": 1971,
      "नौ": 1972,
      "लम": 1973,
      "मुसी": 1974,
      "सब्र": 1975,
      "तेरी": 1976,
      "सिवाय": 1977,
      "रहेगा": 1978,
      "क़सम": 1979,
      "फू": 1980,
      "करती": 1981,
      "सामर्थ": 1982,
      "सामर्थ्य": 1983,
      "ज़ल": 1984,
      "to": 1985,
      "ढूं": 1986,
      "जाँच": 1987,
      "डाटा": 1988,
      "गुनाहों": 1989,
      "संसार": 1990,
      "ईमानवालों": 1991,
      "काल": 1992,
      "वर्त": 1993,
      "शहर": 1994,
      "च्च": 1995,
      "बख्शने": 1996,
      "लील": 1997,
      "स्वीकार": 1998,
      "मुख": 1999,
      "for": 2000,
      "शुभ": 2001,
      "वाक़िफ": 2002,
      "मुश": 2003,
      "बोले": 2004,
      "बारगाह": 2005,
      "अधिकार": 2006,
      "घरों": 2007,
      "साझी": 2008,
      "टन": 2009,
      "बर्": 2010,
      "भय": 2011,
      "मुसलमानों": 2012,
      "प्ट": 2013,
      "ढूंढ": 2014,
      "कीन": 2015,
      "लूत": 2016,
      "कम्": 2017,
      "तौर": 2018,
      "रआन": 2019,
      "औऱ": 2020,
      "खुश": 2021,
      "ल्टर": 2022,
      "अवै": 2023,
      "फ़रमा": 2024,
      "ख्वाह": 2025,
      "अवैध": 2026,
      "द्य": 2027,
      "ज़ालिम": 2028,
      "नेक": 2029,
      "पालन": 2030,
      "मुसीबत": 2031,
      "स्क्रीन": 2032,
      "नहरें": 2033,
      "जन्नत": 2034,
      "बारा": 2035,
      "बड़े": 2036,
      "चिह": 2037,
      "त्म": 2038,
      "मोड": 2039,
      "ज़रा": 2040,
      "ल्य": 2041,
      "मौजि": 2042,
      "तमाम": 2043,
      "Com": 2044,
      "इल्म": 2045,
      "उल": 2046,
      "क़ुरआन": 2047,
      "भेजे": 2048,
      "प्रारंभ": 2049,
      "एशिया": 2050,
      "निर्देशिका": 2051,
      "दित": 2052,
      "कहना": 2053,
      "पहुँचे": 2054,
      "खों": 2055,
      "मॉ": 2056,
      "वेश": 2057,
      "शान": 2058,
      "\\\\": 2059,
      "देखने": 2060,
      "भग": 2061,
      "--": 2062,
      "स्रोत": 2063,
      "चैन": 2064,
      "साइ": 2065,
      "मुक़ा": 2066,
      "विफल": 2067,
      "चाल": 2068,
      "नेकी": 2069,
      "पीठ": 2070,
      "कुंजी": 2071,
      "्यू": 2072,
      "रोज़ी": 2073,
      "डरो": 2074,
      "भव": 2075,
      "शायद": 2076,
      "कई": 2077,
      "ॉप": 2078,
      "नीन": 2079,
      "खाते": 2080,
      "नियत": 2081,
      "मर्द": 2082,
      "काट": 2083,
      "प्रभुत्वशाली": 2084,
      "उट": 2085,
      "ख्ते": 2086,
      "खुली": 2087,
      "विनष्ट": 2088,
      "ब्र": 2089,
      "सहायक": 2090,
      "यूसुफ": 2091,
      "अक्": 2092,
      "रखी": 2093,
      "चर": 2094,
      "शर": 2095,
      "स्वा": 2096,
      "रखे": 2097,
      "ड़ाई": 2098,
      "दर्द": 2099,
      "दिखाया": 2100,
      "चारी": 2101,
      "अपरा": 2102,
      "यूँ": 2103,
      "लाइ": 2104,
      "अन्ततः": 2105,
      "बाग़": 2106,
      "प्रवि": 2107,
      "ैर्य": 2108,
      "मिन": 2109,
      "धैर्य": 2110,
      "उम्मी": 2111,
      "घाटे": 2112,
      "गुज़र": 2113,
      "फार": 2114,
      "नाक": 2115,
      "इकट": 2116,
      "ख़ौ": 2117,
      "मित्र": 2118,
      "पहचान": 2119,
      "परिवर्तन": 2120,
      "क्लिक": 2121,
      "फोन": 2122,
      "पोर्ट": 2123,
      "त्ल": 2124,
      "घटना": 2125,
      "लाल": 2126,
      "परी": 2127,
      "Comment": 2128,
      "टुक": 2129,
      "प्रदर्": 2130,
      "कृतज्ञ": 2131,
      "हिकमत": 2132,
      "मही": 2133,
      "सारा": 2134,
      "िन": 2135,
      "टकार": 2136,
      "जिनको": 2137,
      "कितने": 2138,
      "_A": 2139,
      "पड़": 2140,
      "बॉ": 2141,
      "महि": 2142,
      "मानो": 2143,
      "समूह": 2144,
      "fo": 2145,
      "धो": 2146,
      "रहता": 2147,
      "वीडियो": 2148,
      "एक्स": 2149,
      "कॉन्": 2150,
      "ea": 2151,
      "जीवित": 2152,
      "ज्ञात": 2153,
      "आउट": 2154,
      "परहेज़गार": 2155,
      "मोमिनीन": 2156,
      "लॉग": 2157,
      "रोप": 2158,
      "अवतरित": 2159,
      "कूटशब्द": 2160,
      "जांच": 2161,
      "लोगो": 2162,
      "ब्ध": 2163,
      "अगले": 2164,
      "रक्षित": 2165,
      "ग्राम": 2166,
      "as": 2167,
      "हिश्त": 2168,
      "स्थित": 2169,
      "लौटा": 2170,
      "इल": 2171,
      "नक़": 2172,
      "ब्रा": 2173,
      "हमसे": 2174,
      "राम": 2175,
      "बेट": 2176,
      "उल्": 2177,
      "जिससे": 2178,
      "डो": 2179,
      "un": 2180,
      "लिस": 2181,
      "समाप्त": 2182,
      "पैर": 2183,
      "समझा": 2184,
      "अनुग्रह": 2185,
      "ॉन": 2186,
      "यहू": 2187,
      "टिंग": 2188,
      "जानकारी": 2189,
      "लब्ध": 2190,
      "नीय": 2191,
      "मिट्टी": 2192,
      "बहुतेरे": 2193,
      "मामले": 2194,
      "ch": 2195,
      "जल्द": 2196,
      "झा": 2197,
      "क़त": 2198,
      "र्स": 2199,
      "खाओ": 2200,
      "बनाते": 2201,
      "सरकश": 2202,
      "एन": 2203,
      "बच्चे": 2204,
      "सारी": 2205,
      "नियों": 2206,
      "साव": 2207,
      "त्यु": 2208,
      "स्त्रियों": 2209,
      "दस्तावेज़": 2210,
      "मुह": 2211,
      "रिए": 2212,
      "मृत्यु": 2213,
      "गू": 2214,
      "दारी": 2215,
      "भूमि": 2216,
      "मौजूदा": 2217,
      "शित": 2218,
      "सिं": 2219,
      "स्तर": 2220,
      "लानेवालो": 2221,
      "सोस": 2222,
      "ग़ौर": 2223,
      "सामान्य": 2224,
      "अहले": 2225,
      "मानी": 2226,
      "मेट": 2227,
      "सुरक्षित": 2228,
      "सीमा": 2229,
      "बेहिश्त": 2230,
      "_D": 2231,
      "कैसा": 2232,
      "ंचा": 2233,
      "सुबह": 2234,
      "अत्याचार": 2235,
      "तबा": 2236,
      "रक्षा": 2237,
      "बिल": 2238,
      "बन्दे": 2239,
      "सरकशी": 2240,
      "काफिरों": 2241,
      "ल्ट": 2242,
      "info": 2243,
      "बाहम": 2244,
      "सूर": 2245,
      "दक": 2246,
      "तुम्हे": 2247,
      "खड़े": 2248,
      "भ्र": 2249,
      "प्यार": 2250,
      "क़रार": 2251,
      "मुक़ाबले": 2252,
      "सिर": 2253,
      "तिथ": 2254,
      "चयन": 2255,
      "शं": 2256,
      "भूल": 2257,
      "घ्र": 2258,
      "सरण": 2259,
      "अनुसरण": 2260,
      "नक़ल": 2261,
      "(%": 2262,
      "प्रवेश": 2263,
      "तिश": 2264,
      "गलत": 2265,
      "ख्वा": 2266,
      "ज़ुल्म": 2267,
      "जिन्": 2268,
      "शीघ्र": 2269,
      "प्लगइन": 2270,
      "पट": 2271,
      "ज़िर": 2272,
      "सोच": 2273,
      "उम्मीद": 2274,
      "विन्यास": 2275,
      "ge": 2276,
      "डाले": 2277,
      "कुफ्र": 2278,
      "कती": 2279,
      "ख़ुश": 2280,
      "बस्ती": 2281,
      "स्य": 2282,
      "सुनता": 2283,
      "गुमराह": 2284,
      "दोबारा": 2285,
      "लिखा": 2286,
      "ज़ार": 2287,
      "उतारा": 2288,
      "बस्ति": 2289,
      "पालने": 2290,
      "स्थानी": 2291,
      "मिसाल": 2292,
      "बनी": 2293,
      "ज्ञापन": 2294,
      "सारिक": 2295,
      "भेजें": 2296,
      "सांसारिक": 2297,
      "अदा": 2298,
      "बादशा": 2299,
      "अवज्ञा": 2300,
      "क़ुबूल": 2301,
      "अके": 2302,
      "आमाल": 2303,
      "निशानियों": 2304,
      "तंत्र": 2305,
      "मोमिन": 2306,
      "आव": 2307,
      "दिष्ट": 2308,
      "भारी": 2309,
      "अधिकतर": 2310,
      "हद": 2311,
      "कारों": 2312,
      "दुश्": 2313,
      "उच्च": 2314,
      "ढा": 2315,
      "स्थानीय": 2316,
      "कहता": 2317,
      "जानवर": 2318,
      "मज़ा": 2319,
      "बच": 2320,
      "आशा": 2321,
      "पना": 2322,
      "गिन": 2323,
      "धारित": 2324,
      "नई": 2325,
      "अभिलेख": 2326,
      "टू": 2327,
      "करी": 2328,
      "लग्न": 2329,
      "दुखद": 2330,
      "ce": 2331,
      "de": 2332,
      "हास": 2333,
      "हटकर": 2334,
      "चुन": 2335,
      "तारी": 2336,
      "घड़ी": 2337,
      "परस": 2338,
      "वरण": 2339,
      "ख़र्च": 2340,
      "दरवा": 2341,
      "बेटा": 2342,
      "उपलब्ध": 2343,
      "भाषा": 2344,
      "ज़्": 2345,
      "जाएं": 2346,
      "चेत": 2347,
      "कठोर": 2348,
      "कहेगा": 2349,
      "खाना": 2350,
      "काफ़िरों": 2351,
      "सावधान": 2352,
      "आते": 2353,
      "सत्या": 2354,
      "ग़ै": 2355,
      "खाने": 2356,
      "अवधि": 2357,
      "em": 2358,
      "आपने": 2359,
      "तेरा": 2360,
      "स्थापित": 2361,
      "राब": 2362,
      "मानते": 2363,
      "छुपा": 2364,
      "दिर": 2365,
      "जिए": 2366,
      "विचार": 2367,
      "इसराईल": 2368,
      "फ़ी": 2369,
      "रख्": 2370,
      "अक्षम": 2371,
      "प्रोग्राम": 2372,
      "अद्य": 2373,
      "परे": 2374,
      "बिगा": 2375,
      "ँव": 2376,
      "यादती": 2377,
      "अनुसार": 2378,
      "कुफ़": 2379,
      "_R": 2380,
      "देगें": 2381,
      "क़ि": 2382,
      "रोज़ी": 2383,
      "ताव": 2384,
      "परसतिश": 2385,
      "मुला": 2386,
      "सीधा": 2387,
      "ध्यान": 2388,
      "फ़िरऔन": 2389,
      "लेंगे": 2390,
      "आपका": 2391,
      "पहली": 2392,
      "संपादक": 2393,
      "वर्तमान": 2394,
      "मियों": 2395,
      "शामिल": 2396,
      "चुप": 2397,
      "दिखाता": 2398,
      "आदम": 2399,
      "अंतिम": 2400,
      "रास्ता": 2401,
      "हान": 2402,
      "हाथों": 2403,
      "साद": 2404,
      "पूर्वक": 2405,
      "हमको": 2406,
      "हेतु": 2407,
      "समर्थित": 2408,
      "संलग्न": 2409,
      "_C": 2410,
      "परन्तु": 2411,
      "न्य": 2412,
      "सुनते": 2413,
      "शत्रु": 2414,
      "च्छा": 2415,
      "कॉल": 2416,
      "उतार": 2417,
      "ra": 2418,
      "ज़े": 2419,
      "ंद": 2420,
      "हँ": 2421,
      "सबी": 2422,
      "खें": 2423,
      "दौरान": 2424,
      "जों": 2425,
      "आती": 2426,
      "कब": 2427,
      "सामग्री": 2428,
      "ther": 2429,
      "_F": 2430,
      "इस्": 2431,
      "फु": 2432,
      "र्ड": 2433,
      "फ़रिश्ते": 2434,
      "श्री": 2435,
      "ध्व": 2436,
      "ताबे": 2437,
      "बढ़कर": 2438,
      "कुफ़्र": 2439,
      "घे": 2440,
      "यक": 2441,
      "निष्": 2442,
      "संग": 2443,
      "पूछो": 2444,
      "मारे": 2445,
      "श्रे": 2446,
      "ल्स": 2447,
      "सर्व": 2448,
      "इस्ते": 2449,
      "अंग": 2450,
      "लिखने": 2451,
      "प्रकाशना": 2452,
      "फ़ॉन्ट": 2453,
      "इकट्ठा": 2454,
      "ज़िम्मे": 2455,
      "षण": 2456,
      "साफ़": 2457,
      "शुदा": 2458,
      "लानत": 2459,
      "अनुप्रयोग": 2460,
      "मस्": 2461,
      "साथी": 2462,
      "युद्ध": 2463,
      "ंश": 2464,
      "लाएँ": 2465,
      "ख्तेयार": 2466,
      "टॉ": 2467,
      "वाव": 2468,
      "ग्": 2469,
      "नज़र": 2470,
      "मिले": 2471,
      "ईमानवाले": 2472,
      "ख़बरी": 2473,
      "बुरे": 2474,
      "समर्थन": 2475,
      "िस": 2476,
      "भगवान": 2477,
      "दरख्": 2478,
      "AR": 2479,
      "आता": 2480,
      "पिछले": 2481,
      "चम": 2482,
      "कितनी": 2483,
      "जिहाद": 2484,
      "बद्": 2485,
      "माना": 2486,
      "अर्ज़": 2487,
      "कुरान": 2488,
      "मित": 2489,
      "वर्ड": 2490,
      "AP": 2491,
      "लेता": 2492,
      "रखना": 2493,
      "इस्तेमाल": 2494,
      "स्थायी": 2495,
      "लक्ष": 2496,
      "फ़िल्टर": 2497,
      "गति": 2498,
      "लोकन": 2499,
      "जात": 2500,
      "प्ता": 2501,
      "रहमान": 2502,
      "पहाड़": 2503,
      "व्या": 2504,
      "फैसला": 2505,
      "भो": 2506,
      "सात": 2507,
      "ख़र्च": 2508,
      "मुद्र": 2509,
      "छोड़कर": 2510,
      "डॉ": 2511,
      "इसको": 2512,
      "बुद्धि": 2513,
      "सचेत": 2514,
      "विशेष": 2515,
      "ेंट": 2516,
      "जादूगर": 2517,
      "तिथि": 2518,
      "महान": 2519,
      "देखें": 2520,
      "बन्ध": 2521,
      "ख़िल": 2522,
      "तयशुदा": 2523,
      "सुनो": 2524,
      "आसमानों": 2525,
      "भिन्न": 2526,
      "con": 2527,
      "अम": 2528,
      "and": 2529,
      "सफलता": 2530,
      "दशा": 2531,
      "बग": 2532,
      "मूल्य": 2533,
      "दर्दनाक": 2534,
      "खुला": 2535,
      "फ़ाइलें": 2536,
      "अज्ञात": 2537,
      "राहे": 2538,
      "चढ़": 2539,
      "मुर्": 2540,
      "संस्": 2541,
      "ग्रा": 2542,
      "कॉन्फ़ि": 2543,
      "चुना": 2544,
      "सरपर": 2545,
      "नीति": 2546,
      "खड़े": 2547,
      "दबा": 2548,
      "ज़ुल्म": 2549,
      "रहना": 2550,
      "लगी": 2551,
      "सीडी": 2552,
      "निर्दिष्ट": 2553,
      "लाभ": 2554,
      "कार्ड": 2555,
      "मरने": 2556,
      "_B": 2557,
      "त्रण": 2558,
      "गर्": 2559,
      "तंग": 2560,
      "सेना": 2561,
      "अपमान": 2562,
      "पूर्वाव": 2563,
      "पूर्वावलोकन": 2564,
      "थीं": 2565,
      "जैसी": 2566,
      "ज्र": 2567,
      "सै": 2568,
      "सक्षम": 2569,
      "ौल": 2570,
      "ख़ौफ": 2571,
      ")...": 2572,
      "उदार": 2573,
      "दिख": 2574,
      "दरिया": 2575,
      "देकर": 2576,
      "होंगी": 2577,
      "इन्सान": 2578,
      "बढ़ा": 2579,
      "दृष्टि": 2580,
      "आवश्य": 2581,
      "हलाक": 2582,
      "टल": 2583,
      "पैरवी": 2584,
      "नेवालों": 2585,
      "वाक़िफ़": 2586,
      "ex": 2587,
      "ia": 2588,
      "चों": 2589,
      "सरों": 2590,
      "डराने": 2591,
      "12": 2592,
      "यदे": 2593,
      "जाम": 2594,
      "चिह्": 2595,
      "सरी": 2596,
      "रद्द": 2597,
      "बरकत": 2598,
      "पुस्ति": 2599,
      "वारिस": 2600,
      "देव": 2601,
      "वेब": 2602,
      "आएगा": 2603,
      "sh": 2604,
      "अस": 2605,
      "अत्याचारी": 2606,
      "पुस्तिका": 2607,
      "ड्र": 2608,
      "देखता": 2609,
      "छू": 2610,
      "यहां": 2611,
      "रास्ते": 2612,
      "बाल": 2613,
      "ढूंढें": 2614,
      "फज़ल": 2615,
      "हरी": 2616,
      "ेरत": 2617,
      "जर": 2618,
      "पथभ्र": 2619,
      "\",": 2620,
      "ट्रै": 2621,
      "10": 2622,
      "बहा": 2623,
      "संके": 2624,
      "क़ादिर": 2625,
      "दस्त": 2626,
      "वस": 2627,
      "ज़रिए": 2628,
      "चाहेंगे": 2629,
      "उठाए": 2630,
      "सरपरस्त": 2631,
      "ri": 2632,
      "मना": 2633,
      "खिला": 2634,
      "प्रतीक्षा": 2635,
      "ण्ड": 2636,
      "यूरोप": 2637,
      "्रीका": 2638,
      "घड़": 2639,
      "विस्त": 2640,
      "बटन": 2641,
      "दूरी": 2642,
      "ंगा": 2643,
      "षित": 2644,
      "दोज़": 2645,
      "तसबी": 2646,
      "यल": 2647,
      "आख़ेरत": 2648,
      "तसबीह": 2649,
      "ma": 2650,
      "अला": 2651,
      "पति": 2652,
      "जिनकी": 2653,
      "संपादित": 2654,
      "ld": 2655,
      "ईमेल": 2656,
      "कोड": 2657,
      "इसपर": 2658,
      "पाकी": 2659,
      "क़दम": 2660,
      "सहेज": 2661,
      "ार्थ": 2662,
      "अंदर": 2663,
      "ion": 2664,
      "ुद्ध": 2665,
      "दिनों": 2666,
      "पुट": 2667,
      "पाए": 2668,
      "_P": 2669,
      "टाइ": 2670,
      "बूझ": 2671,
      "बीर": 2672,
      "संस्करण": 2673,
      "अलब": 2674,
      "गै": 2675,
      "फें": 2676,
      "डाउन": 2677,
      "समें": 2678,
      "स्या": 2679,
      "जिसपर": 2680,
      "बक": 2681,
      "बढ़ा": 2682,
      "प्रकट": 2683,
      "भेद": 2684,
      "प्ले": 2685,
      "रक्षक": 2686,
      "IM": 2687,
      "बख्त": 2688,
      "मज़ा": 2689,
      "कुदरत": 2690,
      "अरब": 2691,
      "इयों": 2692,
      "िल": 2693,
      "होगे": 2694,
      "विधि": 2695,
      "li": 2696,
      "अफ्रीका": 2697,
      "घं": 2698,
      "निकाह": 2699,
      "अद्यतन": 2700,
      "खैर": 2701,
      "मक्का": 2702,
      "ध्वनि": 2703,
      "दियों": 2704,
      "स्त्री": 2705,
      "पल": 2706,
      "ोध": 2707,
      "दूसरा": 2708,
      "हलाल": 2709,
      "UR": 2710,
      "दिखाई": 2711,
      "कमी": 2712,
      "हाज़िर": 2713,
      "शांत": 2714,
      "AN": 2715,
      "नेट": 2716,
      "दाख़िल": 2717,
      "ter": 2718,
      "जाय": 2719,
      "बस्तियों": 2720,
      "आराम": 2721,
      "आसान": 2722,
      "बताओ": 2723,
      "संपादन": 2724,
      "मिनट": 2725,
      "बैक": 2726,
      "बैठक": 2727,
      "सिखा": 2728,
      "ke": 2729,
      "रास्त": 2730,
      "प्रभा": 2731,
      "आपकी": 2732,
      "प्रविष्ट": 2733,
      "दाहि": 2734,
      "राज": 2735,
      "जिनमें": 2736,
      "वर्ण": 2737,
      "शीर्षक": 2738,
      "सत्र": 2739,
      "उपस्थित": 2740,
      "चिह्नित": 2741,
      "वैध": 2742,
      "इरा": 2743,
      "गये": 2744,
      "ate": 2745,
      "काफी": 2746,
      "चन": 2747,
      "चीज़ों": 2748,
      "ज़मा": 2749,
      "खिल": 2750,
      "क़िस्म": 2751,
      "धु": 2752,
      "ग्रे": 2753,
      "समूद": 2754,
      "अलबत्ता": 2755,
      "चढ़": 2756,
      "करम": 2757,
      "बीवि": 2758,
      "नात": 2759,
      "प्रबंध": 2760,
      "अगरचे": 2761,
      "वृत्": 2762,
      "ht": 2763,
      "इच्छा": 2764,
      "प्रार्थ": 2765,
      "मैने": 2766,
      "बिगाड़": 2767,
      "नियं": 2768,
      "डिफ़ॉ": 2769,
      "पथभ्रष्ट": 2770,
      "लर": 2771,
      "औरतें": 2772,
      "इस्लाम": 2773,
      "हॉ": 2774,
      "बूत": 2775,
      "केडी": 2776,
      "डिफ़ॉल्ट": 2777,
      "दूँगा": 2778,
      "हित": 2779,
      "दुश्मन": 2780,
      "पुकारते": 2781,
      "एहसान": 2782,
      "महीने": 2783,
      "नज़": 2784,
      "खुले": 2785,
      "निर्धारित": 2786,
      "क्सी": 2787,
      "विरुद्ध": 2788,
      "चिं": 2789,
      "अधिकतम": 2790,
      "bo": 2791,
      "मददगार": 2792,
      "बच्चों": 2793,
      "दोज़ख़": 2794,
      "फरिश्ते": 2795,
      "डिंग": 2796,
      "पनाह": 2797,
      "प्रार्थना": 2798,
      "be": 2799,
      "ज़ोर": 2800,
      "उत्तर": 2801,
      "एहद": 2802,
      "राज्य": 2803,
      "),": 2804,
      "रोज़": 2805,
      "wea": 2806,
      "य्य": 2807,
      "प्रशं": 2808,
      "मामला": 2809,
      "स्पर": 2810,
      "टैब": 2811,
      "पुरुषों": 2812,
      "20": 2813,
      "बानी": 2814,
      "चाहें": 2815,
      "weather": 2816,
      "गुज़र": 2817,
      "देखोगे": 2818,
      "मुख्य": 2819,
      "qu": 2820,
      "ज़बर": 2821,
      "इंच": 2822,
      "खड़ा": 2823,
      "गण": 2824,
      "पूछा": 2825,
      "चू": 2826,
      "जूद": 2827,
      "मुलाकात": 2828,
      "टकारा": 2829,
      "पुकारा": 2830,
      "मक्": 2831,
      "छुटकारा": 2832,
      "उतर": 2833,
      "चाहा": 2834,
      "हटाएँ": 2835,
      "कुम": 2836,
      "बन्दी": 2837,
      "सवार": 2838,
      "रियम": 2839,
      "आरंभ": 2840,
      "आज्ञाकारी": 2841,
      "प्रदर्शित": 2842,
      "घो": 2843,
      "मग़": 2844,
      "लक्ष्य": 2845,
      "सले": 2846,
      "प्रतिदान": 2847,
      "हम्मद": 2848,
      "परस्पर": 2849,
      "फ़रिश्तों": 2850,
      "#-#-#": 2851,
      "#-#-#-#-#": 2852,
      "बद्ध": 2853,
      "अमान": 2854,
      "ठहर": 2855,
      "नजात": 2856,
      "लड़के": 2857,
      "प्रारूप": 2858,
      "पाकीज़ा": 2859,
      "क़ब्": 2860,
      "पाने": 2861,
      "ौरन": 2862,
      "भरें": 2863,
      "पहाड़": 2864,
      "तबाही": 2865,
      "घन": 2866,
      "सुनने": 2867,
      "फरमाया": 2868,
      "केडीई": 2869,
      "मरियम": 2870,
      "कुफ्फार": 2871,
      "डाउनलोड": 2872,
      "क़त्ल": 2873,
      "लाता": 2874,
      "दीक": 2875,
      "किये": 2876,
      "बेहश्त": 2877,
      "ब्रे": 2878,
      "प्रतीक": 2879,
      "सप्ता": 2880,
      "ख़ैर": 2881,
      "यद्य": 2882,
      "wor": 2883,
      "ट्रे": 2884,
      "याय": 2885,
      "चाँ": 2886,
      "वर्ग": 2887,
      "खिसका": 2888,
      "उतारी": 2889,
      "यद्यपि": 2890,
      "तस्वी": 2891,
      "दिखाने": 2892,
      "महिला": 2893,
      "no": 2894,
      "पें": 2895,
      "बरत": 2896,
      "पान": 2897,
      "आएँ": 2898,
      "मारा": 2899,
      "पाओगे": 2900,
      "लगते": 2901,
      "पत्थ": 2902,
      "जंग": 2903,
      "लिंक": 2904,
      "oun": 2905,
      "संरक्षक": 2906,
      "बारी": 2907,
      "सवाब": 2908,
      "der": 2909,
      "ग़ु": 2910,
      "नाफर": 2911,
      "मोमिनों": 2912,
      "डीवी": 2913,
      "क़ुदरत": 2914,
      "आधार": 2915,
      "दाखिल": 2916,
      "चलने": 2917,
      "ख्वाहि": 2918,
      "र्ज़": 2919,
      "बाव": 2920,
      "ve": 2921,
      "मिलता": 2922,
      "थोड़ा": 2923,
      "पूज": 2924,
      "मौजिज़े": 2925,
      "मुक़ा": 2926,
      "सीधी": 2927,
      "सको": 2928,
      "सकें": 2929,
      "मुशरि": 2930,
      "जिनसे": 2931,
      "क़सम": 2932,
      "सेवा": 2933,
      "स्वतः": 2934,
      "झूठे": 2935,
      "समस्या": 2936,
      "भाग्य": 2937,
      "वचन": 2938,
      "col": 2939,
      "चालित": 2940,
      "तस्वीर": 2941,
      "जाये": 2942,
      "दूसरों": 2943,
      "दय": 2944,
      "सम्बन्ध": 2945,
      "चौड़ाई": 2946,
      "चखो": 2947,
      "तस्": 2948,
      "रेत": 2949,
      "अलावा": 2950,
      "इता": 2951,
      "निम्": 2952,
      "मिली": 2953,
      "सिया": 2954,
      "बनाई": 2955,
      "उठाया": 2956,
      "इजा": 2957,
      "माफ": 2958,
      "देनेवाला": 2959,
      "सन्देह": 2960,
      "साबित": 2961,
      "इतनी": 2962,
      "क्रिय": 2963,
      "_N": 2964,
      "स्कट": 2965,
      "सबके": 2966,
      "आदमियों": 2967,
      "डीवीडी": 2968,
      "यॉ": 2969,
      "ज़ोर": 2970,
      "ऊँगा": 2971,
      "आना": 2972,
      "मस्जि": 2973,
      "उम": 2974,
      "सूद": 2975,
      "समुदा": 2976,
      "डेस्कट": 2977,
      "_T": 2978,
      "ज़ू": 2979,
      "बरस": 2980,
      "अट": 2981,
      "सॉ": 2982,
      "डरता": 2983,
      "पुनर्": 2984,
      "wh": 2985,
      "क्षी": 2986,
      "पासवर्ड": 2987,
      "अकार": 2988,
      "कैसी": 2989,
      "ener": 2990,
      "गुनाहगार": 2991,
      "कम्पा": 2992,
      "इबरत": 2993,
      "गं": 2994,
      "सुधार": 2995,
      "खेती": 2996,
      "निम्न": 2997,
      "तरा": 2998,
      "हत्या": 2999,
      "फ़त": 3000,
      "कनेक्शन": 3001,
      "अनि": 3002,
      "फ़ी": 3003,
      "बाँ": 3004,
      "मिलेगा": 3005,
      "तरण": 3006,
      "कृतज्ञता": 3007,
      "बेटों": 3008,
      "बाति": 3009,
      "फ़ा": 3010,
      "बनाओ": 3011,
      "सित": 3012,
      "चेताव": 3013,
      "कड़ी": 3014,
      "लोगे": 3015,
      "लागू": 3016,
      "उपकरण": 3017,
      "श्र": 3018,
      "राने": 3019,
      "न्ना": 3020,
      "धन्य": 3021,
      "सूस": 3022,
      "सूरत": 3023,
      "मध्य": 3024,
      "बरदार": 3025,
      "कामया": 3026,
      "मूल": 3027,
      "शिर्क": 3028,
      "रोकते": 3029,
      "थोड़े": 3030,
      "क़ायम": 3031,
      "आवाज़": 3032,
      "ृति": 3033,
      "परवाह": 3034,
      "छोटे": 3035,
      "भटक": 3036,
      "ay": 3037,
      "सत्यापन": 3038,
      "लिप": 3039,
      "धन्यवाद": 3040,
      "जिनका": 3041,
      "देखे": 3042,
      "इंत": 3043,
      "संलग्नक": 3044,
      "काफ़ी": 3045,
      "व्यस्त": 3046,
      "बला": 3047,
      "पुष्टि": 3048,
      "षक": 3049,
      "हू": 3050,
      "होगें": 3051,
      "ड्राइ": 3052,
      "डेस्कटॉप": 3053,
      "नियम": 3054,
      "हल": 3055,
      "स्टे": 3056,
      "हमपर": 3057,
      "चाहो": 3058,
      "न्दर": 3059,
      "but": 3060,
      "क्षण": 3061,
      "IS": 3062,
      "स्र": 3063,
      "देर": 3064,
      "खींच": 3065,
      "एच": 3066,
      "पूरे": 3067,
      "इताअत": 3068,
      "HT": 3069,
      "सन्न": 3070,
      "रखनेवालों": 3071,
      "अक्सर": 3072,
      "परीक्षा": 3073,
      "बकवास": 3074,
      "ation": 3075,
      "सदस्य": 3076,
      "सप्ताह": 3077,
      "भड़": 3078,
      "ल्लम": 3079,
      "झूठा": 3080,
      "पड़ा": 3081,
      "पड़ा": 3082,
      "पहुंचा": 3083,
      "शिक्षा": 3084,
      "ूंगा": 3085,
      "तकलीफ़": 3086,
      "नज़दीक": 3087,
      "कक्ष": 3088,
      "सत": 3089,
      "कुबूल": 3090,
      "गीत": 3091,
      "ार्म": 3092,
      "प्रबंधक": 3093,
      "निरा": 3094,
      "छोड़कर": 3095,
      "प्ति": 3096,
      "स्मृति": 3097,
      "प्रिय": 3098,
      "तस": 3099,
      "चरा": 3100,
      "कैम": 3101,
      "लिखें": 3102,
      "तलाश": 3103,
      "_M": 3104,
      "मोहम्मद": 3105,
      "पहुँची": 3106,
      "विवरण": 3107,
      "इल्": 3108,
      "जज़ा": 3109,
      "फ्ट": 3110,
      "वसी": 3111,
      "कूल": 3112,
      "दस्तावेज": 3113,
      "इजाज़त": 3114,
      "साले": 3115,
      "ख्वाहिश": 3116,
      "समुदाय": 3117,
      "क़े": 3118,
      "रोका": 3119,
      "खुल्ला": 3120,
      "खुल्लम": 3121,
      "पत्थर": 3122,
      "दीदा": 3123,
      "वास्तविक": 3124,
      "उदा": 3125,
      "झों": 3126,
      "भेजी": 3127,
      "बावजूद": 3128,
      "मों": 3129,
      "बाग़ों": 3130,
      "निष्क्रिय": 3131,
      "काबा": 3132,
      "लेना": 3133,
      "कामों": 3134,
      "मिलने": 3135,
      "चीज़े": 3136,
      "पकड़": 3137,
      "प्रेम": 3138,
      "स्क्रि": 3139,
      "स्त्रियाँ": 3140,
      "झगड़": 3141,
      "हँसी": 3142,
      "झुठलाओगे": 3143,
      "ver": 3144,
      "करतू": 3145,
      "जाएँगें": 3146,
      "तकलीफ": 3147,
      "दीवार": 3148,
      "पुलिस": 3149,
      "जन्": 3150,
      "समान": 3151,
      "ल्क": 3152,
      "परहेज़गारों": 3153,
      "यकीन": 3154,
      "प्रभाव": 3155,
      "ठहराते": 3156,
      "एवं": 3157,
      "लाफ": 3158,
      "बुल": 3159,
      "विस्तार": 3160,
      "मजब": 3161,
      "तियों": 3162,
      "अन्जाम": 3163,
      "ख़बरदार": 3164,
      "अकेला": 3165,
      "तद": 3166,
      "मक़": 3167,
      "क्से": 3168,
      "चखा": 3169,
      "मंड": 3170,
      "करूँ": 3171,
      "माइ": 3172,
      "पुर": 3173,
      "आएगी": 3174,
      "तौरेत": 3175,
      "ग़ैर": 3176,
      "ारत": 3177,
      "ran": 3178,
      "अना": 3179,
      "उपा": 3180,
      "दस": 3181,
      "फ़्र": 3182,
      "सुले": 3183,
      "पढ़ा": 3184,
      "ज़ालिमों": 3185,
      "ट्रैक": 3186,
      "/%": 3187,
      "अक्षर": 3188,
      "इत्": 3189,
      "ऑडियो": 3190,
      "डालें": 3191,
      "हक़ी": 3192,
      "परो": 3193,
      "र्ण": 3194,
      "समझो": 3195,
      "सुलेमान": 3196,
      "दों": 3197,
      "फ्रे": 3198,
      "क्टर": 3199,
      "न्स": 3200,
      "रुको": 3201,
      "ist": 3202,
      "आवाज़": 3203,
      "शाम": 3204,
      "Gener": 3205,
      "रिया": 3206,
      "वग़ै": 3207,
      "पाई": 3208,
      "हरों": 3209,
      "कृपा": 3210,
      "सरीही": 3211,
      "बेस": 3212,
      "त्रा": 3213,
      "भूत": 3214,
      "समझे": 3215,
      "स्वचालित": 3216,
      "translat": 3217,
      "पत्नी": 3218,
      "ंक्शन": 3219,
      "शर्": 3220,
      "कितना": 3221,
      "tle": 3222,
      "आं": 3223,
      "निवे": 3224,
      "मनुष्यों": 3225,
      "छिपाते": 3226,
      "बरसाया": 3227,
      "फूँ": 3228,
      "ताओं": 3229,
      "इनसे": 3230,
      "ऊँचा": 3231,
      "फौरन": 3232,
      "तोड़": 3233,
      "अज्र": 3234,
      "नाशुक्र": 3235,
      "ज्ज़त": 3236,
      "छोटा": 3237,
      "mp": 3238,
      "रेशन": 3239,
      "दोष": 3240,
      "ज़ू": 3241,
      "स्क्रिप्ट": 3242,
      "नान": 3243,
      "बाक़ी": 3244,
      "गिरफ्": 3245,
      "रहेगी": 3246,
      "झगड़": 3247,
      "अफसोस": 3248,
      "जल": 3249,
      "शौ": 3250,
      "lo": 3251,
      "रॉ": 3252,
      "वग़ैरह": 3253,
      "चली": 3254,
      "फ्लै": 3255,
      "कमाई": 3256,
      "दलील": 3257,
      "तुम्": 3258,
      "वां": 3259,
      "सूर्य": 3260,
      "सुरक्षा": 3261,
      "अनुकम्पा": 3262,
      "दादाओं": 3263,
      "दरख्त": 3264,
      "कश्": 3265,
      "जरत": 3266,
      "तल": 3267,
      "करु": 3268,
      "रूरी": 3269,
      "सेटिंग": 3270,
      "प्रशांत": 3271,
      "एहकाम": 3272,
      "ap": 3273,
      "खरी": 3274,
      "जाननेवाला": 3275,
      "दुश": 3276,
      "बहका": 3277,
      "मोहलत": 3278,
      "चुपके": 3279,
      "आज़मा": 3280,
      "चीज़ों": 3281,
      "बताया": 3282,
      "ज़बान": 3283,
      "तियार": 3284,
      "खोलने": 3285,
      "एख्तेयार": 3286,
      "कही": 3287,
      "आँखों": 3288,
      "दाहिने": 3289,
      "प्रशंसा": 3290,
      "fi": 3291,
      "गारी": 3292,
      "नेको": 3293,
      "ाइलों": 3294,
      "नाफ़र": 3295,
      "प्रसन्न": 3296,
      "उम्मत": 3297,
      "धोखे": 3298,
      "प्या": 3299,
      "_O": 3300,
      "फिरते": 3301,
      "डालो": 3302,
      "व्यव": 3303,
      "अरबी": 3304,
      "इति": 3305,
      "संवाद": 3306,
      "दर्जे": 3307,
      "महफू": 3308,
      "टैग": 3309,
      "क़ब्ल": 3310,
      "महफूज़": 3311,
      "म्भ": 3312,
      "जन्म": 3313,
      "असमर्थ": 3314,
      "खजू": 3315,
      "नूर": 3316,
      "ad": 3317,
      "तिर": 3318,
      "करनी": 3319,
      "इतिहास": 3320,
      "कहे": 3321,
      "अंधे": 3322,
      "बिलकुल": 3323,
      "आंक": 3324,
      "दूँ": 3325,
      "कुफ़्र": 3326,
      "महत्व": 3327,
      "घाटा": 3328,
      "धित": 3329,
      "पाते": 3330,
      "पाबन्दी": 3331,
      "परिवार": 3332,
      "जेक्ट": 3333,
      "हल्": 3334,
      "चलता": 3335,
      "इंटर": 3336,
      "पश्चि": 3337,
      "po": 3338,
      "औज़ार": 3339,
      "डु": 3340,
      "याल": 3341,
      "स्के": 3342,
      "संस्थापित": 3343,
      "पीछा": 3344,
      "मेहरबानी": 3345,
      "दंड": 3346,
      "शॉ": 3347,
      "दुर्": 3348,
      "निर्ण": 3349,
      "सोचा": 3350,
      "क़ायम": 3351,
      "घुमा": 3352,
      "क्यू": 3353,
      "बीवियों": 3354,
      "गर्द": 3355,
      "पॉ": 3356,
      "मचा": 3357,
      "मसल": 3358,
      "सुख": 3359,
      "पर्या": 3360,
      "मुक़ाबले": 3361,
      "RS": 3362,
      "स्को": 3363,
      "मुशरे": 3364,
      "वहीं": 3365,
      "झुठलाते": 3366,
      "द्दत": 3367,
      "लना": 3368,
      "चेहरे": 3369,
      "रुजू": 3370,
      "ऊँट": 3371,
      "भेजने": 3372,
      "हब": 3373,
      "इनमें": 3374,
      "गिनती": 3375,
      "you": 3376,
      "अय्य": 3377,
      "ढे": 3378,
      "देखकर": 3379,
      "लगाते": 3380,
      "मज़बूत": 3381,
      "ढूँ": 3382,
      "चुने": 3383,
      "इतने": 3384,
      "घंटे": 3385,
      "उलट": 3386,
      "ट्": 3387,
      "मीम": 3388,
      "ज्यादती": 3389,
      "द्दी": 3390,
      "ts": 3391,
      "उद्": 3392,
      "भरे": 3393,
      "इसहा": 3394,
      "बनकर": 3395,
      "सर्वज्ञ": 3396,
      "प्रक्रिया": 3397,
      "संभव": 3398,
      "झुठलाने": 3399,
      "Th": 3400,
      "ऐब": 3401,
      "समुद्र": 3402,
      "पाँव": 3403,
      "बीमार": 3404,
      "सत्ता": 3405,
      "गुज़ार": 3406,
      "tin": 3407,
      "लंघन": 3408,
      "मिट": 3409,
      "स्टम": 3410,
      "निकाले": 3411,
      "परोक्ष": 3412,
      "मिटाना": 3413,
      "हारून": 3414,
      "चाहती": 3415,
      "item": 3416,
      "बातिल": 3417,
      "मुशरेकीन": 3418,
      "आयी": 3419,
      "ट्स": 3420,
      "थम": 3421,
      "साधन": 3422,
      "मात": 3423,
      "मीटर": 3424,
      "केंद्र": 3425,
      "टर्": 3426,
      "प्लगिन": 3427,
      "वरी": 3428,
      "यात": 3429,
      "सकेंगे": 3430,
      "इरादा": 3431,
      "ऑफ़": 3432,
      "माध्य": 3433,
      "मौज़ू": 3434,
      "ho": 3435,
      "अल्": 3436,
      "कचरा": 3437,
      "मादा": 3438,
      "गाय": 3439,
      "टिक": 3440,
      "लाएँगे": 3441,
      "मुता": 3442,
      "ess": 3443,
      "पुकारो": 3444,
      "tp": 3445,
      "गम": 3446,
      "किल": 3447,
      "इनके": 3448,
      "19": 3449,
      "हड": 3450,
      "देती": 3451,
      "वार्य": 3452,
      "गणना": 3453,
      "अनिवार्य": 3454,
      "सालेह": 3455,
      "दूध": 3456,
      "पूछते": 3457,
      "ID": 3458,
      "SL": 3459,
      "कारे": 3460,
      "फ़ि": 3461,
      "विभेद": 3462,
      "मख़": 3463,
      "दोहरा": 3464,
      "दीक़": 3465,
      "चेतावनी": 3466,
      "लीस": 3467,
      "बुलाया": 3468,
      "नतम": 3469,
      "जाकर": 3470,
      "मैदान": 3471,
      "सम्मि": 3472,
      "भावना": 3473,
      "ंज": 3474,
      "अर": 3475,
      "फरिश्तों": 3476,
      "वॉ": 3477,
      "प्रसंग": 3478,
      "पीने": 3479,
      "ज़िक्र": 3480,
      "सम्मान": 3481,
      "पसंदीदा": 3482,
      "सजदे": 3483,
      "जानवरों": 3484,
      "चाँद": 3485,
      "ख़ी": 3486,
      "बहन": 3487,
      "जहाँन": 3488,
      "माध्यम": 3489,
      "ML": 3490,
      "चक": 3491,
      "दिखायें": 3492,
      "कॉपी": 3493,
      "पन्न": 3494,
      "फोटो": 3495,
      "पिताजी": 3496,
      "अपराधी": 3497,
      "तर्क": 3498,
      "दह": 3499,
      "प्रयास": 3500,
      "वित्र": 3501,
      "चिल्ला": 3502,
      "दृढ़": 3503,
      "बनो": 3504,
      "वाना": 3505,
      "भाल": 3506,
      "this": 3507,
      "महसूस": 3508,
      "जानों": 3509,
      "लगाए": 3510,
      "क्षि": 3511,
      "रूह": 3512,
      "उठे": 3513,
      "quot": 3514,
      "सम्मिलित": 3515,
      "कतरा": 3516,
      "घेर": 3517,
      "संकेत": 3518,
      "नियंत्रण": 3519,
      "bel": 3520,
      "ul": 3521,
      "फोल्डर": 3522,
      "बने": 3523,
      "शीर्षिका": 3524,
      "सौदा": 3525,
      "खुशख़बरी": 3526,
      "50": 3527,
      "लाना": 3528,
      "ज़ाम": 3529,
      "रुसवा": 3530,
      "किनारे": 3531,
      "गोपन": 3532,
      "चित्र": 3533,
      "अगला": 3534,
      "फट": 3535,
      "ख़ु": 3536,
      "बोर्ड": 3537,
      "पढ़ने": 3538,
      "मछ": 3539,
      "ज़कात": 3540,
      "तीय": 3541,
      "बनाना": 3542,
      "समझता": 3543,
      "मिलकर": 3544,
      "यहूदी": 3545,
      "ज़बरदस्त": 3546,
      "खौल": 3547,
      "तें": 3548,
      "बग़ैर": 3549,
      "जनक": 3550,
      "उल्लंघन": 3551,
      "छुपाएँ": 3552,
      "ee": 3553,
      "आम": 3554,
      "भंड": 3555,
      "धियों": 3556,
      "कमबख्त": 3557,
      "हानि": 3558,
      "''": 3559,
      "वट": 3560,
      "इन्ह": 3561,
      "देखना": 3562,
      "शादी": 3563,
      "भड़कती": 3564,
      "घरवालों": 3565,
      "टूट": 3566,
      "अक": 3567,
      "खत्म": 3568,
      "लेट": 3569,
      "पीआई": 3570,
      "बादशाह": 3571,
      "पूजते": 3572,
      "ss": 3573,
      "डू": 3574,
      "मिस्र": 3575,
      "माँगता": 3576,
      "ंह": 3577,
      "उड़ा": 3578,
      "स्पे": 3579,
      "पैके": 3580,
      "बीह": 3581,
      "बीवी": 3582,
      "डालते": 3583,
      "भंडार": 3584,
      "हक": 3585,
      "ताज": 3586,
      "काफ़ी": 3587,
      "कठिन": 3588,
      "मौजिज़ा": 3589,
      "hi": 3590,
      "कप": 3591,
      "पागल": 3592,
      "अन्दा": 3593,
      "शिता": 3594,
      "ब्राउ": 3595,
      "ast": 3596,
      "अज़": 3597,
      "मस": 3598,
      "संबंध": 3599,
      "मर्": 3600,
      "फ़ार": 3601,
      "ग्रस्त": 3602,
      "रिक्त": 3603,
      "क़ाबू": 3604,
      "प्राप्तकर्ता": 3605,
      "सच्ची": 3606,
      "आउटपुट": 3607,
      "//": 3608,
      "इज्ज़त": 3609,
      "ऊद": 3610,
      "ख़रा": 3611,
      "निजी": 3612,
      "मुस्": 3613,
      "सियों": 3614,
      "निस्बत": 3615,
      "मरयम": 3616,
      "पुनः": 3617,
      "um": 3618,
      "शादा": 3619,
      "प्राण": 3620,
      "मनपसंद": 3621,
      "खर्च": 3622,
      "हुकुम": 3623,
      "पायों": 3624,
      "विलो": 3625,
      "नुक़": 3626,
      "title": 3627,
      "सरदारों": 3628,
      "रुए": 3629,
      "बच्चा": 3630,
      "वृक्ष": 3631,
      "अवज्ञाकारी": 3632,
      "आय": 3633,
      "न्याय": 3634,
      "तित": 3635,
      "संदेशों": 3636,
      "are": 3637,
      "जमे": 3638,
      "ल्ड": 3639,
      "नाहक़": 3640,
      "ort": 3641,
      "शैली": 3642,
      "ज़्यादती": 3643,
      "प्रभावी": 3644,
      "गिरफ्तार": 3645,
      "ct": 3646,
      "हरण": 3647,
      "चश्": 3648,
      "देखेंगे": 3649,
      "जाएँगी": 3650,
      "युक्ति": 3651,
      "_L": 3652,
      "_o": 3653,
      "आबाद": 3654,
      "करनेवाली": 3655,
      "रिपोर्ट": 3656,
      "सरता": 3657,
      "निकले": 3658,
      "प्रेषक": 3659,
      "खोलकर": 3660,
      "ताला": 3661,
      "ल्लत": 3662,
      "यूआर": 3663,
      "सिफ़ार": 3664,
      "बुलाए": 3665,
      "मारने": 3666,
      "http": 3667,
      "पर्याप्त": 3668,
      "ऑफ़लाइन": 3669,
      "जहां": 3670,
      "शराब": 3671,
      "बहुदेव": 3672,
      "क़ात": 3673,
      "पार्ट": 3674,
      "ज़ालिमों": 3675,
      "ME": 3676,
      "ty": 3677,
      "पवित्र": 3678,
      "दाऊद": 3679,
      "ta": 3680,
      "ठे": 3681,
      "ज़लील": 3682,
      "किताबे": 3683,
      "तोड़": 3684,
      "वाज़े": 3685,
      "असली": 3686,
      "अज़ी": 3687,
      "ुन": 3688,
      "स्मार": 3689,
      "ख्तियार": 3690,
      "र्दों": 3691,
      "छाया": 3692,
      "लड़का": 3693,
      "ly": 3694,
      "थमि": 3695,
      "पहुंच": 3696,
      "प्राथमि": 3697,
      "पिछला": 3698,
      "तदबीर": 3699,
      "खबर": 3700,
      "रोज़े": 3701,
      "डाली": 3702,
      "अनुस्मृति": 3703,
      "निश्चि": 3704,
      "नाफ़रमानी": 3705,
      "_U": 3706,
      "सें": 3707,
      "ज़ु": 3708,
      "राज़ी": 3709,
      "माफी": 3710,
      "जील": 3711,
      "बिन्": 3712,
      "किनारा": 3713,
      "करीब": 3714,
      "ईंट": 3715,
      "डिया": 3716,
      "निकाला": 3717,
      "लैंड": 3718,
      "आँखें": 3719,
      "भटका": 3720,
      "खड़ा": 3721,
      "णा": 3722,
      "करूँगा": 3723,
      "वादी": 3724,
      "मूर्": 3725,
      "श्रेणी": 3726,
      "लड़ाई": 3727,
      "नाते": 3728,
      "दिशा": 3729,
      "गुमान": 3730,
      "टाल": 3731,
      "वैसा": 3732,
      "nome": 3733,
      "_E": 3734,
      "उगा": 3735,
      "दौड़": 3736,
      "मुताबि": 3737,
      "ph": 3738,
      "sp": 3739,
      "ऑफ": 3740,
      "नफ": 3741,
      "परदा": 3742,
      "राष्ट": 3743,
      "बुतों": 3744,
      "सिक": 3745,
      "जोड़ने": 3746,
      "दल": 3747,
      "मरत": 3748,
      "विका": 3749,
      "डियों": 3750,
      "बेटियाँ": 3751,
      "निर्णय": 3752,
      "बिन्दु": 3753,
      "जहा": 3754,
      "लाई": 3755,
      "माने": 3756,
      "मुंह": 3757,
      "जिनपर": 3758,
      "रूए": 3759,
      "पैसे": 3760,
      "क़िस्म": 3761,
      "जमाअत": 3762,
      "af": 3763,
      "अचान": 3764,
      "ठहरे": 3765,
      "थिया": 3766,
      "फसाद": 3767,
      "निगे": 3768,
      "गुप्त": 3769,
      "रोज़ा": 3770,
      "निर्यात": 3771,
      "अलार्म": 3772,
      "वाक़िफकार": 3773,
      "ब्रों": 3774,
      "व्यापार": 3775,
      "अचानक": 3776,
      "कारस्ता": 3777,
      "फ़ाइलों": 3778,
      "ंगें": 3779,
      "ंडी": 3780,
      "उठाने": 3781,
      "लड़की": 3782,
      "नेमत": 3783,
      "त्रि": 3784,
      "झुक": 3785,
      "सूरज": 3786,
      "gnome": 3787,
      "लिंग": 3788,
      "देशा": 3789,
      "शिष्ट": 3790,
      "जैक": 3791,
      "नुक़सान": 3792,
      "निगेह": 3793,
      "भरी": 3794,
      "हंस": 3795,
      "स्तक": 3796,
      "लियों": 3797,
      "क़त्ल": 3798,
      "तस्बीह": 3799,
      "ूत": 3800,
      "निगाह": 3801,
      "कार्": 3802,
      "कहें": 3803,
      "भुला": 3804,
      "ऊँची": 3805,
      "पढ़ा": 3806,
      "गढ़": 3807,
      "उड़ा": 3808,
      "टें": 3809,
      "मुश्": 3810,
      "पहुँचने": 3811,
      "ज़्यादा": 3812,
      "अमल": 3813,
      "घमंड": 3814,
      "रद्दी": 3815,
      "वाई": 3816,
      "action": 3817,
      "सकी": 3818,
      "दीजिए": 3819,
      "बोला": 3820,
      "कर्मों": 3821,
      "प्रोजेक्ट": 3822,
      "कॉन्फ़िग": 3823,
      "फेंक": 3824,
      "उदाहरण": 3825,
      "निर": 3826,
      "वहार": 3827,
      "घात": 3828,
      "उभार": 3829,
      "मुल्क": 3830,
      "बनाता": 3831,
      "मारो": 3832,
      "केंड": 3833,
      "शरण": 3834,
      "_BAR": 3835,
      "ew": 3836,
      "मुख़ा": 3837,
      "बैठा": 3838,
      "निर्मित": 3839,
      "स्टर": 3840,
      "अपराधियों": 3841,
      "वर्णन": 3842,
      "An": 3843,
      "ँधे": 3844,
      "इम्": 3845,
      "हिजरत": 3846,
      "शैता": 3847,
      "फ़रमाया": 3848,
      "प्रदर्शक": 3849,
      "आवश्यक": 3850,
      "color": 3851,
      "अफ़": 3852,
      "तेह": 3853,
      "जानने": 3854,
      "करेगें": 3855,
      "कंप": 3856,
      "ंगे": 3857,
      "अस्थायी": 3858,
      "न्ह": 3859,
      "ज़कात": 3860,
      "मक़सूद": 3861,
      "मौज़ूदा": 3862,
      "_BAR_": 3863,
      "\"{": 3864,
      "}\"": 3865,
      "डै": 3866,
      "ज्ज": 3867,
      "फिटकार": 3868,
      "पृष्ठभूमि": 3869,
      "कॉन्फ़िगर": 3870,
      "नाफरमानी": 3871,
      "फ्लैग": 3872,
      "वाज़ेए": 3873,
      "age": 3874,
      "मज़": 3875,
      "शत": 3876,
      "प्रयुक्त": 3877,
      "खोजें": 3878,
      "ठहराया": 3879,
      "यूसुफ़": 3880,
      "यती": 3881,
      "मुर्दों": 3882,
      "सबकी": 3883,
      "पैकेज": 3884,
      "_e": 3885,
      "एख्तियार": 3886,
      "ौलत": 3887,
      "देगी": 3888,
      "रिक": 3889,
      "बदौलत": 3890,
      "बिज": 3891,
      "छिपी": 3892,
      "उलटे": 3893,
      "box": 3894,
      "com": 3895,
      "ब्रै": 3896,
      "सिस्टम": 3897,
      "वैसे": 3898,
      "चलाएँ": 3899,
      "आवश्यकता": 3900,
      "भरा": 3901,
      "दिखाए": 3902,
      "आसानी": 3903,
      "मर्दों": 3904,
      "टुकड़े": 3905,
      "ंदर": 3906,
      "अर्थ": 3907,
      "योजन": 3908,
      "मॉड": 3909,
      "अत्याचारियों": 3910,
      "पद": 3911,
      "यां": 3912,
      "नियुक्त": 3913,
      "विरोध": 3914,
      "59": 3915,
      "औजार": 3916,
      "पक्ष": 3917,
      "विवाह": 3918,
      "पुराने": 3919,
      "अंतर्": 3920,
      "आश्": 3921,
      "रचना": 3922,
      "अप्र": 3923,
      "िरे": 3924,
      "दोनो": 3925,
      "बिं": 3926,
      "छोटी": 3927,
      "हिस्से": 3928,
      "महत्वपूर्ण": 3929,
      "सव": 3930,
      "ith": 3931,
      "प्रविष्टि": 3932,
      "(.": 3933,
      "जरूरी": 3934,
      "दस्ती": 3935,
      "ज़ूर": 3936,
      "जाल": 3937,
      "रीति": 3938,
      "गुज़": 3939,
      "खिसकाएँ": 3940,
      "AT": 3941,
      "IN": 3942,
      "वर्ती": 3943,
      "रहोगे": 3944,
      "घबरा": 3945,
      "जितना": 3946,
      "क्रो": 3947,
      "धिकार": 3948,
      "शरारत": 3949,
      "जिन्नों": 3950,
      "बैकअप": 3951,
      "TP": 3952,
      "og": 3953,
      "क्ला": 3954,
      "बियों": 3955,
      "फिक़": 3956,
      "चिह्न": 3957,
      "अग्र": 3958,
      "मय": 3959,
      "साक्षी": 3960,
      "सों": 3961,
      "सना": 3962,
      "क्की": 3963,
      "जोड़े": 3964,
      "oc": 3965,
      "गन": 3966,
      "मश": 3967,
      "वृद्धि": 3968,
      "परहेज़गारी": 3969,
      "जितने": 3970,
      "फॉ": 3971,
      "प्रॉ": 3972,
      "तीस": 3973,
      "बीबी": 3974,
      "शुद्ध": 3975,
      "फरमाबरदार": 3976,
      "रातों": 3977,
      "बेकार": 3978,
      "दिखाते": 3979,
      "वर्क": 3980,
      "टॉगल": 3981,
      "हुकू": 3982,
      "सुंदर": 3983,
      "फिल": 3984,
      "एमएल": 3985,
      "अमानत": 3986,
      "_H": 3987,
      "बतौर": 3988,
      "बंधन": 3989,
      "प्रत्यक्ष": 3990,
      "वसीयत": 3991,
      "किसने": 3992,
      "रें": 3993,
      "रबानी": 3994,
      "मोट": 3995,
      "इंट": 3996,
      "ज़िम्मेदारी": 3997,
      "आठ": 3998,
      "चर्": 3999,
      "हाई": 4000,
      "चालू": 4001,
      "पैरा": 4002,
      "ine": 4003,
      "व्यवहार": 4004,
      "डेटा": 4005,
      "HTML": 4006,
      "OP": 4007,
      "कियों": 4008,
      "मुरा": 4009,
      "संग्रह": 4010,
      "label": 4011,
      "प्रतिज्ञा": 4012,
      "तमन्ना": 4013,
      "नौका": 4014,
      "डाटाबेस": 4015,
      "सदस्यता": 4016,
      "निश्चिन्त": 4017,
      "up": 4018,
      "पका": 4019,
      "ैत": 4020,
      "शीदा": 4021,
      "प्रातः": 4022,
      "भुग": 4023,
      "ड़ाई": 4024,
      "पोशीदा": 4025,
      "छापें": 4026,
      "डराओ": 4027,
      "क्ट्री": 4028,
      "तौरैत": 4029,
      "आत्": 4030,
      "मुक्त": 4031,
      "बोह": 4032,
      "तरीके": 4033,
      "RAN": 4034,
      "ऑन": 4035,
      "“%": 4036,
      "मानक": 4037,
      "बदलने": 4038,
      "दरगुज़र": 4039,
      "ev": 4040,
      "चै": 4041,
      "धम": 4042,
      "यहीं": 4043,
      "कानों": 4044,
      "पैमान": 4045,
      "फैला": 4046,
      "unit": 4047,
      "बुलन्द": 4048,
      "60": 4049,
      "धर्": 4050,
      "रूसवा": 4051,
      "फरमाएगा": 4052,
      "इंतजार": 4053,
      "कपटा": 4054,
      "आह": 4055,
      "कोप": 4056,
      "भीतर": 4057,
      "देखी": 4058,
      "बैठो": 4059,
      "गिरोहों": 4060,
      "सवाल": 4061,
      "निगेहबान": 4062,
      "GN": 4063,
      "ig": 4064,
      "ट्र": 4065,
      "नष्ट": 4066,
      "सेरो": 4067,
      "होम": 4068,
      "रूजू": 4069,
      "चेक": 4070,
      "इन्साफ़": 4071,
      "नगर": 4072,
      "मज़े": 4073,
      "केट": 4074,
      "कामना": 4075,
      "टिप्": 4076,
      "वहां": 4077,
      "छोड़ा": 4078,
      "आईडी": 4079,
      "दौड़": 4080,
      "नेअमतों": 4081,
      "अंगूर": 4082,
      "ँक": 4083,
      "घटा": 4084,
      "क्लिप": 4085,
      "दावे": 4086,
      "अजी": 4087,
      "बछ": 4088,
      "लड़ाई": 4089,
      "सख्": 4090,
      "फिरे": 4091,
      "दुल": 4092,
      "end": 4093,
      "निराश": 4094,
      "ज़ो": 4095,
      "पाओ": 4096,
      "जीत": 4097,
      "चर्य": 4098,
      "दक्षि": 4099,
      "सृ": 4100,
      "डीपीआई": 4101,
      "लेखक": 4102,
      "एब": 4103,
      "फ़रिश्तों": 4104,
      "होस्ट": 4105,
      "विश्ले": 4106,
      "30": 4107,
      "नाई": 4108,
      "दाख़": 4109,
      "प्रदर्शन": 4110,
      "सबब": 4111,
      "रिमोट": 4112,
      "निकलने": 4113,
      "अन्यथा": 4114,
      "ecast": 4115,
      "forecast": 4116,
      "सहेजने": 4117,
      "प्रॉक्सी": 4118,
      "दाख़िल": 4119,
      "वगै": 4120,
      "हकी": 4121,
      "बरबाद": 4122,
      "ख़ा": 4123,
      "ख़ाक": 4124,
      "वृत्ति": 4125,
      "आश्चर्य": 4126,
      "मारी": 4127,
      "क़रा": 4128,
      "मुन्त": 4129,
      "बदकार": 4130,
      "स्तम्भ": 4131,
      "खुशी": 4132,
      "वार्": 4133,
      "गिरा": 4134,
      "dition": 4135,
      "बोहतान": 4136,
      "पॉप": 4137,
      "किस्म": 4138,
      "ताजों": 4139,
      "हाए": 4140,
      "माफ़": 4141,
      "लगाने": 4142,
      "मज़दूरी": 4143,
      "न्यूनतम": 4144,
      "बादशाही": 4145,
      "vi": 4146,
      "इष्ट": 4147,
      "जक": 4148,
      "फ़र": 4149,
      "अन्तिम": 4150,
      "रिश्ता": 4151,
      "मंज़ि": 4152,
      "भाषित": 4153,
      "चैनल": 4154,
      "पडे": 4155,
      "यानि": 4156,
      "बादल": 4157,
      "किताबों": 4158,
      "आइ": 4159,
      "रखनेवाला": 4160,
      "ड्राइव": 4161,
      "विलोपित": 4162,
      "02": 4163,
      "ट्रा": 4164,
      "ज़ब": 4165,
      "जिबरी": 4166,
      "क़समें": 4167,
      "क्रे": 4168,
      "सरत": 4169,
      "मंत्र": 4170,
      "world": 4171,
      "करतूतों": 4172,
      "पश्चिम": 4173,
      "जिबरील": 4174,
      "ूदी": 4175,
      "किर": 4176,
      "विज": 4177,
      "ज़िम्मे": 4178,
      "रखनेवाले": 4179,
      "स्वागत": 4180,
      "आंकड़ा": 4181,
      "मछली": 4182,
      "आगाह": 4183,
      "थन": 4184,
      "पहला": 4185,
      "जहन्नुमी": 4186,
      "कश्ती": 4187,
      "ting": 4188,
      "मुश्किल": 4189,
      "लौटना": 4190,
      "ंदगी": 4191,
      "मुर्दा": 4192,
      "ext": 4193,
      "भविष": 4194,
      "स्टी": 4195,
      "हमत": 4196,
      "वरना": 4197,
      "शीन": 4198,
      "चिड़ी": 4199,
      "कराया": 4200,
      "हुकूमत": 4201,
      "भविष्य": 4202,
      "Con": 4203,
      "लम्": 4204,
      "ैति": 4205,
      "सेक": 4206,
      "किस्": 4207,
      "स्ट्रि": 4208,
      "ent": 4209,
      "बचाने": 4210,
      "ould": 4211,
      "महिमा": 4212,
      "मुस्लिम": 4213,
      "MS": 4214,
      "भागी": 4215,
      "सरदार": 4216,
      "यीं": 4217,
      "पत्नियों": 4218,
      "आकर": 4219,
      "हथिया": 4220,
      "दिये": 4221,
      "साँ": 4222,
      "प्रस्तु": 4223,
      "प्रकोप": 4224,
      "झुका": 4225,
      "आँक": 4226,
      "चोरी": 4227,
      "लौटाए": 4228,
      "अँधे": 4229,
      "पक्का": 4230,
      "अकेले": 4231,
      "बिजली": 4232,
      "भुगतान": 4233,
      "ubl": 4234,
      "डिरे": 4235,
      "नज़र": 4236,
      "दावा": 4237,
      "कार्या": 4238,
      "शरीर": 4239,
      "कॉन्फ़िगरेशन": 4240,
      "ug": 4241,
      "नक्": 4242,
      "ैरात": 4243,
      "हासन": 4244,
      "राजा": 4245,
      "सिब": 4246,
      "जेहाद": 4247,
      "लगाया": 4248,
      "ठहराए": 4249,
      "लौटकर": 4250,
      "साइट": 4251,
      "pe": 4252,
      "अफ़": 4253,
      "धूप": 4254,
      "व्": 4255,
      "वाजे": 4256,
      "चीत": 4257,
      "न्दों": 4258,
      "फरमाई": 4259,
      "ऑंखों": 4260,
      "am": 4261,
      "sion": 4262,
      "वबाल": 4263,
      "कुशादा": 4264,
      "लगो": 4265,
      "क़ीन": 4266,
      "ार्क": 4267,
      "मुशरिकों": 4268,
      "what": 4269,
      "तसदीक़": 4270,
      "यता": 4271,
      "वायु": 4272,
      "लिन": 4273,
      "निंग": 4274,
      "सीनों": 4275,
      "पिक": 4276,
      "चीज़े": 4277,
      "समाहित": 4278,
      "मुहलत": 4279,
      "तह": 4280,
      "नस्": 4281,
      "प्रश्": 4282,
      "कृति": 4283,
      "माबूदों": 4284,
      "ऑंखें": 4285,
      "्यूल": 4286,
      "सिंहासन": 4287,
      "मख़लू": 4288,
      ",\"": 4289,
      "तमा": 4290,
      "वाणी": 4291,
      "द्वार": 4292,
      "URI": 4293,
      "चर्चा": 4294,
      "LD": 4295,
      "आफ": 4296,
      "दफा": 4297,
      "तुलना": 4298,
      "सोने": 4299,
      "आत्मा": 4300,
      "11": 4301,
      "डूब": 4302,
      "रस्": 4303,
      "मुअय्य": 4304,
      "बरसात": 4305,
      "condition": 4306,
      "इल्ज़ाम": 4307,
      "अलि": 4308,
      "मेंट": 4309,
      "काई": 4310,
      "लेबल": 4311,
      "साथियों": 4312,
      "प्रोटो": 4313,
      "पिछली": 4314,
      "साझीदार": 4315,
      "*.": 4316,
      "ंदा": 4317,
      "ेक्षा": 4318,
      "ेंस": 4319,
      "दिखाना": 4320,
      "गोली": 4321,
      "जुल": 4322,
      "कदम": 4323,
      "शनी": 4324,
      "ढ़ा": 4325,
      "नाइ": 4326,
      "क्री": 4327,
      "भेजते": 4328,
      "सिखाया": 4329,
      "rance": 4330,
      "ब्रैसेरो": 4331,
      "टिप्प": 4332,
      "सल्": 4333,
      "सास": 4334,
      "सरकार": 4335,
      "_m": 4336,
      "jut": 4337,
      "खंड": 4338,
      "कुर्": 4339,
      "मेन्यू": 4340,
      "विभिन्न": 4341,
      "सिफार": 4342,
      "सुनिश्चित": 4343,
      "पियो": 4344,
      "उन्होने": 4345,
      "उम्र": 4346,
      "कामयाबी": 4347,
      "डिरेक्ट्री": 4348,
      ").": 4349,
      "आर्": 4350,
      "लक": 4351,
      "होश": 4352,
      "नीमत": 4353,
      "निर्माण": 4354,
      "मंत्रण": 4355,
      "आज्ञापालन": 4356,
      "सिफ़ारिश": 4357,
      "वगैरह": 4358,
      "एफ": 4359,
      "माह": 4360,
      "देश्य": 4361,
      "रुख़": 4362,
      "कैश": 4363,
      "ory": 4364,
      "छोड़ें": 4365,
      "वैसी": 4366,
      "तंगी": 4367,
      "शान्": 4368,
      "मरतबा": 4369,
      "In": 4370,
      "इब": 4371,
      "कस": 4372,
      "कीजिए": 4373,
      "परदे": 4374,
      "स्वर": 4375,
      "पुस्तक": 4376,
      "लियाँ": 4377,
      "प्रतिष्ठ": 4378,
      "लानेवालों": 4379,
      "मुनासिब": 4380,
      "should": 4381,
      "मजबूर": 4382,
      "इन्हें": 4383,
      "क़राबत": 4384,
      "उह": 4385,
      "कला": 4386,
      "पड़ी": 4387,
      "बट": 4388,
      "ख़ते": 4389,
      "न्दी": 4390,
      "बदकारी": 4391,
      "दरते": 4392,
      "शनूदी": 4393,
      "बताता": 4394,
      "झूठी": 4395,
      "नून": 4396,
      "इख्तेयार": 4397,
      "बरह": 4398,
      "बाएँ": 4399,
      "पाएँगे": 4400,
      "बेटी": 4401,
      "चारों": 4402,
      "पैग़ाम": 4403,
      "चन्द्र": 4404,
      "जाँचें": 4405,
      "बाग़ों": 4406,
      "प्राथमिकता": 4407,
      "अजीब": 4408,
      "वाजेए": 4409,
      "juta": 4410,
      "बरहक़": 4411,
      "100": 4412,
      "od": 4413,
      "जुदा": 4414,
      "ज्जु": 4415,
      "ख़िलाफ": 4416,
      "कदाचित": 4417,
      "Generic": 4418,
      "यूआरएल": 4419,
      "ton": 4420,
      "गंत": 4421,
      "िये": 4422,
      "भीर": 4423,
      "रेखा": 4424,
      "अधिसूचना": 4425,
      "बारिश": 4426,
      "झुठलाए": 4427,
      "बढ़कर": 4428,
      "क़ाबू": 4429,
      "अगली": 4430,
      "बुलाते": 4431,
      "काग": 4432,
      "फलक": 4433,
      "सारांश": 4434,
      "अभ": 4435,
      "फ़साद": 4436,
      "टुकड़े": 4437,
      "भोजन": 4438,
      "लाइस": 4439,
      "मां": 4440,
      "वेयर": 4441,
      "सूझ": 4442,
      "मौसम": 4443,
      "कमज़ोर": 4444,
      "सख्ती": 4445,
      "गंतव्य": 4446,
      "उचित": 4447,
      "ढी": 4448,
      "लह": 4449,
      "लिखी": 4450,
      "Anjuta": 4451,
      "शैतानों": 4452,
      "आएँगे": 4453,
      "एक्": 4454,
      "खिर": 4455,
      "नाश": 4456,
      "एकत्र": 4457,
      "थोड़ी": 4458,
      "दोस्तों": 4459,
      "तलाक़": 4460,
      "जांचें": 4461,
      "उल्लेख": 4462,
      "इयाँ": 4463,
      "उड़": 4464,
      "डरे": 4465,
      "रै": 4466,
      "अप्रिय": 4467,
      "डाय": 4468,
      "menu": 4469,
      "त्मक": 4470,
      "_I": 4471,
      "_W": 4472,
      "france": 4473,
      "आखिर": 4474,
      "याक़": 4475,
      "काकुल": 4476,
      "स्टा": 4477,
      "पां": 4478,
      "विच": 4479,
      "सुझा": 4480,
      "int": 4481,
      "प्रसन्नता": 4482,
      "CO": 4483,
      "छोड़ा": 4484,
      "बंदू": 4485,
      "त्याशित": 4486,
      "खजूर": 4487,
      "Ch": 4488,
      "ai": 4489,
      "tw": 4490,
      "फ़ै": 4491,
      "सरल": 4492,
      "फायदे": 4493,
      "जिन्नात": 4494,
      "अटकल": 4495,
      "whats": 4496,
      ",)": 4497,
      "इना": 4498,
      "हीन": 4499,
      "बातचीत": 4500,
      "भाइयों": 4501,
      "धोखा": 4502,
      "तारीख़": 4503,
      "तुम्हीं": 4504,
      "ंकि": 4505,
      "क़ौ": 4506,
      "फ़िर": 4507,
      "थात": 4508,
      "सिद्ध": 4509,
      "अर्थात": 4510,
      "चोट": 4511,
      "प्रिं": 4512,
      "ग़ैब": 4513,
      "यात्रा": 4514,
      "गां": 4515,
      "मुन्": 4516,
      "मानव": 4517,
      "क्योंकर": 4518,
      "बूवत": 4519,
      "dow": 4520,
      "महल": 4521,
      "अगलों": 4522,
      "तकलीफ़": 4523,
      "वृत्त": 4524,
      "सदा": 4525,
      "विजे": 4526,
      "शोकाकुल": 4527,
      "HE": 4528,
      "दिली": 4529,
      "माउस": 4530,
      "मीडिया": 4531,
      "जुड़": 4532,
      "लड़के": 4533,
      "निवेदन": 4534,
      "गहरा": 4535,
      "ट्ठा": 4536,
      "बिन": 4537,
      "ब्ति": 4538,
      "फिल्टर": 4539,
      "पहाड़ों": 4540,
      "चिंता": 4541,
      "LDAP": 4542,
      "_n": 4543,
      "`%": 4544,
      "ab": 4545,
      "जता": 4546,
      "हार्": 4547,
      "ूल": 4548,
      "पात": 4549,
      "टेड": 4550,
      "अकारत": 4551,
      "et": 4552,
      "आग्रह": 4553,
      "एड": 4554,
      "ग़ल": 4555,
      "तुल्य": 4556,
      "लाज़ि": 4557,
      "बाहरी": 4558,
      "न्दे": 4559,
      "रेख": 4560,
      "ख़ुशी": 4561,
      "नफ़": 4562,
      "राना": 4563,
      "क़बूल": 4564,
      "ग्रहण": 4565,
      "साझा": 4566,
      "अपमानित": 4567,
      "नफरत": 4568,
      "हंसते": 4569,
      "क्लिपबोर्ड": 4570,
      "प्रतिष्ठित": 4571,
      "चन्द्रमा": 4572,
      "गैर": 4573,
      "सिले": 4574,
      "चलन": 4575,
      "नरक": 4576,
      "स्वामी": 4577,
      "फ्रेम": 4578,
      "अफ़सोस": 4579,
      "whatsthis": 4580,
      "sy": 4581,
      "हज": 4582,
      "संगीत": 4583,
      "बेच": 4584,
      "हरकत": 4585,
      "इनपुट": 4586,
      "नुक": 4587,
      "दिखाओ": 4588,
      "icen": 4589,
      "स्वीकृत": 4590,
      "तारों": 4591,
      "असत्य": 4592,
      "लय": 4593,
      "उपभो": 4594,
      "शुक्रिया": 4595,
      "गलती": 4596,
      "लश": 4597,
      "वादे": 4598,
      "ica": 4599,
      "अनाथ": 4600,
      "vin": 4601,
      "आये": 4602,
      "शर्म": 4603,
      "स्कै": 4604,
      "मेहम": 4605,
      "संसाधन": 4606,
      "रबार": 4607,
      "म्प": 4608,
      "स्थिर": 4609,
      "निकलते": 4610,
      "आवाज": 4611,
      "मृत": 4612,
      "जन्मदिन": 4613,
      "हकीम": 4614,
      "नुकसान": 4615,
      "min": 4616,
      "खराब": 4617,
      "रेब": 4618,
      "अनुक्रिया": 4619,
      "आँकड़ा": 4620,
      "प्रश्न": 4621,
      "मेन": 4622,
      "सील": 4623,
      "पुकारे": 4624,
      "इसराइल": 4625,
      "सफलतापूर्वक": 4626,
      "दुशमन": 4627,
      "मुताबिक़": 4628,
      "समेट": 4629,
      "लाफ़": 4630,
      "वायदे": 4631,
      "सालत": 4632,
      "मिक": 4633,
      "one": 4634,
      "रिसालत": 4635,
      "मोड़": 4636,
      "स्थल": 4637,
      "फायदा": 4638,
      "अक्ल": 4639,
      "श्रेष्ठ": 4640,
      "ैतिज": 4641,
      "क़ौमे": 4642,
      "ber": 4643,
      "आखे": 4644,
      "पड़ी": 4645,
      "कोण": 4646,
      "रिंग": 4647,
      "किताबवालों": 4648,
      "लगाकर": 4649,
      "तत्वदर्शिता": 4650,
      "ऑंख": 4651,
      "मंज़िले": 4652,
      "स्ट्रिंग": 4653,
      "आखेरत": 4654,
      "गधे": 4655,
      "थक": 4656,
      "फरी": 4657,
      "फ़ज़ल": 4658,
      "सार्": 4659,
      "इन्ते": 4660,
      "पूछें": 4661,
      "चौपायों": 4662,
      "ect": 4663,
      "ख़ौफ़": 4664,
      "इबलीस": 4665,
      "चें": 4666,
      "दिश": 4667,
      "र्ज": 4668,
      "बाई": 4669,
      "ढ़ी": 4670,
      "भेजना": 4671,
      "एंगे": 4672,
      "सहन": 4673,
      "अकारथ": 4674,
      "ज्जुब": 4675,
      "जॉ": 4676,
      "संशो": 4677,
      "संरचना": 4678,
      "तूर": 4679,
      "अवस्था": 4680,
      "यहूद": 4681,
      "icense": 4682,
      "भले": 4683,
      "सता": 4684,
      "लिका": 4685,
      "पाय": 4686,
      "दीं": 4687,
      "अवसर": 4688,
      "ज़ीलत": 4689,
      "चढ़ा": 4690,
      "ak": 4691,
      "असल": 4692,
      "चलाने": 4693,
      "लाकर": 4694,
      "जाया": 4695,
      "मुद्दत": 4696,
      "गुलाम": 4697,
      "ब्लॉग": 4698,
      "अधिकारी": 4699,
      "सत्यापित": 4700,
      "वाक़िफ़कार": 4701,
      "लाज़िम": 4702,
      "15": 4703,
      "ट्रि": 4704,
      "मसी": 4705,
      "रक्त": 4706,
      "बहरे": 4707,
      "चाहेगा": 4708,
      "कमाया": 4709,
      "star": 4710,
      "धमकी": 4711,
      "तुल्यका": 4712,
      ".\"": 4713,
      "if": 4714,
      "क्यो": 4715,
      "बाज़": 4716,
      "पांच": 4717,
      "सियत": 4718,
      "कहां": 4719,
      "अंधा": 4720,
      "भेजता": 4721,
      "रोकने": 4722,
      "परिवर्धित": 4723,
      "संकेतक": 4724,
      "विश्लेषण": 4725,
      "अमन": 4726,
      "वन": 4727,
      "याक": 4728,
      "वाकि": 4729,
      "बाह": 4730,
      "प्रथम": 4731,
      "फ़ो": 4732,
      "रोग": 4733,
      "समाचार": 4734,
      "फंक्शन": 4735,
      "पाएगा": 4736,
      "संभा": 4737,
      "यहॉ": 4738,
      "बोली": 4739,
      "तबाह": 4740,
      "टाइप": 4741,
      "कैमरा": 4742,
      "याकूब": 4743,
      "नती": 4744,
      "इनको": 4745,
      "मारता": 4746,
      "ree": 4747,
      "लंब": 4748,
      "स्वरूप": 4749,
      "याक़ूब": 4750,
      "तनिक": 4751,
      "लश्": 4752,
      "हृ": 4753,
      "तुर्": 4754,
      "ताज़ा": 4755,
      "मेवे": 4756,
      "विशिष्ट": 4757,
      "लगभग": 4758,
      "अनुज्ञा": 4759,
      "ico": 4760,
      "नेटवर्क": 4761,
      "सरतापा": 4762,
      "न्ड": 4763,
      "बुर": 4764,
      "चलना": 4765,
      "क़ाबि": 4766,
      "कमज़ोर": 4767,
      "ख़ुशख़बरी": 4768,
      "मिलेगी": 4769,
      "ऑनलाइन": 4770,
      "दली": 4771,
      "क्य": 4772,
      "मारते": 4773,
      "शिकार": 4774,
      "चलती": 4775,
      "दुनियावी": 4776,
      "जुल्म": 4777,
      "झगड़ा": 4778,
      "सवारी": 4779,
      "टिप्पणी": 4780,
      "ैद": 4781,
      "क़दर": 4782,
      "विदा": 4783,
      "म्मत": 4784,
      "ard": 4785,
      "तबली": 4786,
      "ख़ुशनूदी": 4787,
      "सम्भव": 4788,
      "विश्व": 4789,
      "पढ़ते": 4790,
      "इतरा": 4791,
      "हूद": 4792,
      "झोंक": 4793,
      "फूँक": 4794,
      "प्रिंटर": 4795,
      "Re": 4796,
      "ag": 4797,
      "पने": 4798,
      "जाति": 4799,
      "ख़ूब": 4800,
      "स्तंभ": 4801,
      "यूं": 4802,
      "चिन्ह": 4803,
      "लिखते": 4804,
      "आज़माइश": 4805,
      "राष्ट्र": 4806,
      "गान": 4807,
      "चूर": 4808,
      "सेंट": 4809,
      "क़ौल": 4810,
      "जोर": 4811,
      "फ्त": 4812,
      "बढ़ो": 4813,
      "रोकें": 4814,
      "प्रेषित": 4815,
      "ब्रेक": 4816,
      "ase": 4817,
      "अक्ष": 4818,
      "मल": 4819,
      "शू": 4820,
      "्डियाँ": 4821,
      "अम्र": 4822,
      "eur": 4823,
      "रंज": 4824,
      "हगार": 4825,
      "पाबन्द": 4826,
      "सबका": 4827,
      "दरजे": 4828,
      "ब्लॉ": 4829,
      "शुरु": 4830,
      "सलामती": 4831,
      "ublic": 4832,
      "इनायत": 4833,
      "ठन": 4834,
      "क़समें": 4835,
      "स्लाइ": 4836,
      "सब्": 4837,
      "धिकारी": 4838,
      "दर्भ": 4839,
      "लाएगा": 4840,
      "पड़ो": 4841,
      "जितनी": 4842,
      "कम्प": 4843,
      "IMAP": 4844,
      "URL": 4845,
      "वरीयता": 4846,
      "CD": 4847,
      "bj": 4848,
      "चख": 4849,
      "तारा": 4850,
      "लकी": 4851,
      "क्षैतिज": 4852,
      "परेशान": 4853,
      "ध्या": 4854,
      "बचे": 4855,
      "बगल": 4856,
      "ृत": 4857,
      "किंग": 4858,
      "वादियों": 4859,
      "दाना": 4860,
      "ल्ले": 4861,
      "हालांकि": 4862,
      "वर्तनी": 4863,
      "्यूटर": 4864,
      "()": 4865,
      "24": 4866,
      "License": 4867,
      "par": 4868,
      "नमू": 4869,
      "दाएँ": 4870,
      "दीर्": 4871,
      "गुने": 4872,
      "दूरस्थ": 4873,
      "हृदय": 4874,
      "ww": 4875,
      "छह": 4876,
      "ख़री": 4877,
      "पाएँ": 4878,
      "लगें": 4879,
      "बताने": 4880,
      "बुलाओ": 4881,
      "_t": 4882,
      "खून": 4883,
      "ठान": 4884,
      "ग़ज़ब": 4885,
      "ताकी": 4886,
      "कारा": 4887,
      "ज़बान": 4888,
      "चिट्ठा": 4889,
      "कार्यक्रम": 4890,
      "धारण": 4891,
      "थोड़ी": 4892,
      "list": 4893,
      "अश्": 4894,
      "आज़ा": 4895,
      "बर्ट": 4896,
      "ज्या": 4897,
      "सन्देश": 4898,
      "मूर्ख": 4899,
      "You": 4900,
      "ंभि": 4901,
      "मट": 4902,
      "ीकरण": 4903,
      "हीद": 4904,
      "हममें": 4905,
      "निगर": 4906,
      "indow": 4907,
      "निकालें": 4908,
      "फेरे": 4909,
      "बोलते": 4910,
      "अप्रत्याशित": 4911,
      "GenericName": 4912,
      "लश्कर": 4913,
      "mat": 4914,
      "बेव": 4915,
      "सिकं": 4916,
      "चीनी": 4917,
      "दूंगा": 4918,
      "रुप": 4919,
      "शुएब": 4920,
      "टीम": 4921,
      "ble": 4922,
      "पहुँचाए": 4923,
      "अभिवृद्धि": 4924,
      "भारत": 4925,
      "व्यवस्था": 4926,
      "औं": 4927,
      "क़ू": 4928,
      "बाग़ा": 4929,
      "रहेगें": 4930,
      "दौलत": 4931,
      "बगैर": 4932,
      "भाग्यशाली": 4933,
      "उद्देश्य": 4934,
      "बाग़ात": 4935,
      "bol": 4936,
      "वशी": 4937,
      "काला": 4938,
      "जाहि": 4939,
      "राज़ी": 4940,
      "प्रबंधन": 4941,
      "संत": 4942,
      "पढ़ी": 4943,
      "अर्श": 4944,
      "कामयाब": 4945,
      "एचटी": 4946,
      "इसहाक़": 4947,
      "सल्तन": 4948,
      "pr": 4949,
      "गेट": 4950,
      "पहलू": 4951,
      "धिक": 4952,
      "चीज़ें": 4953,
      "रहनेवाले": 4954,
      "तरीक़े": 4955,
      "महीनों": 4956,
      "(\"": 4957,
      "88": 4958,
      "इफ़": 4959,
      "बिया": 4960,
      "ताज्जुब": 4961,
      "मानना": 4962,
      "संदर्भ": 4963,
      "दर्शी": 4964,
      "पोस्ट": 4965,
      "मिनल": 4966,
      "नाशुक्री": 4967,
      "सिकंदर": 4968,
      "इफ़तेरा": 4969,
      "ट्री": 4970,
      "तख्": 4971,
      "साय": 4972,
      "दीने": 4973,
      "व्यर्थ": 4974,
      "हालात": 4975,
      "बॉक्स": 4976,
      "जायज़": 4977,
      "pla": 4978,
      "आत": 4979,
      "आजि": 4980,
      "आधारित": 4981,
      "फान": 4982,
      "मुब्ति": 4983,
      "क़ी": 4984,
      "मिलते": 4985,
      "सज़ावार": 4986,
      "क्रमण": 4987,
      "बेवकू": 4988,
      "Ser": 4989,
      "ड्": 4990,
      "लाह": 4991,
      "क्कर": 4992,
      "जाऊँगा": 4993,
      "गुस्": 4994,
      "भाड़": 4995,
      "खुल": 4996,
      "मिटाने": 4997,
      "समाप्ति": 4998,
      "टर्मिनल": 4999,
      "मसीह": 5000,
      "ंभिक": 5001,
      "इंड": 5002,
      "एत": 5003,
      "मला": 5004,
      "सफे": 5005,
      "बालों": 5006,
      "त्त": 5007,
      "सुनी": 5008,
      "अनुप": 5009,
      "file": 5010,
      "OF": 5011,
      "with": 5012,
      "अन्दर": 5013,
      "छपाई": 5014,
      "वज": 5015,
      "�\\": 5016,
      "जानी": 5017,
      "time": 5018,
      "सफेद": 5019,
      "ँट": 5020,
      "तक़": 5021,
      "वश": 5022,
      "ड़क": 5023,
      "जानेवाले": 5024,
      "पढ़ने": 5025,
      "सकेगा": 5026,
      "----": 5027,
      "स्मारक": 5028,
      "ऑपरे": 5029,
      "झे": 5030,
      "फत": 5031,
      "दाने": 5032,
      "सीन": 5033,
      "डिब": 5034,
      "अब्": 5035,
      "हम्द": 5036,
      "ठहरने": 5037,
      "पार्टी": 5038,
      "चूं": 5039,
      "मनों": 5040,
      "जावा": 5041,
      "फिरो": 5042,
      "म्स": 5043,
      "ढ़ा": 5044,
      "चारियों": 5045,
      "सारणी": 5046,
      "ound": 5047,
      "गंभीर": 5048,
      "पैरामीटर": 5049,
      "ंचे": 5050,
      "यब": 5051,
      "नाप": 5052,
      "लेन": 5053,
      "क्रोध": 5054,
      "ite": 5055,
      "घेरे": 5056,
      "ग्राहक": 5057,
      "ब्रेरी": 5058,
      "ISO": 5059,
      "AD": 5060,
      "खट": 5061,
      "लेती": 5062,
      "र्मेट": 5063,
      "संपी": 5064,
      "रोजे": 5065,
      "बिछ": 5066,
      "बिट": 5067,
      "शीट": 5068,
      "सौं": 5069,
      "िलए": 5070,
      "चूंकि": 5071,
      "ON": 5072,
      "ain": 5073,
      "ऊंचा": 5074,
      "एंडी": 5075,
      "गों": 5076,
      "मरे": 5077,
      "आपसे": 5078,
      "ख्वाब": 5079,
      "परिचित": 5080,
      "झगड़े": 5081,
      "लाइट": 5082,
      "यहूदियों": 5083,
      "सर्वथा": 5084,
      "मुर्दे": 5085,
      "क़ाबिले": 5086,
      "_u": 5087,
      "ail": 5088,
      "जम": 5089,
      "राज़": 5090,
      "प्रगति": 5091,
      "रेट": 5092,
      "फ़्": 5093,
      "ज़रूरत": 5094,
      "त्कार": 5095,
      "सुलै": 5096,
      "बूती": 5097,
      "अंक": 5098,
      "पकड़े": 5099,
      "पहुँचती": 5100,
      "लड़का": 5101,
      "नोम": 5102,
      "रौशनी": 5103,
      "इच्छाओं": 5104,
      "बंदूक": 5105,
      "सुलैमान": 5106,
      "यकता": 5107,
      "ख़़": 5108,
      "न्डी": 5109,
      "मुवा": 5110,
      "विडियो": 5111,
      "उपहास": 5112,
      "प्रतिशत": 5113,
      "थोप": 5114,
      "बस्तियाँ": 5115,
      "विशेषता": 5116,
      "सियानी": 5117,
      "सल्तनत": 5118,
      "dis": 5119,
      "लड़ी": 5120,
      "वाक्या": 5121,
      "माईल": 5122,
      "तौरात": 5123,
      "उठाएगा": 5124,
      "देनेवाले": 5125,
      "000": 5126,
      "छिपे": 5127,
      "दरवाजे": 5128,
      "गुनाहगारों": 5129,
      "दक्षिण": 5130,
      "14": 5131,
      "बर्फ": 5132,
      "व्ह": 5133,
      "हवाले": 5134,
      "लेगें": 5135,
      "रूस्त": 5136,
      "नुत्": 5137,
      "शिक": 5138,
      "org": 5139,
      "जाएंगे": 5140,
      "चूर्ण": 5141,
      "हथियार": 5142,
      "लशकर": 5143,
      "ताकीद": 5144,
      "gion": 5145,
      "जत्": 5146,
      "ड्रै": 5147,
      "पहर": 5148,
      "ग़ार": 5149,
      "वाक़": 5150,
      "स्की": 5151,
      "जाऊँ": 5152,
      "जोड़ा": 5153,
      "ज़मा": 5154,
      "निकालो": 5155,
      "मुसलमान": 5156,
      "निगरानी": 5157,
      "छत": 5158,
      "नये": 5159,
      "बाक्स": 5160,
      "गाहों": 5161,
      "अपमानजनक": 5162,
      "प्लेट": 5163,
      "im": 5164,
      "लिपि": 5165,
      "संगत": 5166,
      "ख़याल": 5167,
      "माँगने": 5168,
      "अपराध": 5169,
      "कागज": 5170,
      "गुनेहगार": 5171,
      "अश्लील": 5172,
      "per": 5173,
      "गले": 5174,
      "जवान": 5175,
      "्ठे": 5176,
      "क्सा": 5177,
      "पाँच": 5178,
      "सीने": 5179,
      "संक्रिया": 5180,
      "सूरा": 5181,
      "रखेगा": 5182,
      "दर्ज": 5183,
      "सामना": 5184,
      "सर्वो": 5185,
      "POP": 5186,
      "ठित": 5187,
      "जियाँ": 5188,
      "कुं": 5189,
      "अंदा": 5190,
      "अंतर": 5191,
      "भुज": 5192,
      "सवां": 5193,
      "नियंत्र": 5194,
      "सकोगे": 5195,
      "ऊंचाई": 5196,
      "CS": 5197,
      "Sh": 5198,
      "ंध": 5199,
      "बसा": 5200,
      "मक": 5201,
      "लाठी": 5202,
      "राइ": 5203,
      "ong": 5204,
      "टेक्स": 5205,
      "यूनि": 5206,
      "पिक्से": 5207,
      "ष्ठा": 5208,
      "ऊँचे": 5209,
      "निकालता": 5210,
      "दुखी": 5211,
      "जंगल": 5212,
      "ST": 5213,
      "ue": 5214,
      "गर्म": 5215,
      "वाने": 5216,
      "सादा": 5217,
      "सीट": 5218,
      "संतु": 5219,
      "लाएं": 5220,
      "छवियों": 5221,
      "ऊँचाई": 5222,
      "स्केल": 5223,
      "av": 5224,
      "id": 5225,
      "एका": 5226,
      "क्के": 5227,
      "डियन": 5228,
      "पहुँचाने": 5229,
      "माँगते": 5230,
      "खिलाड़ी": 5231,
      "आला": 5232,
      "चक्कर": 5233,
      "तलब": 5234,
      "बजा": 5235,
      "लोक": 5236,
      "पापा": 5237,
      "फ़ंक्शन": 5238,
      "खास": 5239,
      "जानो": 5240,
      "नियाँ": 5241,
      "थोड़ा": 5242,
      "out": 5243,
      "उपास्य": 5244,
      "अनुकम्पाओं": 5245,
      "TRAN": 5246,
      "कब्": 5247,
      "दहला": 5248,
      "अपेक्षा": 5249,
      "माफ़": 5250,
      "सिस्को": 5251,
      "नुमा": 5252,
      "अतएव": 5253,
      "आसमानी": 5254,
      "बैठें": 5255,
      "फरमाता": 5256,
      "कनेक्ट": 5257,
      "दहकती": 5258,
      "अज़सरतापा": 5259,
      "ख़राबी": 5260,
      "गुज़रे": 5261,
      "आफताब": 5262,
      "​​": 5263,
      "परवा": 5264,
      "समक्ष": 5265,
      "बुराइयाँ": 5266,
      "माँगा": 5267,
      "लिखना": 5268,
      "ग़ा": 5269,
      "तलाक़": 5270,
      "how": 5271,
      "सार्वज": 5272,
      "दानी": 5273,
      "रल": 5274,
      "क़ब्रों": 5275,
      "ग़ो": 5276,
      "लियन": 5277,
      "हमला": 5278,
      "विनाश": 5279,
      "खाए": 5280,
      "सुलह": 5281,
      "ष्टा": 5282,
      "्रीय": 5283,
      "घाटी": 5284,
      "समाई": 5285,
      "फेरकर": 5286,
      "प्रकाशित": 5287,
      "state": 5288,
      "घटित": 5289,
      "सार्वजनिक": 5290,
      "यस": 5291,
      "ेद": 5292,
      "हैसियत": 5293,
      "ताप": 5294,
      "कुन": 5295,
      "दोस्ती": 5296,
      "ईमानवाली": 5297,
      "द्वि": 5298,
      "अनुस्मारक": 5299,
      "try": 5300,
      "लौहे": 5301,
      "बिल्ड": 5302,
      "मोहब्": 5303,
      "लाइब्रेरी": 5304,
      "The": 5305,
      "मातृ": 5306,
      "लाइसेंस": 5307,
      "फरीक़": 5308,
      ")?": 5309,
      "मनी": 5310,
      "श्रोत": 5311,
      "दाय": 5312,
      "हुज्ज": 5313,
      "ियां": 5314,
      "स्ट्रे": 5315,
      "भूभाग": 5316,
      "काटें": 5317,
      "एनको": 5318,
      "translate": 5319,
      "हड्डियाँ": 5320,
      "इक़रार": 5321,
      "चलें": 5322,
      "तनी": 5323,
      "सफ़र": 5324,
      "कुत्": 5325,
      "ज़ूम": 5326,
      "ind": 5327,
      "फरमाए": 5328,
      "सुनाई": 5329,
      "सहज": 5330,
      "धर्मी": 5331,
      "कार्यालय": 5332,
      "शान्ति": 5333,
      "उपभोक्ता": 5334,
      "ंगी": 5335,
      "आज़मा": 5336,
      "ऋण": 5337,
      "दै": 5338,
      "पट्ट": 5339,
      "वों": 5340,
      "निरे": 5341,
      "माता": 5342,
      "मुच": 5343,
      "किताबें": 5344,
      "क़िस्": 5345,
      "पलटकर": 5346,
      "समझाने": 5347,
      "मुहताज": 5348,
      "हँस": 5349,
      "लकीर": 5350,
      "18": 5351,
      "तेज": 5352,
      "निहा": 5353,
      "मेनान": 5354,
      "जानना": 5355,
      "बन्दा": 5356,
      "तरीका": 5357,
      "ely": 5358,
      "सकेगी": 5359,
      "मज़हब": 5360,
      "API": 5361,
      "}'": 5362,
      "लां": 5363,
      "कियाँ": 5364,
      "पूरब": 5365,
      "provin": 5366,
      "सहेजना": 5367,
      "अंतरा": 5368,
      "Cal": 5369,
      "ंति": 5370,
      "चीजें": 5371,
      "चिपका": 5372,
      "दरवाज़े": 5373,
      "खौलता": 5374,
      "डें": 5375,
      "मजा": 5376,
      "....": 5377,
      "सुथ": 5378,
      "रूपां": 5379,
      "बिग": 5380,
      "तूफान": 5381,
      "छोड़ो": 5382,
      "lease": 5383,
      "translated": 5384,
      "आजी": 5385,
      "महो": 5386,
      "हाइ": 5387,
      "जाइश": 5388,
      "मुहर": 5389,
      "सहेजा": 5390,
      "इकट्ठे": 5391,
      "मेहमान": 5392,
      "सहनशील": 5393,
      "आजीविका": 5394,
      "LE": 5395,
      "mbol": 5396,
      "स्वाद": 5397,
      "कारियों": 5398,
      "संघ": 5399,
      "चाहिये": 5400,
      "बोलने": 5401,
      "स्तान": 5402,
      "पढ़कर": 5403,
      "सेटअप": 5404,
      "uer": 5405,
      "ॉल": 5406,
      "राग़": 5407,
      "बायाँ": 5408,
      "मांस": 5409,
      "चीज": 5410,
      "क़े": 5411,
      "डालेगा": 5412,
      "हिम्मत": 5413,
      "अनुकूल": 5414,
      "ब्या": 5415,
      "घुट": 5416,
      "ढूँढ़": 5417,
      "ब्राउज़र": 5418,
      "ATO": 5419,
      "चैट": 5420,
      "पॉपअप": 5421,
      "'{": 5422,
      "ir": 5423,
      "rica": 5424,
      "इमार": 5425,
      "एला": 5426,
      "फिरत": 5427,
      "बुलाता": 5428,
      "SLATO": 5429,
      "कंपनी": 5430,
      "TRANSLATO": 5431,
      "TRANSLATORS": 5432,
      "pl": 5433,
      "बजाय": 5434,
      "लपेट": 5435,
      "वं": 5436,
      "मैन": 5437,
      "मेटा": 5438,
      "विभा": 5439,
      "बेज़ार": 5440,
      "रोके": 5441,
      "स्टोर": 5442,
      "कार्यों": 5443,
      "पूछना": 5444,
      "older": 5445,
      "IME": 5446,
      "इसहाक़": 5447,
      "symbol": 5448,
      "निहायत": 5449,
      "eb": 5450,
      "अध्य": 5451,
      "इला": 5452,
      "खर": 5453,
      "ड्रा": 5454,
      "दरबार": 5455,
      "निय": 5456,
      "प्रद": 5457,
      "मुसा": 5458,
      "गिड़": 5459,
      "गिड़ा": 5460,
      "ज़र्रा": 5461,
      "rec": 5462,
      "फ़ैसले": 5463,
      "शोभा": 5464,
      "मुनाफ़ि": 5465,
      "विस्तृत": 5466,
      "शौहर": 5467,
      "गर्दन": 5468,
      "ढेर": 5469,
      "क़ूवत": 5470,
      "मुब्तिला": 5471,
      "25": 5472,
      "day": 5473,
      "फतेह": 5474,
      "वाल": 5475,
      "बाब": 5476,
      "गाँव": 5477,
      "ख्ल": 5478,
      "बुख्ल": 5479,
      "जहॉन": 5480,
      "ary": 5481,
      "पहुँचाया": 5482,
      "लिखित": 5483,
      "देनेवाली": 5484,
      "पुकारने": 5485,
      "लंबे": 5486,
      "छिपाए": 5487,
      "पुनरा": 5488,
      "डॉलर": 5489,
      "छूट": 5490,
      "बूझे": 5491,
      "हल्की": 5492,
      "मोहब्बत": 5493,
      "text": 5494,
      "आमंत्रण": 5495,
      "बख़्": 5496,
      "तेल": 5497,
      "दिलाओ": 5498,
      "जबतक": 5499,
      "बेख़बर": 5500,
      "मील": 5501,
      "मुझपर": 5502,
      "अज़ाबे": 5503,
      "प्रतिलिपि": 5504,
      "पड़नेवाले": 5505,
      "पड़ेगा": 5506,
      "कराह": 5507,
      "ज़बरदस्ती": 5508,
      "वशीभूत": 5509,
      "ख़़ु": 5510,
      "IT": 5511,
      "कल्": 5512,
      "गंदगी": 5513,
      "याक़": 5514,
      "मालों": 5515,
      "नामकरण": 5516,
      "तुझपर": 5517,
      "format": 5518,
      "याक़ूब": 5519,
      "\".": 5520,
      "_w": 5521,
      "एट": 5522,
      "ग्न": 5523,
      "नसारा": 5524,
      "फज़ीलत": 5525,
      "ख़ैरात": 5526,
      "मांग": 5527,
      "ूँकि": 5528,
      "सुदृढ़": 5529,
      "इनकी": 5530,
      "दुरूस्त": 5531,
      "स्ट्री": 5532,
      "फ्स": 5533,
      "गिर्द": 5534,
      "महज़": 5535,
      "ill": 5536,
      "बिंदु": 5537,
      "रूसवाई": 5538,
      "GNU": 5539,
      ";{": 5540,
      "जला": 5541,
      "ब्रि": 5542,
      "य्या": 5543,
      "्वी": 5544,
      "क़ो": 5545,
      "स्कॉ": 5546,
      "बाध्य": 5547,
      "कारगुज़ार": 5548,
      "रूट": 5549,
      "पैसा": 5550,
      "पेक्ष": 5551,
      "वस्तुओं": 5552,
      "प्रिंट": 5553,
      "हल्का": 5554,
      "यतीम": 5555,
      "23": 5556,
      "चूँकि": 5557,
      "झि": 5558,
      "टरी": 5559,
      "शॉन": 5560,
      "सरा": 5561,
      "हानी": 5562,
      "तालिका": 5563,
      "फेरा": 5564,
      "इन्जील": 5565,
      "फैलाया": 5566,
      "प्रोफ़ाइल": 5567,
      "उठो": 5568,
      "क़ुरबानी": 5569,
      "मनाही": 5570,
      "मुअय्यन": 5571,
      "आली": 5572,
      "्म": 5573,
      "काँ": 5574,
      "प्ला": 5575,
      "लगती": 5576,
      "तून": 5577,
      "गोश्त": 5578,
      "भूख": 5579,
      "पूछता": 5580,
      "button": 5581,
      "वास्तविकता": 5582,
      "झगड़ते": 5583,
      "मातृभाषा": 5584,
      "ian": 5585,
      "आयोजन": 5586,
      "इन्त": 5587,
      "बक्सा": 5588,
      "केस": 5589,
      "प्रवाह": 5590,
      "विधा": 5591,
      "संभावना": 5592,
      "कहानी": 5593,
      "विश्वस": 5594,
      "HEAD": 5595,
      "राष्ट्रपति": 5596,
      "विश्वसनीय": 5597,
      "gra": 5598,
      "इमे": 5599,
      "कसम": 5600,
      "शोर": 5601,
      "बाकी": 5602,
      "स्ट्र": 5603,
      "मिटाकर": 5604,
      "oftw": 5605,
      "oftware": 5606,
      "mo": 5607,
      "हज़ार": 5608,
      "सेकेंड": 5609,
      "दोगे": 5610,
      "ज़ात": 5611,
      "ईसाई": 5612,
      "ass": 5613,
      "जायेगी": 5614,
      "पुरानी": 5615,
      "सिफारिश": 5616,
      "सेल": 5617,
      "वालि": 5618,
      "सागर": 5619,
      "तियाँ": 5620,
      "सिला": 5621,
      "दर्शा": 5622,
      "परिभाषित": 5623,
      "एहसास": 5624,
      "lex": 5625,
      "घटक": 5626,
      "अंग्रे": 5627,
      "जायेगा": 5628,
      "सॉफ्ट": 5629,
      "इंटरनेट": 5630,
      "स्लाइड": 5631,
      "वाक्यांश": 5632,
      "tar": 5633,
      "अस्ति": 5634,
      "उखा": 5635,
      "शप": 5636,
      "करूंगा": 5637,
      "काली": 5638,
      "हावी": 5639,
      "बाजू": 5640,
      "मासिक": 5641,
      "सूचक": 5642,
      "श्क": 5643,
      "सिर्": 5644,
      "बादलों": 5645,
      "लगाएँ": 5646,
      "करुँ": 5647,
      "अकृतज्ञ": 5648,
      "ईद": 5649,
      "गप": 5650,
      "वु": 5651,
      "वें": 5652,
      "स्का": 5653,
      "दिवस": 5654,
      "पात्र": 5655,
      "मेमो": 5656,
      "लीम": 5657,
      "कहान": 5658,
      "प्ली": 5659,
      "पेज": 5660,
      "अंध": 5661,
      "सलाह": 5662,
      "इन्स": 5663,
      "बर्बाद": 5664,
      "ढाँक": 5665,
      "चढ़ा": 5666,
      "प्रोटोकॉल": 5667,
      ")…": 5668,
      "16": 5669,
      "17": 5670,
      "आधा": 5671,
      "जड़": 5672,
      "स्पै": 5673,
      "स्विच": 5674,
      "आपदा": 5675,
      "ंडे": 5676,
      "व्यक्त": 5677,
      "निर्जीव": 5678,
      "अपनाई": 5679,
      "छवियाँ": 5680,
      "गहरे": 5681,
      "शख़्स": 5682,
      "क़समों": 5683,
      "बहुदेववादियों": 5684,
      "bject": 5685,
      "नमूना": 5686,
      "gh": 5687,
      "ks": 5688,
      "गन्दगी": 5689,
      "तफ": 5690,
      "धारी": 5691,
      "सजा": 5692,
      "ग़नीमत": 5693,
      "ड़ने": 5694,
      "बुर्द": 5695,
      "शुऐब": 5696,
      "मरण": 5697,
      "बड़ाई": 5698,
      "स्वीकारें": 5699,
      "चमक": 5700,
      "मक्कारी": 5701,
      "ग़ुलाम": 5702,
      "मुन्तज़िर": 5703,
      "औंधे": 5704,
      "8859": 5705,
      "स्ट्रेलिया": 5706,
      "गिड़गिड़ा": 5707,
      "गपशप": 5708,
      "AME": 5709,
      "SE": 5710,
      "आरज़": 5711,
      "चट्ट": 5712,
      "फन": 5713,
      "फ्य": 5714,
      "माननेवाले": 5715,
      "पूर": 5716,
      "मीर": 5717,
      "योजित": 5718,
      "बुढ़ा": 5719,
      "ज़िना": 5720,
      "कठि": 5721,
      "डोमेन": 5722,
      "मुहताजों": 5723,
      "खौलते": 5724,
      "इम्ति": 5725,
      "विजय": 5726,
      "अस्तित्व": 5727,
      "MB": 5728,
      "आदर": 5729,
      "आरोप": 5730,
      "नफ्स": 5731,
      "बजे": 5732,
      "लड़े": 5733,
      "विपरी": 5734,
      "रेज़ा": 5735,
      "सिटी": 5736,
      "भागे": 5737,
      "प्शन": 5738,
      "स्वप्": 5739,
      "चलेगा": 5740,
      "शहरों": 5741,
      "कारस्तानियों": 5742,
      "प्रस्तुत": 5743,
      "ख़तेयार": 5744,
      "हुज्जत": 5745,
      "फ्यूर": 5746,
      "विपरीत": 5747,
      "DV": 5748,
      "सदृ": 5749,
      "फ़रिश्ते": 5750,
      "मुबार": 5751,
      "ड़ों": 5752,
      "सीख": 5753,
      "मियाद": 5754,
      "खाकर": 5755,
      "समन्दर": 5756,
      "करेगी": 5757,
      "मौका": 5758,
      "erm": 5759,
      "पेथी": 5760,
      "एंपेथी": 5761,
      "नसीब": 5762,
      "पृथ": 5763,
      "सहभागी": 5764,
      "2001": 5765,
      "नौकरी": 5766,
      "चरण": 5767,
      "ताबेए": 5768,
      "General": 5769,
      "ऊँटनी": 5770,
      "डूबो": 5771,
      "बहुदेववादी": 5772,
      "नुत्फे": 5773,
      "सदृश": 5774,
      "मुबारक": 5775,
      "%%": 5776,
      "अति": 5777,
      "कंट": 5778,
      "खड़ी": 5779,
      "लायक": 5780,
      "स्मरण": 5781,
      "दिहानी": 5782,
      "साध": 5783,
      "साज़": 5784,
      "जाएगें": 5785,
      "जाएंगें": 5786,
      "याददिहानी": 5787,
      "समझदार": 5788,
      "रुस्त": 5789,
      "निर्देशा": 5790,
      "निस्पृ": 5791,
      "स्वतंत्र": 5792,
      "ख़ातिर": 5793,
      "लुत्": 5794,
      "घुमाएँ": 5795,
      "कपटाचारी": 5796,
      "पिक्सेल": 5797,
      "स्वप्न": 5798,
      "निस्पृह": 5799,
      "ok": 5800,
      "एलि": 5801,
      "जर्": 5802,
      "करिया": 5803,
      "वाकई": 5804,
      "स्कूल": 5805,
      "हांक": 5806,
      "बनाएं": 5807,
      "परिक": 5808,
      "मामलों": 5809,
      "विरो": 5810,
      "क्रिप्ट": 5811,
      "पहचानते": 5812,
      "परीक्षण": 5813,
      "खरीद": 5814,
      "कठिनाई": 5815,
      "फ्यूरर": 5816,
      "निर्देशांक": 5817,
      "cri": 5818,
      "अग्रे": 5819,
      "एल्": 5820,
      "णता": 5821,
      "तारे": 5822,
      "नCity": 5823,
      "इसमे": 5824,
      "मुद": 5825,
      "तिक": 5826,
      "बरफ": 5827,
      "हिला": 5828,
      "आसपास": 5829,
      "शिका": 5830,
      "मिटाया": 5831,
      "एंटर": 5832,
      "नरम": 5833,
      "मोहताज": 5834,
      "मुशरिक": 5835,
      "इत्मेनान": 5836,
      "संशोधन": 5837,
      "आजिज़": 5838,
      "एनकोडिंग": 5839,
      "इमारत": 5840,
      "अग्रेषित": 5841,
      "ओवर": 5842,
      "तापूर्वक": 5843,
      "नापाक": 5844,
      "हुये": 5845,
      "ड़ियों": 5846,
      "नींद": 5847,
      "खाया": 5848,
      "दीवाना": 5849,
      "देखभाल": 5850,
      "ateg": 5851,
      "Lex": 5852,
      "Public": 5853,
      "mon": 5854,
      "tk": 5855,
      "बजाए": 5856,
      "ूबी": 5857,
      "तेजी": 5858,
      "अपार": 5859,
      "प्री": 5860,
      "अनुमान": 5861,
      "उपनाम": 5862,
      "सम्पन्न": 5863,
      "lect": 5864,
      "उम्दा": 5865,
      "पड़ो": 5866,
      "बचने": 5867,
      "नक्शे": 5868,
      "Uri": 5869,
      "gu": 5870,
      "इधर": 5871,
      "वानी": 5872,
      "हैलो": 5873,
      "होनें": 5874,
      "साह": 5875,
      "जेल": 5876,
      "सुनेंगे": 5877,
      "अमानतदार": 5878,
      "स्कैन": 5879,
      "_p": 5880,
      "इतर": 5881,
      "फ़ाइल": 5882,
      "साहब": 5883,
      "मोती": 5884,
      "चीज़ें": 5885,
      "सुनकर": 5886,
      "लगेगा": 5887,
      "छुड़ा": 5888,
      "लुक": 5889,
      "हवाओं": 5890,
      "पकड़ो": 5891,
      "असमर्थित": 5892,
      "चोर": 5893,
      "यामत": 5894,
      "परत": 5895,
      "रहूँगा": 5896,
      "सूचित": 5897,
      "मिया": 5898,
      "मारकर": 5899,
      "टिव": 5900,
      "चार्": 5901,
      "वृत्ता": 5902,
      "परिवर्त": 5903,
      "ब्रू": 5904,
      "अब्बा": 5905,
      "40": 5906,
      "pre": 5907,
      "ser": 5908,
      "अस्": 5909,
      "इप": 5910,
      "ऑब्": 5911,
      "कल्प": 5912,
      "खड़ी": 5913,
      "जॉन": 5914,
      "डौ": 5915,
      "नॉ": 5916,
      "बचो": 5917,
      "क्रमा": 5918,
      "मरना": 5919,
      "पर्वत": 5920,
      "सम्पर्क": 5921,
      "परिवर्तित": 5922,
      "अहं": 5923,
      "सिरे": 5924,
      "ढूँढ": 5925,
      "ऑफलाइन": 5926,
      "एचटीएमएल": 5927,
      "Serv": 5928,
      "पृथ्वी": 5929,
      "खन": 5930,
      "पक्षी": 5931,
      "रन": 5932,
      "कील": 5933,
      "तोहमत": 5934,
      "निधि": 5935,
      "प्स": 5936,
      "अनुवाद": 5937,
      "वर्सन": 5938,
      "मदयन": 5939,
      "पढ़ते": 5940,
      "सच्चाई": 5941,
      "टाइम": 5942,
      "key": 5943,
      "MIME": 5944,
      "OR": 5945,
      "Please": 5946,
      "_a": 5947,
      "कलाम": 5948,
      "खार": 5949,
      "बिर": 5950,
      "हाशिया": 5951,
      "जिला": 5952,
      "tring": 5953,
      "प्रतिक्रिया": 5954,
      "बताए": 5955,
      "एसएस": 5956,
      "उत्तमकारों": 5957,
      "बरकतवाला": 5958,
      "निगाहें": 5959,
      "विजेट": 5960,
      "listbox": 5961,
      "LexUri": 5962,
      "LexUriServ": 5963,
      "ंसी": 5964,
      "कसरत": 5965,
      "हूर": 5966,
      "हजार": 5967,
      "र्श": 5968,
      "कुदरते": 5969,
      "सीवी": 5970,
      "रीसेट": 5971,
      "फ़ित": 5972,
      "पिला": 5973,
      "पूछे": 5974,
      "क़समों": 5975,
      "चश्में": 5976,
      "मुख़ाले": 5977,
      "ट्रांस": 5978,
      "अफ़सोस": 5979,
      "डौग": 5980,
      "iz": 5981,
      "उजा": 5982,
      "गछ": 5983,
      "छता": 5984,
      "नफा": 5985,
      "िशी": 5986,
      "ग़र": 5987,
      "हाजि": 5988,
      "बेहिसाब": 5989,
      "सुलू": 5990,
      "पैदावार": 5991,
      "aly": 5992,
      "स्वच्छ": 5993,
      "डालना": 5994,
      "ख़ालिस": 5995,
      "मुनाफिक़": 5996,
      "फ़रमाबरदार": 5997,
      "कहेगें": 5998,
      "संबंधित": 5999,
      "जहाज": 6000,
      "नस्लों": 6001,
      "आरज़ू": 6002,
      "इम्तिहान": 6003,
      "cu": 6004,
      "नवी": 6005,
      "याई": 6006,
      "लाख": 6007,
      "नुस": 6008,
      "बिस्तर": 6009,
      "पैदाइश": 6010,
      "उपस्थिति": 6011,
      "यानत": 6012,
      "कमरे": 6013,
      "प्रतिबंध": 6014,
      "बहके": 6015,
      "atus": 6016,
      "डराए": 6017,
      "ज्ञानवान": 6018,
      "फीक़": 6019,
      "तारीफ": 6020,
      "चढ़कर": 6021,
      "गर्दिश": 6022,
      "मसख़रा": 6023,
      "नफ़सियानी": 6024,
      "क्यक्ति": 6025,
      "तबलीग़": 6026,
      "अंतराल": 6027,
      "खण्ड": 6028,
      "मंग": 6029,
      "ताश": 6030,
      "र्ग": 6031,
      "बाएं": 6032,
      "मुल": 6033,
      "तकब्": 6034,
      "यूरो": 6035,
      "अधिका": 6036,
      "oper": 6037,
      "ग़ु": 6038,
      "एहदो": 6039,
      "शब्दों": 6040,
      "लेखन": 6041,
      "खोजने": 6042,
      "ell": 6043,
      "वर्षा": 6044,
      "फूँका": 6045,
      "अँधेरों": 6046,
      "बिछौ": 6047,
      "_V": 6048,
      "आवृत्ति": 6049,
      "डबल्": 6050,
      "बज": 6051,
      "बित": 6052,
      "ख़ज़ा": 6053,
      "तेहान": 6054,
      "जिलाता": 6055,
      "हुज़ू": 6056,
      "कुत्ता": 6057,
      "रेडियो": 6058,
      "पूल": 6059,
      "बुलाने": 6060,
      "भागो": 6061,
      "डीए": 6062,
      "इन्साफ": 6063,
      "निकलता": 6064,
      "ठिकाने": 6065,
      "पेशवा": 6066,
      "मुनाफे": 6067,
      "साझीदारों": 6068,
      "ढाल": 6069,
      "crip": 6070,
      ",%": 6071,
      "ढंग": 6072,
      "सबवर्सन": 6073,
      "दुरुस्त": 6074,
      "सचमुच": 6075,
      "हम्म": 6076,
      "उलफ़त": 6077,
      "डिबगर": 6078,
      "ategory": 6079,
      "सीवीएस": 6080,
      "अधिकांश": 6081,
      "\")": 6082,
      "Coun": 6083,
      "ण्": 6084,
      "पनीय": 6085,
      "भंग": 6086,
      "म्र": 6087,
      "केलिए": 6088,
      "कित्": 6089,
      "तुर": 6090,
      "बाइ": 6091,
      "तुम्हार": 6092,
      "थाई": 6093,
      "बीन": 6094,
      "आदत": 6095,
      "तौल": 6096,
      "बढ़िया": 6097,
      "लटका": 6098,
      "कल्पिक": 6099,
      "प्रवाहित": 6100,
      "डबल्यू": 6101,
      "UT": 6102,
      "ll": 6103,
      "ँसा": 6104,
      "ँचा": 6105,
      "उधर": 6106,
      "ल्यू": 6107,
      "माप": 6108,
      "विद्": 6109,
      "तरिक": 6110,
      "पूजा": 6111,
      "बेहू": 6112,
      "वैकल्पिक": 6113,
      "tool": 6114,
      "type": 6115,
      "CA": 6116,
      "NAME": 6117,
      "ip": 6118,
      "su": 6119,
      "उतना": 6120,
      "हॅ": 6121,
      "लात": 6122,
      "पहना": 6123,
      "पीते": 6124,
      "दिखाएं": 6125,
      "प्रतिनिधि": 6126,
      "निकालते": 6127,
      "word": 6128,
      "मर्यादा": 6129,
      "ऑपरेशन": 6130,
      "Short": 6131,
      "zil": 6132,
      "अज्ञान": 6133,
      "घ्न": 6134,
      "धरा": 6135,
      "वाजि": 6136,
      "इसने": 6137,
      "रीन": 6138,
      "चिकित्": 6139,
      "मिलना": 6140,
      "डालने": 6141,
      "भरने": 6142,
      "आँख": 6143,
      "चुनाव": 6144,
      "HTTP": 6145,
      "eeting": 6146,
      "नियंत्रित": 6147,
      "Meeting": 6148,
      "_s": 6149,
      "dr": 6150,
      "नं": 6151,
      "नल": 6152,
      "बम": 6153,
      "िता": 6154,
      "माय": 6155,
      "व्यक्तिगत": 6156,
      "गयीं": 6157,
      "फूट": 6158,
      "अद्यतनी": 6159,
      "सेनाओं": 6160,
      "ज़िम्मेदार": 6161,
      "संपीड": 6162,
      "स्कॉट": 6163,
      "एक्से": 6164,
      "कना": 6165,
      "कपड़े": 6166,
      "सख़्": 6167,
      "बां": 6168,
      "माले": 6169,
      "मिथ": 6170,
      "देखेगा": 6171,
      "edit": 6172,
      "सुनाता": 6173,
      "हटाने": 6174,
      "मानोगे": 6175,
      "ड्राइवर": 6176,
      "अंतर्वस्तु": 6177,
      "महोदय": 6178,
      "CE": 6179,
      "ठो": 6180,
      "मन्द": 6181,
      "वक": 6182,
      "केल": 6183,
      "काना": 6184,
      "हुज़ूर": 6185,
      "बुत": 6186,
      "बदली": 6187,
      "व्यू": 6188,
      "निकाली": 6189,
      "गोपनीय": 6190,
      "डराता": 6191,
      "इंतज़ार": 6192,
      "डुबो": 6193,
      "फ़ैसला": 6194,
      "शल": 6195,
      "चालें": 6196,
      "मिशन": 6197,
      "खाका": 6198,
      "गुज़": 6199,
      "पिघ": 6200,
      "लेंडर": 6201,
      "परिहास": 6202,
      "italy": 6203,
      "tri": 6204,
      "क़ाबिल": 6205,
      "roup": 6206,
      "ission": 6207,
      "पड़ता": 6208,
      "नोट": 6209,
      "क्षमता": 6210,
      "अनुमतियाँ": 6211,
      "डॉक्टर": 6212,
      "मग़फिरत": 6213,
      "भंडारित": 6214,
      "बेवकूफ": 6215,
      "13": 6216,
      "New": 6217,
      "_d": 6218,
      "can": 6219,
      "आदि": 6220,
      "भड़": 6221,
      "वक्": 6222,
      "सफर": 6223,
      "।-": 6224,
      "किरा": 6225,
      "काले": 6226,
      "पाइंट": 6227,
      "मिसल": 6228,
      "लीजिए": 6229,
      "रोते": 6230,
      "बुक": 6231,
      "हिफा": 6232,
      "आएं": 6233,
      "झुठलानेवालों": 6234,
      "पत्ऩ": 6235,
      "हस्ताक्षरित": 6236,
      "mail": 6237,
      "lib": 6238,
      "ख्वाहिशों": 6239,
      "अनिवार्यतः": 6240,
      "विकास": 6241,
      "इन्तेज़ार": 6242,
      "europ": 6243,
      "नबियों": 6244,
      "पते": 6245,
      "पछता": 6246,
      "रपट": 6247,
      "फ़तेह": 6248,
      "ताबीर": 6249,
      "दामन": 6250,
      "निरी": 6251,
      "निहाल": 6252,
      "बुर्": 6253,
      "रिये": 6254,
      "अनुक्रम": 6255,
      "यूनुस": 6256,
      "बुराइयों": 6257,
      "युवा": 6258,
      "ऊपरी": 6259,
      "उन्होनें": 6260,
      "बचाव": 6261,
      "निकालकर": 6262,
      "स्क्रॉल": 6263,
      "हरेक": 6264,
      "छिपाओ": 6265,
      "अक्लम": 6266,
      "दरवाजा": 6267,
      "दरख्तों": 6268,
      "ज़माने": 6269,
      "मक्के": 6270,
      "नाफरमान": 6271,
      "मख़लूक़ात": 6272,
      "क़राबतदारों": 6273,
      "नतीजा": 6274,
      "मुसाफ़िर": 6275,
      "month": 6276,
      "IP": 6277,
      "ial": 6278,
      "खरा": 6279,
      "जरूर": 6280,
      "नव": 6281,
      "फरेब": 6282,
      "स्यों": 6283,
      "नियाद": 6284,
      "एकल": 6285,
      "संजाल": 6286,
      "सूट": 6287,
      "शाल": 6288,
      "बुनियाद": 6289,
      "जीपी": 6290,
      "नामए": 6291,
      "शेख़ी": 6292,
      "एक्सप्रे": 6293,
      "जिन्होने": 6294,
      "खिलाफ": 6295,
      "निवेदित": 6296,
      "तुम्ही": 6297,
      "प्रातःकाल": 6298,
      "सुलूक": 6299,
      "मुनाफेक़ीन": 6300,
      "हिफाज़त": 6301,
      "ER": 6302,
      "ंडर": 6303,
      "एन्": 6304,
      "जवानी": 6305,
      "तद्": 6306,
      "बहाल": 6307,
      "हज़ार": 6308,
      "परं": 6309,
      "माएँ": 6310,
      "मात्र": 6311,
      "रेश": 6312,
      "रखती": 6313,
      "क़द्र": 6314,
      "छोड़े": 6315,
      "जूज": 6316,
      "झुके": 6317,
      "बारह": 6318,
      "उत्तरा": 6319,
      "रोकता": 6320,
      "उपयोगकर्ता": 6321,
      "लड़ो": 6322,
      "लड़ते": 6323,
      "मंज़ूर": 6324,
      "घुस": 6325,
      "अहद": 6326,
      "मुनाफ़ि": 6327,
      "हड्": 6328,
      "Char": 6329,
      "DVD": 6330,
      "मसख़रापन": 6331,
      "हुज़ूरी": 6332,
      "फ्री": 6333,
      "मसौदा": 6334,
      "क़ैद": 6335,
      "ख़ता": 6336,
      "नाहक़": 6337,
      "इसमाईल": 6338,
      "संधि": 6339,
      "ज़ु": 6340,
      "गरि": 6341,
      "टाई": 6342,
      "पुश्त": 6343,
      "कैलेंडर": 6344,
      "क़ाम": 6345,
      "वैश्": 6346,
      "पहुँचता": 6347,
      "ग़ाफिल": 6348,
      "सहित": 6349,
      "चमत्": 6350,
      "mage": 6351,
      "आंतरिक": 6352,
      "झगड़ते": 6353,
      "रस्सी": 6354,
      "मेमोरी": 6355,
      "तकब्बुर": 6356,
      "CMS": 6357,
      "शया": 6358,
      "नापसन्द": 6359,
      "दायाँ": 6360,
      "प्रच": 6361,
      "तिया": 6362,
      "तीर": 6363,
      "त्तर": 6364,
      "चीन": 6365,
      "पैग़": 6366,
      "क्रा": 6367,
      "बैकेंड": 6368,
      "बताना": 6369,
      "फिट": 6370,
      "टोन": 6371,
      "तैया": 6372,
      "लड़ते": 6373,
      "गुणगान": 6374,
      "ट्रेवर": 6375,
      "ब्याज": 6376,
      "शयातीन": 6377,
      ".%": 6378,
      "MA": 6379,
      "mm": 6380,
      "rar": 6381,
      "sa": 6382,
      "प्रमुख": 6383,
      "दोपहर": 6384,
      "ज़ाम": 6385,
      "सुने": 6386,
      "बरतर": 6387,
      "पहन": 6388,
      "इंजन": 6389,
      "पड़ेगा": 6390,
      "न्ट्स": 6391,
      "2007": 6392,
      "मुद्रित": 6393,
      "गायब": 6394,
      "श्रेष्ठता": 6395,
      "En": 6396,
      "MAPI": 6397,
      "SSL": 6398,
      "इकाई": 6399,
      "पाल": 6400,
      "मैप": 6401,
      "विनि": 6402,
      "विदेश": 6403,
      "स्टार": 6404,
      "शरीकों": 6405,
      "पंक्तिबद्ध": 6406,
      "बाँध": 6407,
      "istan": 6408,
      "टक": 6409,
      "मका": 6410,
      "यस्त": 6411,
      "दुनया": 6412,
      "खोला": 6413,
      "समझने": 6414,
      "पेय": 6415,
      "पूछेंगे": 6416,
      "संपर्कों": 6417,
      "लड़ने": 6418,
      "select": 6419,
      "विन्यस्त": 6420,
      "जायेंगे": 6421,
      "अट्ठा": 6422,
      "शर्त": 6423,
      "औजारपट्टी": 6424,
      "तमाशा": 6425,
      "चट्टान": 6426,
      "Country": 6427,
      "दुनयावी": 6428,
      "_r": 6429,
      "विड": 6430,
      "सुहा": 6431,
      "पहचा": 6432,
      "ग्रि": 6433,
      "स्टै": 6434,
      "निकालने": 6435,
      "डेड": 6436,
      "जोड़ना": 6437,
      "उत्पन्न": 6438,
      "समर्थक": 6439,
      "चमकता": 6440,
      "सेकण्ड": 6441,
      "coun": 6442,
      "go": 6443,
      "इनाम": 6444,
      "कपड़े": 6445,
      "छीन": 6446,
      "तत्": 6447,
      "फ्रा": 6448,
      "बजाएँ": 6449,
      "भयान": 6450,
      "ृं": 6451,
      "ख़ून": 6452,
      "ढ़ी": 6453,
      "सूली": 6454,
      "रिलिक": 6455,
      "गोल": 6456,
      "धीमी": 6457,
      "साइरिलिक": 6458,
      "मस्जिद": 6459,
      "ock": 6460,
      "भयानक": 6461,
      "GP": 6462,
      "by": 6463,
      "सड़क": 6464,
      "औरों": 6465,
      "प्रयोक्ता": 6466,
      "माग": 6467,
      "सम्रा": 6468,
      "तरस": 6469,
      "जानती": 6470,
      "उठते": 6471,
      "हस्तां": 6472,
      "फ़ायदा": 6473,
      "चिन्हों": 6474,
      "सिर्फ़": 6475,
      "प्रचंड": 6476,
      "अम्": 6477,
      "पों": 6478,
      "हारे": 6479,
      "क़ल": 6480,
      "स्कार": 6481,
      "दाश्त": 6482,
      "ल्ली": 6483,
      "प्रणा": 6484,
      "सीना": 6485,
      "सिंग": 6486,
      "होनेवाली": 6487,
      "प्रमाणीकरण": 6488,
      "राजनीति": 6489,
      "उत्तराधिकारी": 6490,
      "सम्राट": 6491,
      "lin": 6492,
      "tor": 6493,
      "आभा": 6494,
      "औसत": 6495,
      "धड़": 6496,
      "पार्": 6497,
      "फटा": 6498,
      "ड़ते": 6499,
      "बास": 6500,
      "बाते": 6501,
      "विशुद्ध": 6502,
      "संस्था": 6503,
      "योगी": 6504,
      "छोड़े": 6505,
      "डिग्री": 6506,
      "निकलो": 6507,
      "इंडियन": 6508,
      "वस्तुएँ": 6509,
      "usa": 6510,
      "फूल": 6511,
      "घटनाओं": 6512,
      "शत्रुओं": 6513,
      "मज़बूत": 6514,
      "ढील": 6515,
      "चमत्कारों": 6516,
      "ha": 6517,
      "आमादा": 6518,
      "जत": 6519,
      "बाक़ी": 6520,
      "वेष": 6521,
      "मानेंगे": 6522,
      "एँगें": 6523,
      "क्षक": 6524,
      "पीय": 6525,
      "जूसी": 6526,
      "शुमार": 6527,
      "कमजोर": 6528,
      "डेवल": 6529,
      "कॉर्ड": 6530,
      "घाड़": 6531,
      "आरंभिक": 6532,
      "सुनाते": 6533,
      "हवाएँ": 6534,
      "user": 6535,
      "गूगल": 6536,
      "मंत्री": 6537,
      "आज़माइश": 6538,
      "symbols": 6539,
      "ju": 6540,
      "so": 6541,
      "use": 6542,
      "पौ": 6543,
      "राव": 6544,
      "प्रशा": 6545,
      "मुबा": 6546,
      "सितारों": 6547,
      "बदर": 6548,
      "बदचलन": 6549,
      "फलत": 6550,
      "अन्धे": 6551,
      "अन्धा": 6552,
      "आख़िरकार": 6553,
      "भाईयों": 6554,
      "ज़िक्र": 6555,
      "भटके": 6556,
      "निकटवर्ती": 6557,
      "अदावत": 6558,
      "सेनाएँ": 6559,
      "africa": 6560,
      "अंगूरों": 6561,
      "बुर्दबार": 6562,
      "वैश्विक": 6563,
      "90": 6564,
      "te": 6565,
      "इद्दत": 6566,
      "वज़": 6567,
      "ज़रूरत": 6568,
      "संतान": 6569,
      "चेहरा": 6570,
      "लगेंगे": 6571,
      "ज़िल्लत": 6572,
      "टेनर": 6573,
      "मूठ": 6574,
      "दर्शक": 6575,
      "फ्ता": 6576,
      "ग़ायब": 6577,
      "कुफ्फ़": 6578,
      "प्रतीत": 6579,
      "वर्षों": 6580,
      "सरकशों": 6581,
      "पहाड़ों": 6582,
      "मस्जिदे": 6583,
      "झगड़ने": 6584,
      "ख़ुश": 6585,
      "नातेदारों": 6586,
      "मज़बूती": 6587,
      "ख़रीद": 6588,
      "अद्यतनीकृत": 6589,
      "नफे": 6590,
      "मर्ज़": 6591,
      "शनि": 6592,
      "ख़ान": 6593,
      "स्पूल": 6594,
      "विस्": 6595,
      "विमान": 6596,
      "तिहाई": 6597,
      "सूअर": 6598,
      "समर्": 6599,
      "शिस": 6600,
      "rom": 6601,
      "डेलि": 6602,
      "arch": 6603,
      "धीरे": 6604,
      "our": 6605,
      "सचेतकर्ता": 6606,
      "तीसरे": 6607,
      "वाकिफ़": 6608,
      "मलामत": 6609,
      "थोपकर": 6610,
      "बख़्शिस": 6611,
      "issions": 6612,
      "नबूवत": 6613,
      "यका": 6614,
      "र्न": 6615,
      "प्रस्ता": 6616,
      "मुम": 6617,
      "मेह": 6618,
      "विधान": 6619,
      "इनसान": 6620,
      "द्दा": 6621,
      "til": 6622,
      "क़ीमत": 6623,
      "ग्रन्ट्स": 6624,
      "रुक": 6625,
      "टिल": 6626,
      "चिट्": 6627,
      "सर्वा": 6628,
      "रहनेवाली": 6629,
      "सहारा": 6630,
      "गर्मी": 6631,
      "अज़ीज़": 6632,
      "स्मार्ट": 6633,
      "अलिफ़": 6634,
      "अनाथों": 6635,
      "Region": 6636,
      "कहानियाँ": 6637,
      "यकायक": 6638,
      "Imp": 6639,
      "os": 6640,
      "टर्स": 6641,
      "बों": 6642,
      "मज़े": 6643,
      "वस्त्र": 6644,
      "क़ार": 6645,
      "मानने": 6646,
      "फ़रिश्ता": 6647,
      "समझौ": 6648,
      "अवगत": 6649,
      "ere": 6650,
      "मिलती": 6651,
      "needs": 6652,
      "तुझसे": 6653,
      "घुसा": 6654,
      "elp": 6655,
      "सैनिक": 6656,
      "फ्लैग्स": 6657,
      "सृष्टि": 6658,
      "ख़ास": 6659,
      "महिमावान": 6660,
      "व्वा": 6661,
      "अलिफ़": 6662,
      "आफ़": 6663,
      "आवे": 6664,
      "आवरण": 6665,
      "बख़": 6666,
      "सज़ा": 6667,
      "यायी": 6668,
      "लास": 6669,
      "क्ल": 6670,
      "मात्रा": 6671,
      "क्रय": 6672,
      "tic": 6673,
      "टियों": 6674,
      "खेद": 6675,
      "बैठते": 6676,
      "अन्देशा": 6677,
      "पत्ता": 6678,
      "वार्ताला": 6679,
      "आलीशान": 6680,
      "प्रणाली": 6681,
      "',": 6682,
      "Perm": 6683,
      "_G": 6684,
      "_J": 6685,
      "ck": 6686,
      "num": 6687,
      "window": 6688,
      "ऊन": 6689,
      "डल": 6690,
      "वली": 6691,
      "जाऊ": 6692,
      "जापानी": 6693,
      "मार्क": 6694,
      "डालता": 6695,
      "विकसित": 6696,
      "सिलसिले": 6697,
      "परिणामस्वरूप": 6698,
      "125": 6699,
      "संग्रहित": 6700,
      "icode": 6701,
      "rarely": 6702,
      "Permissions": 6703,
      "आड़ा": 6704,
      "टों": 6705,
      "डम": 6706,
      "लघु": 6707,
      "श्रो": 6708,
      "सँ": 6709,
      "तुच्छ": 6710,
      "कांग": 6711,
      "वाता": 6712,
      "बेबी": 6713,
      "ाइट": 6714,
      "उतरा": 6715,
      "चलाया": 6716,
      "णीय": 6717,
      "उठने": 6718,
      "मुराद": 6719,
      "अध्यक्ष": 6720,
      "विरोधी": 6721,
      "वार्तालाप": 6722,
      "KChar": 6723,
      "ive": 6724,
      "गनोम": 6725,
      "उन्ट": 6726,
      "प्रशि": 6727,
      "हुर": 6728,
      "ड़ित": 6729,
      "समी": 6730,
      "सुपर": 6731,
      "पुराना": 6732,
      "प्राक्सी": 6733,
      "अलविदा": 6734,
      "निष्ठा": 6735,
      "अल्फा": 6736,
      "DE": 6737,
      "SH": 6738,
      "कष्ट": 6739,
      "क्षित": 6740,
      "बनावट": 6741,
      "ढ़े": 6742,
      "निकलें": 6743,
      "स्थाई": 6744,
      "स्वादिष्ट": 6745,
      "मजबूत": 6746,
      "अंधेरे": 6747,
      "घुमाव": 6748,
      "सम्मानित": 6749,
      "गांठ": 6750,
      "सॉफ्टवेयर": 6751,
      "Vi": 6752,
      "des": 6753,
      "मज": 6754,
      "स्वे": 6755,
      "जिम": 6756,
      "कार्र": 6757,
      "विध": 6758,
      "विभाग": 6759,
      "विशाल": 6760,
      "गुरु": 6761,
      "बीत": 6762,
      "बीमारी": 6763,
      "भेड़": 6764,
      "टिका": 6765,
      "ers": 6766,
      "पेड़": 6767,
      "नेंट": 6768,
      "्यास": 6769,
      "status": 6770,
      "लड़कों": 6771,
      "बदलना": 6772,
      "ज़रुरत": 6773,
      "ace": 6774,
      "दबाएँ": 6775,
      "देवताओं": 6776,
      "संभावित": 6777,
      "कुत्ते": 6778,
      "ंडा": 6779,
      "आरेख": 6780,
      "दवा": 6781,
      "पण": 6782,
      "पन्": 6783,
      "पल्ले": 6784,
      "फलों": 6785,
      "मशीन": 6786,
      "सड़": 6787,
      "साए": 6788,
      "जोड़े": 6789,
      "प्रधान": 6790,
      "दोहरी": 6791,
      "सुविधा": 6792,
      "पहल": 6793,
      "चुनी": 6794,
      "म्मी": 6795,
      "क्रै": 6796,
      "समझना": 6797,
      "प्राप्ति": 6798,
      "माँगी": 6799,
      "माँगो": 6800,
      "डालेंगे": 6801,
      "बहती": 6802,
      "पकड़ा": 6803,
      "प्रकाशमान": 6804,
      "ब्रायन": 6805,
      "दुश्मनों": 6806,
      "कमीने": 6807,
      "कम्प्यूटर": 6808,
      "वाजिब": 6809,
      "नंबर": 6810,
      "कार्रवाई": 6811,
      "++": 6812,
      "CK": 6813,
      "सवे": 6814,
      "हालिया": 6815,
      "साधारण": 6816,
      "हुल": 6817,
      "टेक्": 6818,
      "चिराग़": 6819,
      "टैम्": 6820,
      "उल्टे": 6821,
      "षणा": 6822,
      "चूक": 6823,
      "सीलदार": 6824,
      "मिथ्या": 6825,
      "तैयारी": 6826,
      "au": 6827,
      "शहीद": 6828,
      "सानी": 6829,
      "नेवाली": 6830,
      "मेंह": 6831,
      "लोथ": 6832,
      "सिमु": 6833,
      "मुझको": 6834,
      "बरपा": 6835,
      "पैरों": 6836,
      "यूस": 6837,
      "उपयुक्त": 6838,
      "अवतरण": 6839,
      "block": 6840,
      "कृतघ्न": 6841,
      "भारतीय": 6842,
      "सीमाओं": 6843,
      "चाँदी": 6844,
      "This": 6845,
      "मॉड्यूल": 6846,
      "क्रमांक": 6847,
      "अवर": 6848,
      "अधी": 6849,
      "इच्छ": 6850,
      "तख़्": 6851,
      "नदी": 6852,
      "बहर": 6853,
      "ोरी": 6854,
      "करों": 6855,
      "ारों": 6856,
      "कानून": 6857,
      "लेशन": 6858,
      "देन": 6859,
      "साज़ो": 6860,
      "कुकी": 6861,
      "सबने": 6862,
      "रोको": 6863,
      "नामों": 6864,
      "शियों": 6865,
      "भूले": 6866,
      "उत्पा": 6867,
      "द्धा": 6868,
      "प्रेषण": 6869,
      "तरीक़े": 6870,
      "कंजूसी": 6871,
      "chec": 6872,
      "बादशाहत": 6873,
      "धुंध": 6874,
      "चखाएँगे": 6875,
      "गमगा": 6876,
      "डायरे": 6877,
      "गहराई": 6878,
      "तुर्की": 6879,
      "आज़ाद": 6880,
      "वालिद": 6881,
      "श्रोता": 6882,
      "सवेरे": 6883,
      "Ex": 6884,
      "Software": 6885,
      "VE": 6886,
      "ml": 6887,
      "तख्त": 6888,
      "लती": 6889,
      "ग़फलत": 6890,
      "होनी": 6891,
      "लिफ़": 6892,
      "वह्य": 6893,
      "मुक़": 6894,
      "मुतम": 6895,
      "बेख़बर": 6896,
      "जानशीन": 6897,
      "नुबूवत": 6898,
      "जीना": 6899,
      "मोड़े": 6900,
      "anistan": 6901,
      "inlistbox": 6902,
      "पेले": 6903,
      "लगातार": 6904,
      "फेरत": 6905,
      "बन्दो": 6906,
      "छाँ": 6907,
      "पत्ते": 6908,
      "बख्शिश": 6909,
      "झगड़ा": 6910,
      "विनम्र": 6911,
      "भूमिका": 6912,
      "फुल": 6913,
      "बूझते": 6914,
      "मग़फेरत": 6915,
      "नाशुक्रे": 6916,
      "afgh": 6917,
      "उभारें": 6918,
      "ड्रैगन": 6919,
      "मुनाफ़िक़": 6920,
      "मुख़ालेफ़त": 6921,
      "गुज़रे": 6922,
      "मुबादा": 6923,
      "हुरमत": 6924,
      "afghanistan": 6925,
      "एख्ते": 6926,
      "चटि": 6927,
      "दहा": 6928,
      "सरे": 6929,
      "ज़रिये": 6930,
      "केतिक": 6931,
      "गाडू": 6932,
      "क़दम": 6933,
      "ियामेट": 6934,
      "शांति": 6935,
      "डिथ": 6936,
      "व्यभि": 6937,
      "यीशु": 6938,
      "फरज़": 6939,
      "बहस": 6940,
      "ख़ाने": 6941,
      "लानेवाले": 6942,
      "अग्": 6943,
      "सहीफ़": 6944,
      "लड़की": 6945,
      "णामय": 6946,
      "मोहताजों": 6947,
      "वर्षगांठ": 6948,
      "सांकेतिक": 6949,
      "बर्निंग": 6950,
      "ख्वाहम": 6951,
      "सियाह": 6952,
      "पुनर्नामकरण": 6953,
      "पश्चिमी": 6954,
      "आयते": 6955,
      "नातेदार": 6956,
      "मशव": 6957,
      "इंडिया": 6958,
      "व्हाइट": 6959,
      "बिछौना": 6960,
      "चटियल": 6961,
      "Bo": 6962,
      "दफ़ा": 6963,
      "ैतून": 6964,
      "दाता": 6965,
      "ल्लु": 6966,
      "न्चे": 6967,
      "इसलाह": 6968,
      "पाएंगे": 6969,
      "चालन": 6970,
      "विले": 6971,
      "करनेवालो": 6972,
      "बुर्ज़": 6973,
      "ंग्": 6974,
      "मारना": 6975,
      "फ्लो": 6976,
      "जानेवालों": 6977,
      "ख़ाना": 6978,
      "ज़ीदा": 6979,
      "ज़ीनत": 6980,
      "पुकारकर": 6981,
      "बनते": 6982,
      "नोड": 6983,
      "मॉग": 6984,
      "unicode": 6985,
      "हक़ीक़त": 6986,
      "your": 6987,
      "रुसवाई": 6988,
      "अज़ीयत": 6989,
      "बछड़े": 6990,
      "अभिया": 6991,
      "मुवाफिक़": 6992,
      "लांटिक": 6993,
      "province": 6994,
      "italyprovince": 6995,
      "\";": 6996,
      "gre": 6997,
      "tur": 6998,
      "जमें": 6999,
      "नै": 7000,
      "नपी": 7001,
      "तुली": 7002,
      "हामान": 7003,
      "न्जाइश": 7004,
      "मायूस": 7005,
      "पाता": 7006,
      "गुन्जाइश": 7007,
      "म्बरी": 7008,
      "लगाओ": 7009,
      "उन्ही": 7010,
      "भागने": 7011,
      "लॉक": 7012,
      "आओगे": 7013,
      "मोड्यूल": 7014,
      "साइमन": 7015,
      "धैर्यवान": 7016,
      "वसव": 7017,
      "गर्दनों": 7018,
      "इम्तेहान": 7019,
      "लम्बी": 7020,
      "पुकारेगा": 7021,
      "अनुपस्थित": 7022,
      "oundation": 7023,
      "तबलीग़े": 7024,
      "तद्बीर": 7025,
      "विनिमय": 7026,
      "Free": 7027,
      "ION": 7028,
      "iv": 7029,
      "ईधन": 7030,
      "खला": 7031,
      "तृ": 7032,
      "ीय": 7033,
      "ज़ियाँ": 7034,
      "ज़करिया": 7035,
      "माज़": 7036,
      "रहती": 7037,
      "सीमित": 7038,
      "रोजी": 7039,
      "टायर": 7040,
      "समझकर": 7041,
      "दर्शिता": 7042,
      "आगवाले": 7043,
      "जेंट": 7044,
      "पत्ति": 7045,
      "शब्दकूट": 7046,
      "पारि": 7047,
      "नेअमतें": 7048,
      "भवन": 7049,
      "सोचते": 7050,
      "घेरा": 7051,
      "घड़कर": 7052,
      "टर्न": 7053,
      "199": 7054,
      "कुर्ता": 7055,
      "शून्य": 7056,
      "नियमित": 7057,
      "अस्पता": 7058,
      "परंतु": 7059,
      "ath": 7060,
      "cc": 7061,
      "घड़ा": 7062,
      "क़ों": 7063,
      "जाग": 7064,
      "लेफ्ट": 7065,
      "तरजी": 7066,
      "अनुयायी": 7067,
      "नियाई": 7068,
      "all": 7069,
      "टीवी": 7070,
      "अंकित": 7071,
      "सोचो": 7072,
      "बताते": 7073,
      "पढ़े": 7074,
      "संसारवालों": 7075,
      "दरख्वास्त": 7076,
      "घंटी": 7077,
      "अय्यूब": 7078,
      "अभ्यास": 7079,
      "ग़ुलाम": 7080,
      "विस्फो": 7081,
      "तरजीह": 7082,
      "22": 7083,
      "महा": 7084,
      "लड़े": 7085,
      "तुल": 7086,
      "सालें": 7087,
      "बाला": 7088,
      "सीसी": 7089,
      "मिंग": 7090,
      "मिसालें": 7091,
      "पिलाया": 7092,
      "any": 7093,
      "ब्लै": 7094,
      "अपनाया": 7095,
      "बहार": 7096,
      "पंजा": 7097,
      "बढ़े": 7098,
      "जनरल": 7099,
      "rep": 7100,
      "शरीयत": 7101,
      "पड़ता": 7102,
      "ग्राफ": 7103,
      "दुर्भाग्य": 7104,
      "मॉडल": 7105,
      "तुरंत": 7106,
      "ग्रिड": 7107,
      "KCharselect": 7108,
      "For": 7109,
      "Image": 7110,
      "Kai": 7111,
      "TL": 7112,
      "iCal": 7113,
      "ms": 7114,
      "आस्ट्रेलिया": 7115,
      "खरे": 7116,
      "जरा": 7117,
      "रानी": 7118,
      "अपलोड": 7119,
      "प्रश": 7120,
      "संवे": 7121,
      "जीते": 7122,
      "चेहरों": 7123,
      "पहुँचना": 7124,
      "अन्याय": 7125,
      "फाय": 7126,
      "जुनून": 7127,
      "सम्मेल": 7128,
      "बचाया": 7129,
      "विश्वासघात": 7130,
      "बर्ग": 7131,
      "दरवाज़े": 7132,
      "ia_": 7133,
      "नेकोकार": 7134,
      "दैनिक": 7135,
      "बेहूदा": 7136,
      "आत्म": 7137,
      "जय": 7138,
      "िनेंट": 7139,
      "ूस": 7140,
      "ख़त्म": 7141,
      "नांक": 7142,
      "कुतिया": 7143,
      "कार्ट": 7144,
      "उन्हे": 7145,
      "गुं": 7146,
      "तकनी": 7147,
      "नामः": 7148,
      "वर्गी": 7149,
      "मरते": 7150,
      "किसके": 7151,
      "जुटा": 7152,
      "चलाता": 7153,
      "प्रेस": 7154,
      "set": 7155,
      "बहाने": 7156,
      "झोंके": 7157,
      "app": 7158,
      "आमने": 7159,
      "एक्सप्रेशन": 7160,
      "OME": 7161,
      "आइस": 7162,
      "थल": 7163,
      "पक्की": 7164,
      "मल्": 7165,
      "स्रो": 7166,
      "नाव": 7167,
      "क्वे": 7168,
      "वासियों": 7169,
      "माद": 7170,
      "मानें": 7171,
      "संभाल": 7172,
      "सियाँ": 7173,
      "कैले": 7174,
      "ष्क": 7175,
      "आईपी": 7176,
      "उन्नत": 7177,
      "छुट्टी": 7178,
      "फैल": 7179,
      "भरपूर": 7180,
      "चुनने": 7181,
      "संगठन": 7182,
      "पलटे": 7183,
      "निम्नलिखित": 7184,
      "version": 7185,
      "क्लाइंट": 7186,
      "अग्रसार": 7187,
      "जमने": 7188,
      "रूपांतरण": 7189,
      "यूरोपीय": 7190,
      "तत्काल": 7191,
      "लेफ्टिनेंट": 7192,
      "सम्मेलन": 7193,
      "IL": 7194,
      "Un": 7195,
      "bra": 7196,
      "rat": 7197,
      "एटी": 7198,
      "नयी": 7199,
      "बख": 7200,
      "कोरिया": 7201,
      "हाउस": 7202,
      "मास्टर": 7203,
      "विल": 7204,
      "वितरण": 7205,
      "जेन": 7206,
      "that": 7207,
      "परेश": 7208,
      "चमकी": 7209,
      "अनाज": 7210,
      "ult": 7211,
      "भंडारण": 7212,
      "डैनी": 7213,
      "ain_": 7214,
      "number": 7215,
      "80": 7216,
      "EN": 7217,
      "अटल": 7218,
      "गृ": 7219,
      "नशे": 7220,
      "ुर": 7221,
      "तालिब": 7222,
      "चाप": 7223,
      "चाही": 7224,
      "संयुक्त": 7225,
      "बेमेल": 7226,
      "ख्ता": 7227,
      "दिखाएगा": 7228,
      "अनुपालन": 7229,
      "मोहर": 7230,
      "पेटी": 7231,
      "स्टो": 7232,
      "बैठने": 7233,
      "स्वीकार्य": 7234,
      "खोलना": 7235,
      "लंबा": 7236,
      "कम्बख्त": 7237,
      "टॉम": 7238,
      "मजाक": 7239,
      "संघर्ष": 7240,
      "cription": 7241,
      "help": 7242,
      "उग": 7243,
      "गूँ": 7244,
      "फँ": 7245,
      "वाँ": 7246,
      "लिखे": 7247,
      "बांट": 7248,
      "रहनुमा": 7249,
      "चाय": 7250,
      "विवश": 7251,
      "तीत": 7252,
      "मिश्र": 7253,
      "गुरू": 7254,
      "डिफ": 7255,
      "est": 7256,
      "होनेवाले": 7257,
      "आरम्भ": 7258,
      "फ़ॉर्मेट": 7259,
      "उल्लेखित": 7260,
      "तुल्यकालित": 7261,
      "मंगल": 7262,
      "हड्डियों": 7263,
      "अस्पताल": 7264,
      "Category": 7265,
      "group": 7266,
      "kde": 7267,
      "आल": 7268,
      "मजे": 7269,
      "शन्स": 7270,
      "सफ़र": 7271,
      "ताज़ी": 7272,
      "वाइस": 7273,
      "दिमाग": 7274,
      "जोश": 7275,
      "जिम्मे": 7276,
      "गाड़ी": 7277,
      "मुत": 7278,
      "फिरता": 7279,
      "फिरती": 7280,
      "रूम": 7281,
      "अनुरूप": 7282,
      "उपकार": 7283,
      "बैंक": 7284,
      "ख्याली": 7285,
      "फाई": 7286,
      "फाड़": 7287,
      "rect": 7288,
      "पढ़ो": 7289,
      "सहसा": 7290,
      "मित्रता": 7291,
      "दाहिनी": 7292,
      "www": 7293,
      "गुस्से": 7294,
      "कुंजियाँ": 7295,
      "अग्नि": 7296,
      "अभियान": 7297,
      "CategoryName": 7298,
      "))": 7299,
      "Foundation": 7300,
      "II": 7301,
      "Res": 7302,
      "Sp": 7303,
      "ror": 7304,
      "चहरों": 7305,
      "तफ़": 7306,
      "पक्के": 7307,
      "यौ": 7308,
      "हस्त": 7309,
      "लापन": 7310,
      "नादान": 7311,
      "होटल": 7312,
      "लिक़": 7313,
      "मामू": 7314,
      "संचालन": 7315,
      "तिक्की": 7316,
      "खाएँ": 7317,
      "मुझी": 7318,
      "चुरा": 7319,
      "सरगो": 7320,
      "मोड़": 7321,
      "lation": 7322,
      "सोर्स": 7323,
      "फेरो": 7324,
      "गिंग": 7325,
      "पर्दा": 7326,
      "इन्दा": 7327,
      "छोड़ने": 7328,
      "आईएस": 7329,
      "पूछेगा": 7330,
      "जुर्": 7331,
      "उतरी": 7332,
      "ग़म": 7333,
      "भागियों": 7334,
      "2000": 7335,
      "फ़ाक़": 7336,
      "फ़रमाएगा": 7337,
      "ढाया": 7338,
      "ताबेदार": 7339,
      "चिंघाड़": 7340,
      "hoo": 7341,
      "पक्षियों": 7342,
      "मोड़ते": 7343,
      "सुथरी": 7344,
      "इन्तज़ार": 7345,
      "कानाफू": 7346,
      "बहरहाल": 7347,
      ",.": 7348,
      "AL": 7349,
      "gtk": 7350,
      "sc": 7351,
      "ंप": 7352,
      "आलम": 7353,
      "औनियों": 7354,
      "कमिट": 7355,
      "घूम": 7356,
      "धूल": 7357,
      "नहला": 7358,
      "पठित": 7359,
      "बड़": 7360,
      "भौ": 7361,
      "वकील": 7362,
      "हौ": 7363,
      "तेरों": 7364,
      "लोहे": 7365,
      "मेक": 7366,
      "तरती": 7367,
      "बनायीं": 7368,
      "बरदारी": 7369,
      "इनसाफ़": 7370,
      "हिं": 7371,
      "बहुतेरी": 7372,
      "बहुतेरों": 7373,
      "mess": 7374,
      "डालकर": 7375,
      "लौं": 7376,
      "ज़रर": 7377,
      "चलाना": 7378,
      "्रोल": 7379,
      "पढ़ो": 7380,
      "अर्ज": 7381,
      "उठेंगे": 7382,
      "मुनाफि": 7383,
      "ऑंधी": 7384,
      "असबाब": 7385,
      "पलटा": 7386,
      "जज़ाए": 7387,
      "पॉव": 7388,
      "केंद्रित": 7389,
      "सरताबी": 7390,
      "ज़ुले": 7391,
      "कपटाचारियों": 7392,
      "संतति": 7393,
      "सर्वोच्च": 7394,
      "ख़ज़ाने": 7395,
      "वातावरण": 7396,
      "परेशानी": 7397,
      "अजब": 7398,
      "आलेख": 7399,
      "इर": 7400,
      "इख़तेयार": 7401,
      "एलब": 7402,
      "कज़ी": 7403,
      "नसर": 7404,
      "बहरों": 7405,
      "मसले": 7406,
      "लग़ो": 7407,
      "ग़ि": 7408,
      "ग़ल्ला": 7409,
      "ज़ों": 7410,
      "तावान": 7411,
      "क्टेड": 7412,
      "न्या": 7413,
      "मुहाजि": 7414,
      "संकुल": 7415,
      "बेथ": 7416,
      "क़ब्": 7417,
      "शाद": 7418,
      "ज़िबाह": 7419,
      "खुर": 7420,
      "रुह": 7421,
      "हुईहै": 7422,
      "चारपाए": 7423,
      "उठाना": 7424,
      "जीवन्त": 7425,
      "विंडोज़": 7426,
      "फोलो": 7427,
      "पड़कर": 7428,
      "चौपाए": 7429,
      "हारुन": 7430,
      "पलटते": 7431,
      "हम्दो": 7432,
      "बीवियाँ": 7433,
      "शौक़": 7434,
      "करुणामय": 7435,
      "राष्ट्रीय": 7436,
      "मुरादें": 7437,
      "उड़ान": 7438,
      "मुन्ति": 7439,
      "मुन्किर": 7440,
      "जत्थे": 7441,
      "एटलांटिक": 7442,
      "एलिजा": 7443,
      "कुफ्फ़ारे": 7444,
      "टैम्प्लेट": 7445,
      "तरतीब": 7446,
      "-\\\\": 7447,
      "अज": 7448,
      "इब्रा": 7449,
      "चलित": 7450,
      "नकल": 7451,
      "नैन": 7452,
      "रफीक़": 7453,
      "हाली": 7454,
      "मुख्त": 7455,
      "तियां": 7456,
      "मिनान": 7457,
      "सिको": 7458,
      "सिफ़ार": 7459,
      "रूकू": 7460,
      "बरगु": 7461,
      "रोज़े": 7462,
      "देशों": 7463,
      "लियास": 7464,
      "सामरी": 7465,
      "प्राय": 7466,
      "क़ुदरते": 7467,
      "मिटाएं": 7468,
      "पुकारता": 7469,
      "पोर्": 7470,
      "सहेजी": 7471,
      "हक़दार": 7472,
      "लंबाई": 7473,
      "खूबसूरत": 7474,
      "बरसाता": 7475,
      "शक्तिशाली": 7476,
      "पड़ते": 7477,
      "बाहमी": 7478,
      "महिलाओं": 7479,
      "करतूत": 7480,
      "दलीलें": 7481,
      "ख़़ुद": 7482,
      "बुढ़ापे": 7483,
      "वृत्तान्त": 7484,
      "परिवर्तनों": 7485,
      "सिफ़ारिश": 7486,
      "_b": 7487,
      "कवि": 7488,
      "नक": 7489,
      "फर्": 7490,
      "॰।": 7491,
      "तालीम": 7492,
      "हाकि": 7493,
      "माएल": 7494,
      "कुसूर": 7495,
      "बेपरवा": 7496,
      "ियाद": 7497,
      "बदतर": 7498,
      "टीपी": 7499,
      "फ़ोल्डरों": 7500,
      "राहत": 7501,
      "सम्बद्ध": 7502,
      "छुड़ा": 7503,
      "फैलाए": 7504,
      "माँगों": 7505,
      "शंका": 7506,
      "रियाद": 7507,
      "रॉक": 7508,
      "नक्शा": 7509,
      "दायि": 7510,
      "कारगुज़ारियों": 7511,
      "ण्डर": 7512,
      "संपीडित": 7513,
      "आफ़ताब": 7514,
      "ES": 7515,
      "ile": 7516,
      "ution": 7517,
      "जरु": 7518,
      "बनें": 7519,
      "मदीने": 7520,
      "हठ": 7521,
      "नेवि": 7522,
      "किगा": 7523,
      "परले": 7524,
      "लेस": 7525,
      "जिल": 7526,
      "वहन": 7527,
      "मुज": 7528,
      "पुर्स": 7529,
      "पहुंचे": 7530,
      "सुननेवाला": 7531,
      "भुत": 7532,
      "घाट": 7533,
      "बचाकर": 7534,
      "धाई": 7535,
      "शब्दको": 7536,
      "off": 7537,
      "जन्नतवाले": 7538,
      "भोग": 7539,
      "प्रभात": 7540,
      "झोंका": 7541,
      "यतीमों": 7542,
      "नस्ल": 7543,
      "लंबवत": 7544,
      "बुर्जु": 7545,
      "मुमकिन": 7546,
      "MD": 7547,
      "ंटी": 7548,
      "चतुर्": 7549,
      "टियाँ": 7550,
      "पोर": 7551,
      "फार्": 7552,
      "बसे": 7553,
      "क़र्ज़": 7554,
      "यात्र": 7555,
      "याचना": 7556,
      "किसका": 7557,
      "गुच्छ": 7558,
      "रियो": 7559,
      "बहुभुज": 7560,
      "टेबल": 7561,
      "स्वचलित": 7562,
      "कॉम्": 7563,
      "लॉगइन": 7564,
      "चुनान्चे": 7565,
      "घड़ते": 7566,
      "प्रभावित": 7567,
      "इरादे": 7568,
      "स्टेशन": 7569,
      "उपाय": 7570,
      "02i": 7571,
      "द्वितीय": 7572,
      "tribut": 7573,
      "एलबम": 7574,
      "360": 7575,
      "_f": 7576,
      "ंगर": 7577,
      "इस्ता": 7578,
      "इक्का": 7579,
      "ओपन": 7580,
      "प्य": 7581,
      "पब्": 7582,
      "सज्": 7583,
      "ख़राब": 7584,
      "कापी": 7585,
      "मेजब": 7586,
      "त्तम": 7587,
      "चीजे": 7588,
      "बुझ": 7589,
      "पुत्र": 7590,
      "कर्मी": 7591,
      "मिलन": 7592,
      "लौन्": 7593,
      "रंगों": 7594,
      "एलन": 7595,
      "फ़ोन": 7596,
      "ब्लॉक": 7597,
      "एलिजाबेथ": 7598,
      "खतर": 7599,
      "ड्यू": 7600,
      "बौ": 7601,
      "करूं": 7602,
      "नागर": 7603,
      "नायक": 7604,
      "तेज़": 7605,
      "क्लाए": 7606,
      "वायर": 7607,
      "दिलाया": 7608,
      "सांस": 7609,
      "बाजार": 7610,
      "मुड़": 7611,
      "चालीस": 7612,
      "कारियाँ": 7613,
      "बनाये": 7614,
      "ियाई": 7615,
      "पिंग": 7616,
      "ोल्ड": 7617,
      "अधिष्ठा": 7618,
      "फिल्म": 7619,
      "सहेजे": 7620,
      "निकलना": 7621,
      "आँखे": 7622,
      "लंबी": 7623,
      "ece": 7624,
      "हवां": 7625,
      "पुरस्कार": 7626,
      "सुझाव": 7627,
      "हार्ड": 7628,
      "इच्छुक": 7629,
      "नागरिक": 7630,
      "तर्": 7631,
      "थ्य": 7632,
      "जायें": 7633,
      "संरेख": 7634,
      "थाम": 7635,
      "सिन": 7636,
      "टेप": 7637,
      "जूर": 7638,
      "अंश": 7639,
      "stel": 7640,
      "अमेरिकी": 7641,
      "कुंजीपट": 7642,
      "एक्सएमएल": 7643,
      "जोड़ेगा": 7644,
      "Constel": 7645,
      "आखिरी": 7646,
      "हस्तांतरण": 7647,
      "check": 7648,
      "Constellation": 7649,
      "string": 7650,
      "आज़ा": 7651,
      "लहर": 7652,
      "रात्रि": 7653,
      "बाइस": 7654,
      "रहकर": 7655,
      "पाकि": 7656,
      "संध्या": 7657,
      "बेल": 7658,
      "इनका": 7659,
      "दुब": 7660,
      "खोली": 7661,
      "कमरा": 7662,
      "बदलाव": 7663,
      "फिरा": 7664,
      "बनना": 7665,
      "निकलती": 7666,
      "पत्नि": 7667,
      "फ़ॉर्म": 7668,
      "ack": 7669,
      "फुट": 7670,
      "फ़िल्टरName": 7671,
      "वेबसाइट": 7672,
      "GNOME": 7673,
      "स्कीमा": 7674,
      "वंचित": 7675,
      "अधीन": 7676,
      "VERS": 7677,
      "क्लाएंट": 7678,
      "SA": 7679,
      "will": 7680,
      "अखंड": 7681,
      "उज": 7682,
      "उंड": 7683,
      "गड़": 7684,
      "हफ्": 7685,
      "कीय": 7686,
      "गाँ": 7687,
      "मुस्त": 7688,
      "भेड़": 7689,
      "फेस": 7690,
      "पहुँचाना": 7691,
      "फिक्र": 7692,
      "सूचनाएँ": 7693,
      "छाँव": 7694,
      "आनंद": 7695,
      "दबाव": 7696,
      "घड़ियों": 7697,
      "इत्ते": 7698,
      "शॉट": 7699,
      "शॉर्ट": 7700,
      "अकड़": 7701,
      "प्रस्ताव": 7702,
      "पब्लिक": 7703,
      "अखंडता": 7704,
      "%.": 7705,
      "Folder": 7706,
      "IC": 7707,
      "Mo": 7708,
      "MAN": 7709,
      "Ya": 7710,
      "_v": 7711,
      "amp": 7712,
      "here": 7713,
      "iB": 7714,
      "res": 7715,
      "xA": 7716,
      "अद्": 7717,
      "कंग": 7718,
      "नेरिक": 7719,
      "नाग": 7720,
      "जिन्न": 7721,
      "न्वित": 7722,
      "नीला": 7723,
      "समकक्ष": 7724,
      "रूसी": 7725,
      "देखिए": 7726,
      "शाही": 7727,
      "म्मा": 7728,
      "शीशे": 7729,
      "पिलाने": 7730,
      "ann": 7731,
      "अवय": 7732,
      "inmenu": 7733,
      "मिटाए": 7734,
      "कमाते": 7735,
      "कमांडर": 7736,
      "दौर": 7737,
      "दनशील": 7738,
      "कंपो": 7739,
      "direct": 7740,
      "उलटी": 7741,
      "सुझाई": 7742,
      "वाकिफ": 7743,
      "पूछताछ": 7744,
      "कल्पना": 7745,
      "क्रैश": 7746,
      "संवेदनशील": 7747,
      "VERSION": 7748,
      "ET": 7749,
      "He": 7750,
      "St": 7751,
      "कश": 7752,
      "कसा": 7753,
      "कशी": 7754,
      "कथन": 7755,
      "धँसा": 7756,
      "नम": 7757,
      "नमस्": 7758,
      "शकुन": 7759,
      "कोल": 7760,
      "सिस": 7761,
      "जिनों": 7762,
      "हिम": 7763,
      "बीप": 7764,
      "उठाकर": 7765,
      "एसवी": 7766,
      "आनेवाली": 7767,
      "omb": 7768,
      "जमाव": 7769,
      "क्टरी": 7770,
      "घोषणा": 7771,
      "वांछ": 7772,
      "वरीयताएँ": 7773,
      "सख़्त": 7774,
      "message": 7775,
      "मेजबान": 7776,
      "_k": 7777,
      "डेंट": 7778,
      "फों": 7779,
      "व्र": 7780,
      "फ़ता": 7781,
      "ताम्": 7782,
      "परमाण": 7783,
      "हमले": 7784,
      "तिब": 7785,
      "बनाएगा": 7786,
      "गुल": 7787,
      "ब्बा": 7788,
      "सोना": 7789,
      "ish": 7790,
      "हालाकि": 7791,
      "फैसले": 7792,
      "प्रेर": 7793,
      "लड़कियों": 7794,
      "ach": 7795,
      "डोल": 7796,
      "chan": 7797,
      "ग्लो": 7798,
      "पुनरावृत्ति": 7799,
      "स्पैम": 7800,
      "शिकायत": 7801,
      "विदेशी": 7802,
      "Yahoo": 7803,
      "Co": 7804,
      "co": 7805,
      "find": 7806,
      "object": 7807,
      "अस्वीकृत": 7808,
      "आहि": 7809,
      "आइन्दा": 7810,
      "एगें": 7811,
      "झट": 7812,
      "तजा": 7813,
      "नहरे": 7814,
      "बरू": 7815,
      "क़द्र": 7816,
      "ग़म": 7817,
      "फ़िक": 7818,
      "क्क़त": 7819,
      "जोड़ी": 7820,
      "निगाहों": 7821,
      "मुन": 7822,
      "मुक्ति": 7823,
      "करेंगी": 7824,
      "करेंगें": 7825,
      "श्की": 7826,
      "बनाएँगे": 7827,
      "चुको": 7828,
      "ज्जे": 7829,
      "भागा": 7830,
      "दुबारा": 7831,
      "धिक्": 7832,
      "खेलने": 7833,
      "क़िबले": 7834,
      "फैलाने": 7835,
      "फ़िल": 7836,
      "ठहराने": 7837,
      "पढ़ी": 7838,
      "पढ़ें": 7839,
      "परहेज़": 7840,
      "ख़िलाफ़": 7841,
      "पलटना": 7842,
      "2002": 7843,
      "ख्वाहॉ": 7844,
      "शानदार": 7845,
      "साइड": 7846,
      "पीठों": 7847,
      "ART": 7848,
      "प्लेयर": 7849,
      "चिंतित": 7850,
      "मग़फ़िर": 7851,
      "अमान्य": 7852,
      "खजूरों": 7853,
      "शर्मगाहों": 7854,
      "उखाड़": 7855,
      "SHA": 7856,
      "फरज़न्द": 7857,
      "Kaiju": 7858,
      "स्रोतों": 7859,
      "कानाफूसी": 7860,
      "लौंडियों": 7861,
      "आहिस्ता": 7862,
      "मग़फ़िरत": 7863,
      "Do": 7864,
      "UN": 7865,
      "ces": 7866,
      "अा": 7867,
      "ईसरा": 7868,
      "उजरत": 7869,
      "एण्ड": 7870,
      "चलाए": 7871,
      "छड़ी": 7872,
      "टार्क": 7873,
      "तज़": 7874,
      "भती": 7875,
      "मरा": 7876,
      "रस": 7877,
      "ॉक्स": 7878,
      "ग़ी": 7879,
      "फ़ौरन": 7880,
      "नेता": 7881,
      "नेकों": 7882,
      "ारो": 7883,
      "मेंटेनर": 7884,
      "वाइ": 7885,
      "नियर": 7886,
      "निखार": 7887,
      "माए": 7888,
      "मुताव": 7889,
      "विवाद": 7890,
      "खाएँगे": 7891,
      "दुआएं": 7892,
      "रिज़": 7893,
      "निर्बल": 7894,
      "जानेवाली": 7895,
      "किसकी": 7896,
      "बापों": 7897,
      "ज़रिया": 7898,
      "dir": 7899,
      "तारीफ़": 7900,
      "लाएँगें": 7901,
      "अन्दाज़ा": 7902,
      "मूर्तियों": 7903,
      "धर्मियों": 7904,
      "सेकंड": 7905,
      "ग़लबा": 7906,
      "शिकस्त": 7907,
      "अक्लमन्दों": 7908,
      "पहचाना": 7909,
      "गृह": 7910,
      "खतरनाक": 7911,
      "टार्कटिका": 7912,
      "मुतावज्जे": 7913,
      "To": 7914,
      "असंभव": 7915,
      "ऊर्": 7916,
      "एफ़": 7917,
      "छे": 7918,
      "फक़त": 7919,
      "मरो": 7920,
      "लपक": 7921,
      "ताक़त": 7922,
      "स्पी": 7923,
      "वेल": 7924,
      "विचूर्ण": 7925,
      "संमार्ग": 7926,
      "ज़न": 7927,
      "बेतरतीब": 7928,
      "ख्यानत": 7929,
      "गुआ": 7930,
      "गुफा": 7931,
      "बुझा": 7932,
      "गार्ड": 7933,
      "द्वेष": 7934,
      "ज़िज़": 7935,
      "कैद": 7936,
      "कर्सर": 7937,
      "बारगी": 7938,
      "मिलेंगे": 7939,
      "ore": 7940,
      "निस्सन्देह": 7941,
      "net": 7942,
      "गहरी": 7943,
      "स्पष्टा": 7944,
      "हलाक़": 7945,
      "लड़कों": 7946,
      "पराय": 7947,
      "विरक्त": 7948,
      "नरमी": 7949,
      "सीमाएँ": 7950,
      "बिगाड़": 7951,
      "मुद्रण": 7952,
      "दिखलाओ": 7953,
      "तस्दीक़": 7954,
      "बाँधे": 7955,
      "डूबने": 7956,
      "सदाबहार": 7957,
      "इतराते": 7958,
      "मटियामेट": 7959,
      "जर्मन": 7960,
      "मायने": 7961,
      "आभासी": 7962,
      "बुर्ज़ु": 7963,
      "बरगुज़ीदा": 7964,
      "ताम्मुल": 7965,
      "परमाणु": 7966,
      "Web": 7967,
      "_l": 7968,
      "आधी": 7969,
      "छक्का": 7970,
      "तवाना": 7971,
      "तथ्य": 7972,
      "थै": 7973,
      "दराज़": 7974,
      "रहीं": 7975,
      "शह": 7976,
      "हटो": 7977,
      "ख़े": 7978,
      "सेन": 7979,
      "परलोक": 7980,
      "स्नि": 7981,
      "जाँ": 7982,
      "देहा": 7983,
      "प्रस्थिति": 7984,
      "रहूँ": 7985,
      "मानि": 7986,
      "मान्य": 7987,
      "सूर्": 7988,
      "मीटर्स": 7989,
      "हिक़": 7990,
      "ज़िद": 7991,
      "प्रां": 7992,
      "फरियाद": 7993,
      "बढ़के": 7994,
      "ठहराओ": 7995,
      "पड़ते": 7996,
      "ंसनीय": 7997,
      "पंक्तियाँ": 7998,
      "urr": 7999,
      "फ्रें": 8000,
      "फ़ीड": 8001,
      "उतारते": 8002,
      "मस्जिदुल": 8003,
      "नाशुक्रा": 8004,
      "apan": 8005,
      "कंप्यूटर": 8006,
      "मुअय्युन": 8007,
      "तख्तों": 8008,
      "पारिभाषित": 8009,
      "प्रशंसनीय": 8010,
      "आज़ाद": 8011,
      "ght": 8012,
      "japan": 8013,
      "अजन": 8014,
      "अपरिचित": 8015,
      "आशंका": 8016,
      "उंग": 8017,
      "उचक": 8018,
      "ऐवज़": 8019,
      "ृष्ट": 8020,
      "ज़गी": 8021,
      "ड़ों": 8022,
      "कोटा": 8023,
      "कीमत": 8024,
      "जिंग": 8025,
      "चाचा": 8026,
      "कारसाज़": 8027,
      "तिजार": 8028,
      "फ़रियाद": 8029,
      "tip": 8030,
      "डिक": 8031,
      "खोले": 8032,
      "जूडिथ": 8033,
      "झुकी": 8034,
      "निकला": 8035,
      "निकृष्ट": 8036,
      "खेत": 8037,
      "चार्ट": 8038,
      "रहनेवाला": 8039,
      "लॉगिन": 8040,
      "खेलते": 8041,
      "गुमराहों": 8042,
      "उपयोक्तानाम": 8043,
      "बर्लिन": 8044,
      "\\\\\\\\": 8045,
      "चुनते": 8046,
      "चश्मा": 8047,
      "कहेंगें": 8048,
      "वार्ता": 8049,
      "सिफारिशी": 8050,
      "दीर्घा": 8051,
      "जाहिल": 8052,
      "ग़ाफ़िल": 8053,
      "चिपकाएँ": 8054,
      "क़ारुन": 8055,
      "स्वेच्छा": 8056,
      "नसरानी": 8057,
      "नमस्कार": 8058,
      "तिजारत": 8059,
      "br": 8060,
      "imp": 8061,
      "अद": 8062,
      "उपर": 8063,
      "जग": 8064,
      "तहत": 8065,
      "मई": 8066,
      "मती": 8067,
      "शने": 8068,
      "ेय": 8069,
      "वाप": 8070,
      "वासी": 8071,
      "हाजत": 8072,
      "र्दा": 8073,
      "कारक": 8074,
      "सूक्ष": 8075,
      "रखकर": 8076,
      "रोम": 8077,
      "दूद": 8078,
      "ties": 8079,
      "वीकार्ड": 8080,
      "वर्तन": 8081,
      "परिवहन": 8082,
      "चिक": 8083,
      "तौहीद": 8084,
      "पोशा": 8085,
      "प्रोफाइल": 8086,
      "हटाना": 8087,
      "पड़ेगी": 8088,
      "ध्येय": 8089,
      "तारीख": 8090,
      "गर्व": 8091,
      "गैब": 8092,
      "पहाड़ो": 8093,
      "माइम": 8094,
      "हक़ीक़": 8095,
      "फॉर्मेट": 8096,
      "बटण": 8097,
      "जत्था": 8098,
      "सूक्ष्म": 8099,
      "AS": 8100,
      "PK": 8101,
      "hea": 8102,
      "puer": 8103,
      "ual": 8104,
      "कड़": 8105,
      "खान": 8106,
      "धों": 8107,
      "मय्य": 8108,
      "रसा": 8109,
      "िणी": 8110,
      "सेस": 8111,
      "लिबास": 8112,
      "मेनू": 8113,
      "पूंजी": 8114,
      "मार्ट": 8115,
      "बैग": 8116,
      "प्रतिष्ठा": 8117,
      "इंदु": 8118,
      "हटाएं": 8119,
      "पड़ने": 8120,
      "उठना": 8121,
      "साझे": 8122,
      "दस्तूर": 8123,
      "खींचने": 8124,
      "अंग्रेज़ी": 8125,
      "torico": 8126,
      "some": 8127,
      "मल्टी": 8128,
      "आईएसओ": 8129,
      "directory": 8130,
      "स्निपेट": 8131,
      "प्रांप्ट": 8132,
      "puertorico": 8133,
      "मय्यत": 8134,
      "AIM": 8135,
      "VS": 8136,
      "आवास": 8137,
      "ठु": 8138,
      "सपना": 8139,
      "सहमत": 8140,
      "हवार": 8141,
      "हन्ना": 8142,
      "हैरत": 8143,
      "लिसी": 8144,
      "जिंदा": 8145,
      "सूखी": 8146,
      "टाले": 8147,
      "दूत": 8148,
      "बिठा": 8149,
      "मोर": 8150,
      "वीं": 8151,
      "anc": 8152,
      "समझें": 8153,
      "फ़ाइलनाम": 8154,
      "ब्स": 8155,
      "टीएस": 8156,
      "डेविड": 8157,
      "बेहतरी": 8158,
      "एंडर": 8159,
      "फैक्स": 8160,
      "गवाहों": 8161,
      "भारित": 8162,
      "आउटलुक": 8163,
      "सिंह": 8164,
      "चयनक": 8165,
      "लक्षण": 8166,
      "साँस": 8167,
      "दीर्घ": 8168,
      "ize": 8169,
      "प्रशासक": 8170,
      "iCalImp": 8171,
      "हवारियों": 8172,
      "45": 8173,
      "://": 8174,
      "gin": 8175,
      "gedit": 8176,
      "जमीन": 8177,
      "ठहरें": 8178,
      "मम्मी": 8179,
      "वक्र": 8180,
      "विस": 8181,
      "खाई": 8182,
      "पैटर्न": 8183,
      "बीस": 8184,
      "द्वी": 8185,
      "न्द्र": 8186,
      "दिलच": 8187,
      "ार्ड": 8188,
      "छिप": 8189,
      "झगड़े": 8190,
      "लंदन": 8191,
      "फुहार": 8192,
      "श्रेण": 8193,
      "घोड़े": 8194,
      "गंध": 8195,
      "मंडल": 8196,
      "दुर्घटना": 8197,
      "दोहराएँ": 8198,
      "ogl": 8199,
      "शॉर्टकट": 8200,
      "अवयव": 8201,
      "PKCS": 8202,
      "Dis": 8203,
      "ful": 8204,
      "ure": 8205,
      "आश": 8206,
      "आरो": 8207,
      "एंड": 8208,
      "महर": 8209,
      "केन": 8210,
      "ताक": 8211,
      "क्ले": 8212,
      "अपवाद": 8213,
      "मेलब": 8214,
      "संपत्ति": 8215,
      "मतभेद": 8216,
      "डिवाइस": 8217,
      "टिकट": 8218,
      "opy": 8219,
      "थोड़े": 8220,
      "लड़कियों": 8221,
      "सहभागियों": 8222,
      "शोक": 8223,
      "मित्रों": 8224,
      "मक्खी": 8225,
      "ठहरो": 8226,
      "white": 8227,
      "क्लास": 8228,
      "इमेज": 8229,
      "चमकीलापन": 8230,
      "शब्दकोश": 8231,
      "1f": 8232,
      "600": 8233,
      "Ty": 8234,
      "page": 8235,
      "अहा": 8236,
      "उकसा": 8237,
      "ऐश": 8238,
      "फते": 8239,
      "बकर": 8240,
      "फ़्": 8241,
      "नास": 8242,
      "लेगी": 8243,
      "देवि": 8244,
      "पाकर": 8245,
      "मिति": 8246,
      "सुन्दर": 8247,
      "शाखा": 8248,
      "हिल": 8249,
      "द्दे": 8250,
      "बिछा": 8251,
      "दरार": 8252,
      "अंटार्कटिका": 8253,
      "arn": 8254,
      "पहुँचाते": 8255,
      "पंजी": 8256,
      "ठहराएँ": 8257,
      "पूर्ववर्ती": 8258,
      "हवाई": 8259,
      "टुकड़ा": 8260,
      "अमरी": 8261,
      "इन्होंने": 8262,
      "उड़ाते": 8263,
      "ग़लती": 8264,
      "सर्वोत्तम": 8265,
      "संतुलन": 8266,
      "plug": 8267,
      "cess": 8268,
      "ँवा": 8269,
      "कप्": 8270,
      "डब्": 8271,
      "ढू": 8272,
      "तकिया": 8273,
      "हस": 8274,
      "ोन": 8275,
      "कोने": 8276,
      "्रु": 8277,
      "दाद": 8278,
      "दिनांक": 8279,
      "सालों": 8280,
      "पादन": 8281,
      "मैक्स": 8282,
      "ज़रूर": 8283,
      "त्वर": 8284,
      "पहुचा": 8285,
      "पेन": 8286,
      "आयातक": 8287,
      "शेल": 8288,
      "ice": 8289,
      "मुलाक़ात": 8290,
      "there": 8291,
      "उतरते": 8292,
      "माइक्रो": 8293,
      "आर्गु": 8294,
      "संगतता": 8295,
      "साधक": 8296,
      "विस्फोट": 8297,
      "ंकित": 8298,
      "आयु": 8299,
      "ईं": 8300,
      "खबरी": 8301,
      "तले": 8302,
      "थि": 8303,
      "थकान": 8304,
      "धानी": 8305,
      "मदी": 8306,
      "रवि": 8307,
      "कोता": 8308,
      "दुकान": 8309,
      "बीज": 8310,
      "मोबा": 8311,
      "निर्धन": 8312,
      "उत्तरी": 8313,
      "वैरी": 8314,
      "छात्र": 8315,
      "डराना": 8316,
      "सहने": 8317,
      "मंजिल": 8318,
      "search": 8319,
      "पड़ती": 8320,
      "एक्सटें": 8321,
      "उतारता": 8322,
      "सैन्य": 8323,
      "स्टेट": 8324,
      "व्यवसाय": 8325,
      "स्कोप": 8326,
      "दक्षिणी": 8327,
      "जुदाई": 8328,
      "हँसते": 8329,
      "LEX": 8330,
      "(*.": 8331,
      "Des": 8332,
      "SM": 8333,
      "zo": 8334,
      "इम": 8335,
      "ईश": 8336,
      "एकिगा": 8337,
      "खडे": 8338,
      "गौर": 8339,
      "तने": 8340,
      "र्ची": 8341,
      "जिन्दा": 8342,
      "बाज़ी": 8343,
      "पाला": 8344,
      "पाये": 8345,
      "नीच": 8346,
      "तीव्र": 8347,
      "श्ती": 8348,
      "कहती": 8349,
      "बनाव": 8350,
      "जीता": 8351,
      "बिक्री": 8352,
      "ina": 8353,
      "प्राधिकार": 8354,
      "शिशु": 8355,
      "तम्ह": 8356,
      "पहुँचाएगा": 8357,
      "बढ़ने": 8358,
      "बढ़ते": 8359,
      "छुए": 8360,
      "पकड़कर": 8361,
      "चरित": 8362,
      "धुएँ": 8363,
      "उतरो": 8364,
      "कुमारी": 8365,
      "उगाई": 8366,
      "बिंब": 8367,
      "view": 8368,
      "सब्त": 8369,
      "सौंपा": 8370,
      "have": 8371,
      "घुसाएँ": 8372,
      "सिमुलेशन": 8373,
      "संरेखण": 8374,
      "वांछित": 8375,
      "कप्तान": 8376,
      "720": 8377,
      "__": 8378,
      "uk": 8379,
      "ust": 8380,
      "इका": 8381,
      "एआर": 8382,
      "कब्र": 8383,
      "ठंड": 8384,
      "समुद": 8385,
      "फ़सा": 8386,
      "हैName": 8387,
      "नां": 8388,
      "हमनें": 8389,
      "रास": 8390,
      "वेस्ट": 8391,
      "खाँचा": 8392,
      "श्वत": 8393,
      "बेखबर": 8394,
      "जहान": 8395,
      "बन्दर": 8396,
      "समाधान": 8397,
      "शोध": 8398,
      "एनक्रिप्ट": 8399,
      "बढ़ाएँ": 8400,
      "बाँट": 8401,
      "ज़ूल": 8402,
      "स्पेस": 8403,
      "मुताबिक": 8404,
      "ब्रेकपाइंट": 8405,
      "कराहना": 8406,
      "डेवलपर": 8407,
      "मेलबॉक्स": 8408,
      "500": 8409,
      "Op": 8410,
      "eu": 8411,
      "असावधान": 8412,
      "एक़ा": 8413,
      "गन्दी": 8414,
      "टार": 8415,
      "नजर": 8416,
      "बहरा": 8417,
      "याफ्ता": 8418,
      "तुममे": 8419,
      "तान्त": 8420,
      "राय": 8421,
      "जिधर": 8422,
      "मुका": 8423,
      "मुकरोगे": 8424,
      "मुत्त": 8425,
      "विराज": 8426,
      "विविध": 8427,
      "रेड": 8428,
      "फ़े": 8429,
      "फ़साद": 8430,
      "गरदन": 8431,
      "बरु": 8432,
      "गुज़रा": 8433,
      "रोना": 8434,
      "शाश्वत": 8435,
      "रिकॉर्ड": 8436,
      "पीपी": 8437,
      "ज़ियों": 8438,
      "लियां": 8439,
      "मालदार": 8440,
      "शुबहा": 8441,
      "झुकने": 8442,
      "सोल": 8443,
      "कूद": 8444,
      "खिलाते": 8445,
      "सम्भावना": 8446,
      "पारदर्शी": 8447,
      "वृतान्त": 8448,
      "see": 8449,
      "पिछलों": 8450,
      "फ़िरऔनियों": 8451,
      "रहेंगें": 8452,
      "uri": 8453,
      "साइकिल": 8454,
      "चालक": 8455,
      "लालच": 8456,
      "बचते": 8457,
      "गर्भ": 8458,
      "प्रबंधित": 8459,
      "colomb": 8460,
      "अक्षरों": 8461,
      "पायथन": 8462,
      "तफसीलदार": 8463,
      "ग़रज": 8464,
      "समझौता": 8465,
      "मशवरा": 8466,
      "अजनबी": 8467,
      "कोताही": 8468,
      "colombia": 8469,
      "DA": 8470,
      "It": 8471,
      "PGP": 8472,
      "ati": 8473,
      "mbox": 8474,
      "अहम": 8475,
      "अधर्मी": 8476,
      "आड़": 8477,
      "उँ": 8478,
      "उपह": 8479,
      "जंगे": 8480,
      "तरे": 8481,
      "धू": 8482,
      "नारा": 8483,
      "फरिश्ता": 8484,
      "बका": 8485,
      "बसर": 8486,
      "मग्न": 8487,
      "रघु": 8488,
      "हसद": 8489,
      "क़सद": 8490,
      "क़लम": 8491,
      "फ़रेब": 8492,
      "ताज़ा": 8493,
      "पराम": 8494,
      "देरी": 8495,
      "वहे": 8496,
      "वेत": 8497,
      "सितम": 8498,
      "चीजों": 8499,
      "पीट": 8500,
      "पीप": 8501,
      "अनुकू": 8502,
      "हेडर": 8503,
      "डिबग": 8504,
      "दरजा": 8505,
      "पिल": 8506,
      "मूल्": 8507,
      "समझी": 8508,
      "बूर": 8509,
      "नियाज़": 8510,
      "जानेवाला": 8511,
      "प्रतिकूल": 8512,
      "बहनें": 8513,
      "इन्ति": 8514,
      "्रेस": 8515,
      "पहुँचाता": 8516,
      "पुकारेंगे": 8517,
      "ग़नीमत": 8518,
      "बचानेवाला": 8519,
      "रहनेवालों": 8520,
      "them": 8521,
      "छिपाकर": 8522,
      "ख़िब": 8523,
      "एमएस": 8524,
      "जन्नतों": 8525,
      "उलटा": 8526,
      "क़तई": 8527,
      "वारिसों": 8528,
      "बारीक": 8529,
      "सितारे": 8530,
      "दीवारों": 8531,
      "यकीनन": 8532,
      "इंटरफेस": 8533,
      "take": 8534,
      "वुड": 8535,
      "लुत्फ़": 8536,
      "मुक़द्द": 8537,
      "व्यभिचार": 8538,
      "मुनाफिक़ीन": 8539,
      "तर्के": 8540,
      "हफ्ते": 8541,
      "ईसराइल": 8542,
      "तज़किरा": 8543,
      "SMTP": 8544,
      "विराजमान": 8545,
      "परामर्श": 8546,
      "Cogl": 8547,
      "RO": 8548,
      "cs": 8549,
      "ix": 8550,
      "wn": 8551,
      "इख्ते": 8552,
      "कब्रों": 8553,
      "गारे": 8554,
      "जगमगा": 8555,
      "फर्ज": 8556,
      "यज़": 8557,
      "सज्ज": 8558,
      "हड़": 8559,
      "लिल्लाह": 8560,
      "दिग्": 8561,
      "सानात": 8562,
      "साख्ता": 8563,
      "मिनी": 8564,
      "बेबस": 8565,
      "बेगम": 8566,
      "बेसाख्ता": 8567,
      "गरज़": 8568,
      "जानें": 8569,
      "रूख़": 8570,
      "दूना": 8571,
      "शायर": 8572,
      "शाइस्ता": 8573,
      "रिकार्ड": 8574,
      "जीन": 8575,
      "हेर": 8576,
      "क़ायल": 8577,
      "कार्यशील": 8578,
      "माँगे": 8579,
      "मरदूद": 8580,
      "कूवत": 8581,
      "व्यक्तियों": 8582,
      "पूछगछ": 8583,
      "ents": 8584,
      "समायोजित": 8585,
      "एहसानात": 8586,
      "झूठलाया": 8587,
      "रखनेवाली": 8588,
      "पड़ेगे": 8589,
      "क्ट्र": 8590,
      "हक़दार": 8591,
      "दुआएँ": 8592,
      "धर्मपराय": 8593,
      "2006": 8594,
      "फ़ायज़": 8595,
      "पेटों": 8596,
      "अधिकारियों": 8597,
      "मुहय्या": 8598,
      "सोचता": 8599,
      "ज़िम्मेदार": 8600,
      "जादूगरों": 8601,
      "अमानतों": 8602,
      "फ़ीक़": 8603,
      "फ़ीफ़": 8604,
      "लिपटे": 8605,
      "दुशमनों": 8606,
      "डुबा": 8607,
      "उड़ाया": 8608,
      "निरपेक्ष": 8609,
      "तीसरा": 8610,
      "तमाशे": 8611,
      "क़राबतदार": 8612,
      "वाक़ई": 8613,
      "आदरणीय": 8614,
      "फ़ितना": 8615,
      "मुसाफ़िरों": 8616,
      "मकानात": 8617,
      "मेहनत": 8618,
      "ंगरप्रिंट": 8619,
      "धिक्कार": 8620,
      "परहेज़गारी": 8621,
      "ऊर्जा": 8622,
      "चिकनी": 8623,
      "सज्जनों": 8624,
      "32": 8625,
      "PO": 8626,
      "Quer": 8627,
      "अधर्म": 8628,
      "अमीर": 8629,
      "अक़ल": 8630,
      "आबं": 8631,
      "इले": 8632,
      "इंग": 8633,
      "इमर": 8634,
      "कतों": 8635,
      "चारा": 8636,
      "नर्": 8637,
      "पशु": 8638,
      "बदी": 8639,
      "लूँगा": 8640,
      "नेकियाँ": 8641,
      "ताजा": 8642,
      "नानी": 8643,
      "लेनेवाला": 8644,
      "राक्ष": 8645,
      "निवेश": 8646,
      "जिया": 8647,
      "हुस्": 8648,
      "कुढ़": 8649,
      "रहस्य": 8650,
      "चादर": 8651,
      "मैच": 8652,
      "फ़लत": 8653,
      "मिस": 8654,
      "सबकुछ": 8655,
      "मीठा": 8656,
      "रोल": 8657,
      "रिस": 8658,
      "डरने": 8659,
      "ड़ाते": 8660,
      "टेढ़": 8661,
      "किताबवाले": 8662,
      "ord": 8663,
      "तौक़": 8664,
      "जीवधारी": 8665,
      "ख़ुश्क": 8666,
      "पूछने": 8667,
      "रोकना": 8668,
      "पहुँचकर": 8669,
      "ज़ाहिरी": 8670,
      "क्रिप्शन": 8671,
      "dif": 8672,
      "ज़लज़": 8673,
      "बाग़ो": 8674,
      "टूल": 8675,
      "email": 8676,
      "माइक": 8677,
      "इत्मिनान": 8678,
      "हक़ीकत": 8679,
      "अग्रसर": 8680,
      "रस्सियाँ": 8681,
      "शुरुआत": 8682,
      "समाईवाला": 8683,
      "स्वादन": 8684,
      "एलागरि": 8685,
      "विभाजित": 8686,
      "चिकित्सा": 8687,
      "शनिवार": 8688,
      "वसवसा": 8689,
      "मुजरि": 8690,
      "बुर्जुग़": 8691,
      "कंपोजर": 8692,
      "हिक़मत": 8693,
      "उपहार": 8694,
      "Query": 8695,
      "एलागरिथम": 8696,
      "HO": 8697,
      "इफ्": 8698,
      "घड़ी": 8699,
      "बढ": 8700,
      "मम": 8701,
      "ख़ै": 8702,
      "ग़रीब": 8703,
      "उनमे": 8704,
      "तोह": 8705,
      "ान्": 8706,
      "भीड़": 8707,
      "न्तर": 8708,
      "संक्षि": 8709,
      "खालें": 8710,
      "समृ": 8711,
      "तरफ़": 8712,
      "रखेंगे": 8713,
      "योद्धा": 8714,
      "बिता": 8715,
      "भेजो": 8716,
      "अनुभव": 8717,
      "बोलो": 8718,
      "टिम": 8719,
      "समयक्षेत्र": 8720,
      "पंथ": 8721,
      "छुपी": 8722,
      "पहुँचो": 8723,
      "पथराव": 8724,
      "पकड़ने": 8725,
      "टुकड़ा": 8726,
      "प्राथमिक": 8727,
      "परदाज़ियाँ": 8728,
      "स्टीफन": 8729,
      "गुनेहगारों": 8730,
      "पैग़म्बरी": 8731,
      "विनम्रता": 8732,
      "इब्राहीम": 8733,
      "दायित्व": 8734,
      "नेविगे": 8735,
      "गुच्छे": 8736,
      "'.": 8737,
      "300": 8738,
      "Ad": 8739,
      "cut": 8740,
      "अलै": 8741,
      "अशुभ": 8742,
      "बधाई": 8743,
      "लूंगा": 8744,
      "सफाई": 8745,
      "स्ले": 8746,
      "दाम": 8747,
      "जापान": 8748,
      "सापेक्ष": 8749,
      "कुरबानी": 8750,
      "खाल": 8751,
      "रियल": 8752,
      "पीना": 8753,
      "टेन": 8754,
      "डिजा": 8755,
      "ठाक": 8756,
      "प्राणी": 8757,
      "निकास": 8758,
      "डालूँगा": 8759,
      "जमाए": 8760,
      "get": 8761,
      "जाएंगी": 8762,
      "संगसार": 8763,
      "निरन्तर": 8764,
      "बरसातweather": 8765,
      "पायलट": 8766,
      "indows": 8767,
      "play": 8768,
      "एतबार": 8769,
      "वाक़िया": 8770,
      "संतुष्ट": 8771,
      "क़िस्सा": 8772,
      "स्काइप": 8773,
      "अंधड़": 8774,
      "स्टार्ट": 8775,
      "डेलिगेट": 8776,
      "छाँटें": 8777,
      "पाकिस्तान": 8778,
      "गड़बड़": 8779,
      "वापसी": 8780,
      "पोशाक": 8781,
      "मोबाइल": 8782,
      "-%": 8783,
      "Br": 8784,
      "IG": 8785,
      "LO": 8786,
      "Mail": 8787,
      "MiB": 8788,
      "bug": 8789,
      "आकर्": 8790,
      "डबल": 8791,
      "धमा": 8792,
      "सैन": 8793,
      "लेड": 8794,
      "मुहम्मद": 8795,
      "संसूचक": 8796,
      "इनजील": 8797,
      "टेक": 8798,
      "चिड़": 8799,
      "सुनना": 8800,
      "trol": 8801,
      "कार्यदिवस": 8802,
      "डेव": 8803,
      "ज़ाहिर": 8804,
      "एंटोन": 8805,
      "हटाया": 8806,
      "वादन": 8807,
      "द्रव": 8808,
      "लौटने": 8809,
      "like": 8810,
      "यालय": 8811,
      "ट्ठी": 8812,
      "space": 8813,
      "नेमतों": 8814,
      "मंत्रित": 8815,
      "about": 8816,
      "अनुपलब्ध": 8817,
      "एसएसएल": 8818,
      "View": 8819,
      "साझेदारी": 8820,
      "Type": 8821,
      "EO": 8822,
      "EX": 8823,
      "MP": 8824,
      "man": 8825,
      "val": 8826,
      "एडी": 8827,
      "छठा": 8828,
      "जंक": 8829,
      "टह": 8830,
      "बूँ": 8831,
      "लपे": 8832,
      "नामी": 8833,
      "लेक्": 8834,
      "सामी": 8835,
      "जिक": 8836,
      "मेशन": 8837,
      "तीसरी": 8838,
      "पैदल": 8839,
      "गुन": 8840,
      "दुरा": 8841,
      "म्ब": 8842,
      "म्बा": 8843,
      "स्तरी": 8844,
      "इंजिन": 8845,
      "धातु": 8846,
      "अभिवादन": 8847,
      "asia": 8848,
      "rap": 8849,
      "Inc": 8850,
      "आतंक": 8851,
      "ड्डी": 8852,
      "नवीनतम": 8853,
      "TLS": 8854,
      "brazil": 8855,
      "समृद्ध": 8856,
      "${": 8857,
      "32001": 8858,
      "CH": 8859,
      "E0": 8860,
      "GL": 8861,
      "L00": 8862,
      "xE0": 8863,
      "ऑफ़ि": 8864,
      "कण": 8865,
      "गॉ": 8866,
      "झो": 8867,
      "टु": 8868,
      "दबे": 8869,
      "ेए": 8870,
      "करर": 8871,
      "करार": 8872,
      "ताकत": 8873,
      "दिला": 8874,
      "साप्ता": 8875,
      "निशा": 8876,
      "सूख": 8877,
      "कहूँ": 8878,
      "च्छेद": 8879,
      "जूते": 8880,
      "lat": 8881,
      "lay": 8882,
      "लगाना": 8883,
      "translations": 8884,
      "जुर्म": 8885,
      "ग़लत": 8886,
      "icial": 8887,
      "मिलाएँ": 8888,
      "छाँट": 8889,
      "फीड": 8890,
      "हिरण": 8891,
      "बर्न": 8892,
      "महीना": 8893,
      "def": 8894,
      "conf": 8895,
      "fig": 8896,
      "संभवतः": 8897,
      "साँप": 8898,
      "कंट्रोल": 8899,
      "CELEX": 8900,
      "europa": 8901,
      "official": 8902,
      "32001L00": 8903,
      "साप्ताहिक": 8904,
      "32001L0059": 8905,
      "49": 8906,
      "=\\\\\\\\": 8907,
      "AB": 8908,
      "date": 8909,
      "अनेक": 8910,
      "एयर": 8911,
      "एरिक": 8912,
      "कवर": 8913,
      "पत": 8914,
      "रसी": 8915,
      "ुआ": 8916,
      "वाय": 8917,
      "स्पर्": 8918,
      "पाना": 8919,
      "फ़्ट": 8920,
      "लीनियर": 8921,
      "श्वेत": 8922,
      "पहे": 8923,
      "हिब्रू": 8924,
      "बीना": 8925,
      "नामक": 8926,
      "उपयोगी": 8927,
      "जेनेरिक": 8928,
      "डील": 8929,
      "आयातित": 8930,
      "उठाओ": 8931,
      "छुआ": 8932,
      "शेर": 8933,
      "ick": 8934,
      "प्रारंभिक": 8935,
      "क्षेप": 8936,
      "घुरघु": 8937,
      "सौभाग्य": 8938,
      "टूटी": 8939,
      "मूलभूत": 8940,
      "यूआरआई": 8941,
      "स्टीव": 8942,
      "MSN": 8943,
      "चेंज": 8944,
      "लुत्फ": 8945,
      "plugin": 8946,
      "ऑफ़िस": 8947,
      "घुरघुराना": 8948,
      "Ap": 8949,
      "CVS": 8950,
      "घने": 8951,
      "तकिए": 8952,
      "ूपित": 8953,
      "हैरान": 8954,
      "दाँ": 8955,
      "लिफ": 8956,
      "मुट्ठी": 8957,
      "विं": 8958,
      "फ़ान": 8959,
      "जीएल": 8960,
      "अनुरो": 8961,
      "चियन": 8962,
      "सोम": 8963,
      "कॉफी": 8964,
      "छांट": 8965,
      "चोटी": 8966,
      "शत्रुता": 8967,
      "ट्रेस": 8968,
      "प्यारी": 8969,
      "कार्बन": 8970,
      "ट्रक": 8971,
      "जुड़ने": 8972,
      "जावास्क्रिप्ट": 8973,
      "इलाज": 8974,
      "!)": 8975,
      "21": 8976,
      "28": 8977,
      "Jo": 8978,
      "Long": 8979,
      "from": 8980,
      "अस्थाई": 8981,
      "आभारी": 8982,
      "एगे": 8983,
      "कयामत": 8984,
      "खौ": 8985,
      "घनि": 8986,
      "घसीट": 8987,
      "चट": 8988,
      "ग़लत": 8989,
      "क्वैरी": 8990,
      "्हा": 8991,
      "साहि": 8992,
      "जोड़ा": 8993,
      "बादी": 8994,
      "चीर": 8995,
      "तरो": 8996,
      "डरना": 8997,
      "med": 8998,
      "कार्यकर्ता": 8999,
      "बताएगा": 9000,
      "छुप": 9001,
      "बचकर": 9002,
      "lie": 9003,
      "बैकएण्ड": 9004,
      "प्राणियों": 9005,
      "हाइलाइट": 9006,
      "70": 9007,
      "Ac": 9008,
      "CR": 9009,
      "Sec": 9010,
      "ep": 9011,
      "ear": 9012,
      "कCity": 9013,
      "झपक": 9014,
      "फौ": 9015,
      "भर्": 9016,
      "मदि": 9017,
      "फ़ान": 9018,
      "सेवर": 9019,
      "लिफा": 9020,
      "माइल": 9021,
      "कुँ": 9022,
      "ख़ून": 9023,
      "वीर्य": 9024,
      "तूफ़ान": 9025,
      "उपेक्षा": 9026,
      "दर्श": 9027,
      "निकलेगा": 9028,
      "अपनाते": 9029,
      "सलाधार": 9030,
      "process": 9031,
      "आईवी": 9032,
      "पकड़े": 9033,
      "बनने": 9034,
      "छुपे": 9035,
      "चलाई": 9036,
      "प्टि": 9037,
      "उलझ": 9038,
      "देवता": 9039,
      "घंटा": 9040,
      "गुस्सा": 9041,
      "--------": 9042,
      "ड्रैग": 9043,
      "टेक्स्ट": 9044,
      "नमस्ते": 9045,
      "संक्षिप्त": 9046,
      "ft": 9047,
      "अथ": 9048,
      "एलियास": 9049,
      "खैरात": 9050,
      "गरीब": 9051,
      "चंगा": 9052,
      "छी": 9053,
      "जरिए": 9054,
      "ट्यू": 9055,
      "ढकेल": 9056,
      "दरो": 9057,
      "धत्": 9058,
      "फटी": 9059,
      "भेंट": 9060,
      "मस्ति": 9061,
      "शृं": 9062,
      "हत्": 9063,
      "नेस": 9064,
      "काहि": 9065,
      "काहे": 9066,
      "लाय": 9067,
      "क्लि": 9068,
      "होशिया": 9069,
      "देही": 9070,
      "निमंत्रण": 9071,
      "गाहे": 9072,
      "मुस": 9073,
      "वेन": 9074,
      "मिलाएं": 9075,
      "गीली": 9076,
      "गुलर": 9077,
      "बील": 9078,
      "पीटर": 9079,
      "जेट": 9080,
      "lass": 9081,
      "बढ़ना": 9082,
      "फाड़": 9083,
      "लूप": 9084,
      "रंगः": 9085,
      "अनदेखा": 9086,
      "प्रेमी": 9087,
      "फील्ड": 9088,
      "पलटें": 9089,
      "ग्रीक": 9090,
      "दिखानी": 9091,
      "श्रव्य": 9092,
      "तलवार": 9093,
      "घबराहट": 9094,
      "proper": 9095,
      "बिगड़": 9096,
      "मजलिस": 9097,
      "वर्गीकृत": 9098,
      ".)": 9099,
      ".,": 9100,
      "IR": 9101,
      "_c": 9102,
      "fer": 9103,
      "pn": 9104,
      "अतीत": 9105,
      "आसा": 9106,
      "उठी": 9107,
      "एजेंट": 9108,
      "घनी": 9109,
      "ढको": 9110,
      "मिर": 9111,
      "मद्द": 9112,
      "रद": 9113,
      "लड": 9114,
      "वज़न": 9115,
      "सन्त": 9116,
      "ॉक": 9117,
      "ज़माना": 9118,
      "कामे": 9119,
      "परती": 9120,
      "्हम": 9121,
      "जोकर": 9122,
      "अपठित": 9123,
      "जिस्म": 9124,
      "मैडम": 9125,
      "सीपी": 9126,
      "सीआर": 9127,
      "संकट": 9128,
      "फ़सल": 9129,
      "सिखाते": 9130,
      "सिटरी": 9131,
      "चुनौ": 9132,
      "हिमा": 9133,
      "अनुपात": 9134,
      "मोटी": 9135,
      "टेशन": 9136,
      "पिलाते": 9137,
      "मूसलाधार": 9138,
      "अवतार": 9139,
      "कैम्प": 9140,
      "डेक": 9141,
      "लॉन्": 9142,
      "कतार": 9143,
      "सहयोग": 9144,
      "क्षेत्रों": 9145,
      "निकटता": 9146,
      "ढूंढने": 9147,
      "एनक्रिप्शन": 9148,
      "जिन्स": 9149,
      "पतियों": 9150,
      "एचआईवी": 9151,
      "प्याले": 9152,
      "प्राणों": 9153,
      "दौड़ते": 9154,
      "ign": 9155,
      "गांव": 9156,
      "राइट": 9157,
      "पट्टे": 9158,
      "उखाड़": 9159,
      "चार्ल्स": 9160,
      "रेशमी": 9161,
      "क्लार्क": 9162,
      "मामूली": 9163,
      "change": 9164,
      "मदीना": 9165,
      "सामीप्य": 9166,
      "मस्तिष्क": 9167,
      "75": 9168,
      "Tr": 9169,
      "XML": 9170,
      "ama": 9171,
      "आरा": 9172,
      "खड़": 9173,
      "गना": 9174,
      "नफ़ा": 9175,
      "नहस": 9176,
      "लज्": 9177,
      "्क़": 9178,
      "लाओगे": 9179,
      "नाती": 9180,
      "अपनों": 9181,
      "बाख़बर": 9182,
      "बादुल": 9183,
      "माला": 9184,
      "पाक़ी": 9185,
      "मुकर": 9186,
      "मुमानि": 9187,
      "विला": 9188,
      "संदिग्": 9189,
      "फिरों": 9190,
      "करेंName": 9191,
      "बेर": 9192,
      "बेख़ौफ": 9193,
      "दीवाने": 9194,
      "मुझमें": 9195,
      "बुढा": 9196,
      "दुक्का": 9197,
      "टेयर": 9198,
      "कमर": 9199,
      "पर्दे": 9200,
      "ख़ास्त": 9201,
      "डेट": 9202,
      "युं": 9203,
      "इंजील": 9204,
      "मह्र": 9205,
      "फैलाते": 9206,
      "पढ़ना": 9207,
      "वाक़िये": 9208,
      "मंज़ि": 9209,
      "बोझल": 9210,
      "पलटेंगे": 9211,
      "गुज़रते": 9212,
      "बचपन": 9213,
      "अंगू": 9214,
      "ters": 9215,
      "धुत्": 9216,
      "मक्कारियाँ": 9217,
      "ठहरना": 9218,
      "फ़ायदे": 9219,
      "भटकते": 9220,
      "उपास्यों": 9221,
      "फ़िक्र": 9222,
      "अर्थदंड": 9223,
      "गुज़ारी": 9224,
      "किस्सा": 9225,
      "तुल्यकालन": 9226,
      "सब्ज़": 9227,
      "अंतरि": 9228,
      "ava": 9229,
      "दर्शाई": 9230,
      "फ़ितने": 9231,
      "ख़ानाए": 9232,
      "ताज़ीम": 9233,
      "सरगोशी": 9234,
      "मुन्तिज़र": 9235,
      "कुसूरवार": 9236,
      "मुत्तलिक़": 9237,
      "मुक़द्दस": 9238,
      "बूँद": 9239,
      "मदियन": 9240,
      "अथवा": 9241,
      "आसाइश": 9242,
      "@}": 9243,
      "El": 9244,
      "SO": 9245,
      "Show": 9246,
      "अज़िज़": 9247,
      "आरास्ता": 9248,
      "इद्दा": 9249,
      "कले": 9250,
      "ठन्डी": 9251,
      "बफर": 9252,
      "मले": 9253,
      "मरी": 9254,
      "लूँ": 9255,
      "ृप्ति": 9256,
      "यानी": 9257,
      "हाज़": 9258,
      "देनी": 9259,
      "जोड़": 9260,
      "बाने": 9261,
      "न्व": 9262,
      "मानता": 9263,
      "बेपरवाह": 9264,
      "हरग़ि": 9265,
      "सकने": 9266,
      "इनलाइन": 9267,
      "भाले": 9268,
      "तकल्लु": 9269,
      "ंगों": 9270,
      "बदन": 9271,
      "म्बे": 9272,
      "बिस्तरी": 9273,
      "मोल": 9274,
      "डिजि": 9275,
      "परिस्थिति": 9276,
      "किताबवालो": 9277,
      "तरफलक": 9278,
      "कैप्": 9279,
      "गेंद": 9280,
      "चारपायों": 9281,
      "लौन्डी": 9282,
      "कॉम": 9283,
      "हायपर": 9284,
      "बेहयाई": 9285,
      "खिज्र": 9286,
      "वैज्ञान": 9287,
      "फरमाबरदारी": 9288,
      "फेरने": 9289,
      "निकालना": 9290,
      "हलाकत": 9291,
      "लड़ो": 9292,
      "मुनाफ़िक": 9293,
      "तारि": 9294,
      "मज़बूती": 9295,
      "सनद": 9296,
      "urph": 9297,
      "फ़रमाता": 9298,
      "पड़ें": 9299,
      "डोमि": 9300,
      "सिंगार": 9301,
      "मस्जिदों": 9302,
      "सूरतें": 9303,
      "उम्मतों": 9304,
      "मिटटी": 9305,
      "अन्दाज़े": 9306,
      "मसखरा": 9307,
      "मरतबे": 9308,
      "मुख़ातिब": 9309,
      "मुन्तख़िब": 9310,
      "अँधेरे": 9311,
      "परदेसियों": 9312,
      "ट्रिगर": 9313,
      "चखना": 9314,
      "तक़दी": 9315,
      "खटके": 9316,
      "कुनबे": 9317,
      "ऑब्जेक्ट": 9318,
      "प्रतिनिधित्व": 9319,
      "मर्यादाहीन": 9320,
      "वक्ते": 9321,
      "libgnome": 9322,
      "इंडियाना": 9323,
      "ived": 9324,
      "गूँगे": 9325,
      "यौन": 9326,
      "ज़ुलेख़ा": 9327,
      "रविवार": 9328,
      "साहिबे": 9329,
      "चुनौती": 9330,
      "वैज्ञानिक": 9331,
      "Id": 9332,
      "Sar": 9333,
      "UID": 9334,
      "Wh": 9335,
      "line": 9336,
      "ui": 9337,
      "{@}": 9338,
      "ंत्र": 9339,
      "अस्वीकार": 9340,
      "असुरक्षित": 9341,
      "इब्": 9342,
      "एख़": 9343,
      "ओट": 9344,
      "कफ्": 9345,
      "खतरा": 9346,
      "ड्रि": 9347,
      "तवा": 9348,
      "तवक्": 9349,
      "क़ब्र": 9350,
      "ख़त": 9351,
      "याजूज": 9352,
      "ताग़": 9353,
      "लामी": 9354,
      "उनवाने": 9355,
      "वाक़या": 9356,
      "लियत": 9357,
      "लिस्ट": 9358,
      "जाऎ": 9359,
      "साने": 9360,
      "सायं": 9361,
      "माजूज": 9362,
      "पाव": 9363,
      "विंस": 9364,
      "तिल": 9365,
      "चीख़": 9366,
      "रखों": 9367,
      "ईमानवालो": 9368,
      "...)": 9369,
      "चुं": 9370,
      "द्दो": 9371,
      "क्रूर": 9372,
      "सरज़मीन": 9373,
      "मोड़े": 9374,
      "अब्र": 9375,
      "खोजना": 9376,
      "दर्जा": 9377,
      "जूम": 9378,
      "चिका": 9379,
      "कर्त्ता": 9380,
      "बंदर": 9381,
      "तौलो": 9382,
      "तौक़": 9383,
      "कॉर्": 9384,
      "सुनाए": 9385,
      "पारिश": 9386,
      "olution": 9387,
      "तत्वों": 9388,
      "तरीक़ा": 9389,
      "नरसिं": 9390,
      "अल्हम": 9391,
      "पहुँचेगी": 9392,
      "मुक़ाबला": 9393,
      "लाभप्रद": 9394,
      "दिखता": 9395,
      "राजकुमारी": 9396,
      "ज़ोरों": 9397,
      "कृपाशील": 9398,
      "ख़ील": 9399,
      "अकड़": 9400,
      "मर्ज़ी": 9401,
      "umn": 9402,
      "शादाब": 9403,
      "कारस्तानियाँ": 9404,
      "निश्चिन्तता": 9405,
      "कामनाओं": 9406,
      "झुकाए": 9407,
      "मख़लूकात": 9408,
      "सूझता": 9409,
      "हॅसी": 9410,
      "मुनाफ़िक़ों": 9411,
      "सुहाना": 9412,
      "ख्वाहमख्वाह": 9413,
      "वाकिफकार": 9414,
      "एक्सटेंशन": 9415,
      "समुद्री": 9416,
      "धर्मपरायणता": 9417,
      "लिफाफा": 9418,
      "ताग़ूत": 9419,
      "नरसिंघा": 9420,
      "_g": 9421,
      "cal": 9422,
      "fil": 9423,
      "hun": 9424,
      "अकृतज्ञता": 9425,
      "आबरू": 9426,
      "चव्वा": 9427,
      "लज्ज़त": 9428,
      "ग़मग़": 9429,
      "फ़ोल्डर": 9430,
      "यायद": 9431,
      "कोहे": 9432,
      "कीं": 9433,
      "लागत": 9434,
      "लेडी": 9435,
      "पाइप": 9436,
      "मैनें": 9437,
      "रेगुलर": 9438,
      "बुज़ु": 9439,
      "रिसोर्स": 9440,
      "बीबियों": 9441,
      "छोर": 9442,
      "मोड़ा": 9443,
      "ब्लू": 9444,
      "दूसरो": 9445,
      "लाएंगें": 9446,
      "निर्माता": 9447,
      "lar": 9448,
      "प्रतियोग": 9449,
      "दृष्टा": 9450,
      "ग़फ़लत": 9451,
      "बचाए": 9452,
      "कृपणता": 9453,
      "region": 9454,
      "डराते": 9455,
      "मेलबाक्स": 9456,
      "आकारः": 9457,
      "शुक्रगुज़ार": 9458,
      "अहल": 9459,
      "गुणग्राहक": 9460,
      "ments": 9461,
      "जन्नती": 9462,
      "लौटाया": 9463,
      "झाँक": 9464,
      "raine": 9465,
      "सैम": 9466,
      "make": 9467,
      "क़िस्मः": 9468,
      "प्रशंसित": 9469,
      "मग़रि": 9470,
      "यॉर्क": 9471,
      "हलके": 9472,
      "शिक्षाप्रद": 9473,
      "झगड़ो": 9474,
      "गर्दनें": 9475,
      "मसलहत": 9476,
      "उलटें": 9477,
      "दृढ़तापूर्वक": 9478,
      "ब्राउज़": 9479,
      "कलाकार": 9480,
      "रेखांकित": 9481,
      "कारात्मक": 9482,
      "plain": 9483,
      "कारगुज़ारियाँ": 9484,
      "कार्ट्रि": 9485,
      "अग्रसारित": 9486,
      "रूकूउ": 9487,
      "हाकिम": 9488,
      "xA4": 9489,
      "ग्लोबल": 9490,
      "शहवत": 9491,
      "header": 9492,
      "इमरान": 9493,
      "Saru": 9494,
      "सायंकाल": 9495,
      "ग़मग़ीन": 9496,
      "TY": 9497,
      "ever": 9498,
      "nor": 9499,
      "अमर": 9500,
      "कमिंग": 9501,
      "घिर": 9502,
      "फं": 9503,
      "बकरी": 9504,
      "मवे": 9505,
      "मन्न": 9506,
      "यर्स": 9507,
      "वक्ता": 9508,
      "िंग": 9509,
      "कोइ": 9510,
      "लादेश": 9511,
      "वाक्य": 9512,
      "साबि": 9513,
      "राई": 9514,
      "माश": 9515,
      "हुद": 9516,
      "संपूर्ण": 9517,
      "रेल": 9518,
      "दोहरे": 9519,
      "ज़मीन": 9520,
      "श्वर": 9521,
      "सिफर": 9522,
      "इनबाक्स": 9523,
      "बदमाश": 9524,
      "यूआई": 9525,
      "मूर": 9526,
      "ग्रु": 9527,
      "खुदाई": 9528,
      "निर्भर": 9529,
      "हुक्मे": 9530,
      "प्रतिस्थापित": 9531,
      "इंसान": 9532,
      "विषयवस्तु": 9533,
      "छापा": 9534,
      "पूर्णता": 9535,
      "फोकस": 9536,
      "पड़ती": 9537,
      "समूही": 9538,
      "पंक्तियों": 9539,
      "china": 9540,
      "श्रीमान": 9541,
      "बहादु": 9542,
      "न्यायपूर्वक": 9543,
      "php": 9544,
      "घबराओ": 9545,
      "प्रोटोकाल": 9546,
      "zilla": 9547,
      "जुर्माना": 9548,
      "दुबली": 9549,
      "देवियों": 9550,
      "विंसेंट": 9551,
      "31": 9552,
      "400": 9553,
      "51": 9554,
      "QShort": 9555,
      "Su": 9556,
      "da": 9557,
      "gary": 9558,
      "way": 9559,
      "ंपरिक": 9560,
      "आदर्श": 9561,
      "खड़": 9562,
      "गली": 9563,
      "जर्म": 9564,
      "तट": 9565,
      "वतों": 9566,
      "सराह": 9567,
      "हन": 9568,
      "ूर्ण": 9569,
      "लांच": 9570,
      "विंग": 9571,
      "विराम": 9572,
      "वरों": 9573,
      "देखनेवाला": 9574,
      "पुस्त": 9575,
      "वीज़": 9576,
      "पिन": 9577,
      "सूचीबद्ध": 9578,
      "पर्स": 9579,
      "जुड़े": 9580,
      "समायोजन": 9581,
      "छां": 9582,
      "पृथक": 9583,
      "पारंपरिक": 9584,
      "औलादे": 9585,
      "2005": 9586,
      "सामर्थ्यवान": 9587,
      "सबील": 9588,
      "अंगारा": 9589,
      "examp": 9590,
      "कुफ्फारों": 9591,
      "सॉलि": 9592,
      "सतह": 9593,
      "कश्तियां": 9594,
      "प्राप्तकर्ताओं": 9595,
      "उगाते": 9596,
      "चेकसम": 9597,
      "आइलैंड": 9598,
      "लम्बे": 9599,
      "प्लीज़": 9600,
      "MD5": 9601,
      "अलैकुम": 9602,
      "दृष्टांत": 9603,
      "QShortcut": 9604,
      "Po": 9605,
      "top": 9606,
      "ओक्": 9607,
      "गढ़": 9608,
      "घि": 9609,
      "जलाने": 9610,
      "ड्ड": 9611,
      "थ्रे": 9612,
      "बक्से": 9613,
      "वारी": 9614,
      "कानू": 9615,
      "लाश": 9616,
      "क्ली": 9617,
      "वासिल": 9618,
      "स्कृत": 9619,
      "निन्": 9620,
      "मादी": 9621,
      "मुक": 9622,
      "चाकू": 9623,
      "संपन्न": 9624,
      "मिल्": 9625,
      "श्या": 9626,
      "इनकमिंग": 9627,
      "गुप्ता": 9628,
      "ख़त्म": 9629,
      "टिन": 9630,
      "error": 9631,
      "अंधी": 9632,
      "बारं": 9633,
      "लगाई": 9634,
      "फिक": 9635,
      "खिलाने": 9636,
      "इसीलिए": 9637,
      "सम्पूर्ण": 9638,
      "्रास्ट": 9639,
      "धीमा": 9640,
      "डाकपेटी": 9641,
      "पूर्णा": 9642,
      "सन्दू": 9643,
      "बच्ची": 9644,
      "एलार्म": 9645,
      "शंकु": 9646,
      "मज़ाक": 9647,
      "work": 9648,
      "_Windows": 9649,
      "minut": 9650,
      "तक़सी": 9651,
      "बिटरेट": 9652,
      "provinces": 9653,
      "कंट्रास्ट": 9654,
      "राजनीतिक": 9655,
      "प्रशिक्षण": 9656,
      "कैलेण्डर": 9657,
      "अनुरोध": 9658,
      "130": 9659,
      "File": 9660,
      "Murph": 9661,
      "sw": 9662,
      "उद्य": 9663,
      "कथा": 9664,
      "खारी": 9665,
      "पचा": 9666,
      "फ्रै": 9667,
      "बँ": 9668,
      "सत्": 9669,
      "सैर": 9670,
      "कां": 9671,
      "स्लो": 9672,
      "र्त": 9673,
      "पाइ": 9674,
      "विक्रय": 9675,
      "समतल": 9676,
      "बनायें": 9677,
      "टाउन": 9678,
      "टाइल": 9679,
      "बीले": 9680,
      "उपद्रव": 9681,
      "बूट": 9682,
      "कैन": 9683,
      "बैठकर": 9684,
      "ोरिया": 9685,
      "बनता": 9686,
      "ata": 9687,
      "निकलेंगे": 9688,
      "प्रेज़ी": 9689,
      "शब्दा": 9690,
      "कराने": 9691,
      "शुक्रवार": 9692,
      "आनन्द": 9693,
      "एमडी": 9694,
      "गुणों": 9695,
      "2003": 9696,
      "मॉनी": 9697,
      "बॉस": 9698,
      "भ्रम": 9699,
      "बचें": 9700,
      "फेंको": 9701,
      "फेंका": 9702,
      "ador": 9703,
      "pha": 9704,
      "चिट्ठाकार": 9705,
      "अंग्रेजी": 9706,
      "अपारदर्शिता": 9707,
      "समर्पण": 9708,
      "athy": 9709,
      "प्रतियोगिता": 9710,
      "जर्मनी": 9711,
      "बारंबार": 9712,
      "प्रेज़ीडेंट": 9713,
      "Ar": 9714,
      "able": 9715,
      "cr": 9716,
      "card": 9717,
      "lot": 9718,
      "mi": 9719,
      "my": 9720,
      "wrap": 9721,
      "उज्": 9722,
      "एकी": 9723,
      "एनि": 9724,
      "कस्टम": 9725,
      "चलाएं": 9726,
      "तड़": 9727,
      "रजि": 9728,
      "वारे": 9729,
      "षी": 9730,
      "वाही": 9731,
      "दादी": 9732,
      "जोखि": 9733,
      "हैंड": 9734,
      "बांग्": 9735,
      "वेरिए": 9736,
      "मैसे": 9737,
      "विज्ञान": 9738,
      "विगत": 9739,
      "मिलें": 9740,
      "परिधान": 9741,
      "ink": 9742,
      "लगाव": 9743,
      "डेन": 9744,
      "युवक": 9745,
      "छोड़ना": 9746,
      "उतरे": 9747,
      "स्थानों": 9748,
      "लॉट": 9749,
      "डिस्कने": 9750,
      "कॉन्करर": 9751,
      "उदास": 9752,
      "ख़ुद": 9753,
      "शैतानी": 9754,
      "ogle": 9755,
      "किस्से": 9756,
      "नतीजे": 9757,
      "अंदाज़": 9758,
      "स्ट्रीम": 9759,
      "अहंकार": 9760,
      "europe": 9761,
      "गुंजाइश": 9762,
      "मार्टिन": 9763,
      "पूर्णांक": 9764,
      ";}": 9765,
      "DN": 9766,
      "gen": 9767,
      "इए": 9768,
      "इड": 9769,
      "ईस": 9770,
      "उज़": 9771,
      "ऐन": 9772,
      "खू": 9773,
      "द्रो": 9774,
      "बजाने": 9775,
      "येंगे": 9776,
      "वत्ता": 9777,
      "सटी": 9778,
      "सदिश": 9779,
      "सत्तर": 9780,
      "नेत्र": 9781,
      "कोहरा": 9782,
      "नाश्": 9783,
      "क्लो": 9784,
      "गामी": 9785,
      "बेहोश": 9786,
      "पैक": 9787,
      "गुड": 9788,
      "देखती": 9789,
      "पिंड": 9790,
      "उपदेश": 9791,
      "जेम्स": 9792,
      "निर्गम": 9793,
      "स्टन": 9794,
      "row": 9795,
      "कॉलम": 9796,
      "घाती": 9797,
      "ग़लती": 9798,
      "मिलान": 9799,
      "क्रियाएँ": 9800,
      "पृष्ठों": 9801,
      "गुणवत्ता": 9802,
      "क्रिस": 9803,
      "जाँचने": 9804,
[...]
