{
  "version": "1.0",
  "truncation": null,
  "padding": {
    "strategy": "BatchLongest",
    "direction": "Right",
    "pad_to_multiple_of": null,
    "pad_id": 3,
    "pad_type_id": 0,
    "pad_token": "[PAD]"
  },
  "added_tokens": [
    {
      "id": 0,
      "content": "[UNK]",
      "single_word": false,
      "lstrip": false,
      "rstrip": false,
      "normalized": false,
      "special": true
    },
    {
      "id": 1,
      "content": "[CLS]",
      "single_word": false,
      "lstrip": false,
      "rstrip": false,
      "normalized": false,
      "special": true
    },
    {
      "id": 2,
      "content": "[SEP]",
      "single_word": false,
      "lstrip": false,
      "rstrip": false,
      "normalized": false,
      "special": true
    },
    {
      "id": 3,
      "content": "[PAD]",
      "single_word": false,
      "lstrip": false,
      "rstrip": false,
      "normalized": false,
      "special": true
    },
    {
      "id": 4,
      "content": "[MASK]",
      "single_word": false,
      "lstrip": false,
      "rstrip": false,
      "normalized": false,
      "special": true
    }
  ],
  "normalizer": null,
  "pre_tokenizer": {
    "type": "Sequence",
    "pretokenizers": [
      {
        "type": "Whitespace"
      }
    ]
  },
  "post_processor": {
    "type": "TemplateProcessing",
    "single": [
      {
        "SpecialToken": {
          "id": "[CLS]",
          "type_id": 0
        }
      },
      {
        "Sequence": {
          "id": "A",
          "type_id": 0
        }
      },
      {
        "SpecialToken": {
          "id": "[SEP]",
          "type_id": 0
        }
      }
    ],
    "pair": [
      {
        "SpecialToken": {
          "id": "[CLS]",
          "type_id": 0
        }
      },
      {
        "Sequence": {
          "id": "A",
          "type_id": 0
        }
      },
      {
        "SpecialToken": {
          "id": "[SEP]",
          "type_id": 0
        }
      },
      {
        "Sequence": {
          "id": "B",
          "type_id": 1
        }
      },
      {
        "SpecialToken": {
          "id": "[SEP]",
          "type_id": 1
        }
      }
    ],
    "special_tokens": {
      "[CLS]": {
        "id": "[CLS]",
        "ids": [
          1
        ],
        "tokens": [
          "[CLS]"
        ]
      },
      "[SEP]": {
        "id": "[SEP]",
        "ids": [
          2
        ],
        "tokens": [
          "[SEP]"
        ]
      }
    }
  },
  "decoder": null,
  "model": {
    "type": "BPE",
    "dropout": 0.1,
    "unk_token": "[UNK]",
    "continuing_subword_prefix": null,
    "end_of_word_suffix": null,
    "fuse_unk": false,
    "byte_fallback": false,
    "vocab": {
      "[UNK]": 0,
      "[CLS]": 1,
      "[SEP]": 2,
      "[PAD]": 3,
      "[MASK]": 4,
      "!": 5,
      "\"": 6,
      "#": 7,
      "$": 8,
      "%": 9,
      "&": 10,
      "'": 11,
      "(": 12,
      ")": 13,
      "*": 14,
      "+": 15,
      ",": 16,
      "-": 17,
      ".": 18,
      "/": 19,
      "0": 20,
      "1": 21,
      "2": 22,
      "3": 23,
      "4": 24,
      "5": 25,
      "6": 26,
      "7": 27,
      "8": 28,
      "9": 29,
      ":": 30,
      ";": 31,
      "<": 32,
      "=": 33,
      ">": 34,
      "?": 35,
      "@": 36,
      "A": 37,
      "B": 38,
      "C": 39,
      "D": 40,
      "E": 41,
      "F": 42,
      "G": 43,
      "H": 44,
      "I": 45,
      "J": 46,
      "K": 47,
      "L": 48,
      "M": 49,
      "N": 50,
      "O": 51,
      "P": 52,
      "Q": 53,
      "R": 54,
      "S": 55,
      "T": 56,
      "U": 57,
      "V": 58,
      "W": 59,
      "X": 60,
      "Y": 61,
      "Z": 62,
      "[": 63,
      "\\": 64,
      "]": 65,
      "^": 66,
      "_": 67,
      "`": 68,
      "a": 69,
      "b": 70,
      "c": 71,
      "d": 72,
      "e": 73,
      "f": 74,
      "g": 75,
      "h": 76,
      "i": 77,
      "j": 78,
      "k": 79,
      "l": 80,
      "m": 81,
      "n": 82,
      "o": 83,
      "p": 84,
      "q": 85,
      "r": 86,
      "s": 87,
      "t": 88,
      "u": 89,
      "v": 90,
      "w": 91,
      "x": 92,
      "y": 93,
      "z": 94,
      "{": 95,
      "}": 96,
      "~": 97,
      "": 98,
      "": 99,
      "": 100,
      "": 101,
      "": 102,
      "": 103,
      "": 104,
      "¡": 105,
      "£": 106,
      "¤": 107,
      "¨": 108,
      "©": 109,
      "­": 110,
      "®": 111,
      "°": 112,
      "±": 113,
      "²": 114,
      "³": 115,
      "´": 116,
      "·": 117,
      "º": 118,
      "¼": 119,
      "½": 120,
      "¾": 121,
      "À": 122,
      "Á": 123,
      "Ä": 124,
      "Å": 125,
      "Ç": 126,
      "É": 127,
      "Í": 128,
      "Î": 129,
      "Ð": 130,
      "Õ": 131,
      "Ö": 132,
      "×": 133,
      "Ø": 134,
      "Ú": 135,
      "Ü": 136,
      "ß": 137,
      "à": 138,
      "á": 139,
      "â": 140,
      "ã": 141,
      "ä": 142,
      "å": 143,
      "æ": 144,
      "ç": 145,
      "è": 146,
      "é": 147,
      "ë": 148,
      "ì": 149,
      "í": 150,
      "î": 151,
      "ï": 152,
      "ð": 153,
      "ñ": 154,
      "ò": 155,
      "ó": 156,
      "ô": 157,
      "õ": 158,
      "ö": 159,
      "÷": 160,
      "ø": 161,
      "ú": 162,
      "û": 163,
      "ü": 164,
      "ý": 165,
      "Ā": 166,
      "ā": 167,
      "ă": 168,
      "Č": 169,
      "č": 170,
      "ē": 171,
      "ė": 172,
      "ę": 173,
      "ě": 174,
      "ğ": 175,
      "ī": 176,
      "ĭ": 177,
      "İ": 178,
      "ı": 179,
      "ļ": 180,
      "Ł": 181,
      "ł": 182,
      "ń": 183,
      "ň": 184,
      "Ō": 185,
      "ō": 186,
      "ŏ": 187,
      "ő": 188,
      "œ": 189,
      "Ř": 190,
      "Ś": 191,
      "Ş": 192,
      "ş": 193,
      "Š": 194,
      "š": 195,
      "ţ": 196,
      "ū": 197,
      "ŭ": 198,
      "ź": 199,
      "ż": 200,
      "Ž": 201,
      "ž": 202,
      "ơ": 203,
      "ư": 204,
      "˚": 205,
      "α": 206,
      "β": 207,
      "θ": 208,
      "λ": 209,
      "μ": 210,
      "ν": 211,
      "π": 212,
      "φ": 213,
      "ω": 214,
      "А": 215,
      "Ч": 216,
      "а": 217,
      "в": 218,
      "д": 219,
      "е": 220,
      "й": 221,
      "н": 222,
      "о": 223,
      "п": 224,
      "р": 225,
      "ئ": 226,
      "ا": 227,
      "ب": 228,
      "ت": 229,
      "ج": 230,
      "ح": 231,
      "د": 232,
      "ر": 233,
      "س": 234,
      "ش": 235,
      "ص": 236,
      "ط": 237,
      "ع": 238,
      "غ": 239,
      "ف": 240,
      "ق": 241,
      "ك": 242,
      "ل": 243,
      "م": 244,
      "ن": 245,
      "ه": 246,
      "و": 247,
      "ي": 248,
      "ং": 249,
      "দ": 250,
      "ন": 251,
      "ব": 252,
      "ম": 253,
      "র": 254,
      "শ": 255,
      "স": 256,
      "া": 257,
      "ি": 258,
      "ো": 259,
      "ආ": 260,
      "ජ": 261,
      "බ": 262,
      "ය": 263,
      "ව": 264,
      "ා": 265,
      "ු": 266,
      "ේ": 267,
      "ෝ": 268,
      "ạ": 269,
      "ầ": 270,
      "ễ": 271,
      "ệ": 272,
      "ị": 273,
      "ọ": 274,
      "ộ": 275,
      "ỳ": 276,
      "​": 277,
      "–": 278,
      "—": 279,
      "‘": 280,
      "’": 281,
      "“": 282,
      "”": 283,
      "‟": 284,
      "•": 285,
      "…": 286,
      "′": 287,
      "⁴": 288,
      "⁵": 289,
      "⁶": 290,
      "€": 291,
      "™": 292,
      "⅓": 293,
      "⅔": 294,
      "⅕": 295,
      "⅖": 296,
      "⅗": 297,
      "⅘": 298,
      "⅙": 299,
      "→": 300,
      "∕": 301,
      "√": 302,
      "∣": 303,
      "≠": 304,
      "≤": 305,
      "≥": 306,
      "⌈": 307,
      "⌉": 308,
      "⌊": 309,
      "⌋": 310,
      "♪": 311,
      "♫": 312,
      "か": 313,
      "さ": 314,
      "な": 315,
      "に": 316,
      "の": 317,
      "ん": 318,
      "サ": 319,
      "ス": 320,
      "ッ": 321,
      "ト": 322,
      "プ": 323,
      "ラ": 324,
      "ル": 325,
      "ン": 326,
      "一": 327,
      "人": 328,
      "和": 329,
      "品": 330,
      "字": 331,
      "宇": 332,
      "材": 333,
      "束": 334,
      "治": 335,
      "漢": 336,
      "秒": 337,
      "逸": 338,
      "食": 339,
      "ﬁ": 340,
      "ﬂ": 341,
      "﻿": 342,
      "�": 343,
      "th": 344,
      "the": 345,
      "in": 346,
      "an": 347,
      "re": 348,
      "ou": 349,
      "er": 350,
      "is": 351,
      "on": 352,
      "en": 353,
      "ll": 354,
      "or": 355,
      "at": 356,
      "and": 357,
      "ed": 358,
      "to": 359,
      "es": 360,
      "you": 361,
      "of": 362,
      "wh": 363,
      "ar": 364,
      "ing": 365,
      "be": 366,
      "se": 367,
      "ha": 368,
      "it": 369,
      "ve": 370,
      "he": 371,
      "no": 372,
      "om": 373,
      "le": 374,
      "wi": 375,
      "st": 376,
      "ay": 377,
      "li": 378,
      "for": 379,
      "de": 380,
      "as": 381,
      "not": 382,
      "ver": 383,
      "they": 384,
      "ion": 385,
      "them": 386,
      "ch": 387,
      "ent": 388,
      "nd": 389,
      "All": 390,
      "that": 391,
      "im": 392,
      "al": 393,
      "ah": 394,
      "ce": 395,
      "ow": 396,
      "id": 397,
      "will": 398,
      "ly": 399,
      "ir": 400,
      "who": 401,
      "are": 402,
      "ld": 403,
      "od": 404,
      "Allah": 405,
      "gh": 406,
      "ct": 407,
      "ut": 408,
      "ur": 409,
      "me": 410,
      "He": 411,
      "we": 412,
      "We": 413,
      "And": 414,
      "fr": 415,
      "ad": 416,
      "un": 417,
      "have": 418,
      "with": 419,
      "all": 420,
      "ge": 421,
      "ess": 422,
      "ght": 423,
      "ro": 424,
      "The": 425,
      "ri": 426,
      "do": 427,
      "ose": 428,
      "your": 429,
      "ord": 430,
      "pe": 431,
      "from": 432,
      "their": 433,
      "ever": 434,
      "if": 435,
      "us": 436,
      "il": 437,
      "Th": 438,
      "com": 439,
      "ab": 440,
      "ter": 441,
      "ke": 442,
      "ther": 443,
      "ain": 444,
      "sa": 445,
      "am": 446,
      "op": 447,
      "beli": 448,
      "su": 449,
      "fo": 450,
      "ac": 451,
      "those": 452,
      "one": 453,
      "now": 454,
      "ic": 455,
      "God": 456,
      "ear": 457,
      "so": 458,
      "ation": 459,
      "Lord": 460,
      "ma": 461,
      "ould": 462,
      "what": 463,
      "tr": 464,
      "ul": 465,
      "ex": 466,
      "him": 467,
      "go": 468,
      "Wh": 469,
      "lo": 470,
      "ers": 471,
      "..": 472,
      "sh": 473,
      "sha": 474,
      "ment": 475,
      "up": 476,
      "ven": 477,
      "ate": 478,
      "mo": 479,
      "this": 480,
      "est": 481,
      "ard": 482,
      "con": 483,
      "out": 484,
      "but": 485,
      "there": 486,
      "whi": 487,
      "ong": 488,
      "our": 489,
      "ind": 490,
      "know": 491,
      "fa": 492,
      "when": 493,
      "has": 494,
      "ne": 495,
      "ca": 496,
      "res": 497,
      "dis": 498,
      "gi": 499,
      "ag": 500,
      "shall": 501,
      "ts": 502,
      "said": 503,
      "end": 504,
      "belie": 505,
      "fe": 506,
      "pro": 507,
      "ra": 508,
      "po": 509,
      "ig": 510,
      "ople": 511,
      "ta": 512,
      "ight": 513,
      "his": 514,
      "et": 515,
      "pt": 516,
      "which": 517,
      "deed": 518,
      "man": 519,
      "by": 520,
      "pl": 521,
      "thing": 522,
      "You": 523,
      "people": 524,
      "say": 525,
      "wor": 526,
      "then": 527,
      "was": 528,
      "own": 529,
      "cre": 530,
      "te": 531,
      "ok": 532,
      "my": 533,
      "fore": 534,
      "ust": 535,
      "gu": 536,
      "ish": 537,
      "ves": 538,
      "ome": 539,
      "urn": 540,
      "way": 541,
      "ant": 542,
      "age": 543,
      "In": 544,
      "were": 545,
      "pr": 546,
      "af": 547,
      "fi": 548,
      "They": 549,
      "red": 550,
      "ous": 551,
      "can": 552,
      "any": 553,
      "His": 554,
      "ise": 555,
      "other": 556,
      "ol": 557,
      "qu": 558,
      "nt": 559,
      "art": 560,
      "ast": 561,
      "ck": 562,
      "ure": 563,
      "come": 564,
      ".\"": 565,
      "believe": 566,
      "turn": 567,
      "per": 568,
      "vi": 569,
      "ack": 570,
      "sel": 571,
      "ful": 572,
      "ave": 573,
      "No": 574,
      "br": 575,
      "...": 576,
      "Him": 577,
      "use": 578,
      "ign": 579,
      "right": 580,
      "ye": 581,
      "see": 582,
      "had": 583,
      "day": 584,
      "tru": 585,
      "ist": 586,
      "ity": 587,
      "gr": 588,
      "So": 589,
      "earth": 590,
      "been": 591,
      "It": 592,
      "would": 593,
      "able": 594,
      "Mo": 595,
      "But": 596,
      "ip": 597,
      "um": 598,
      "ill": 599,
      "may": 600,
      "ance": 601,
      "good": 602,
      "evers": 603,
      "ort": 604,
      "ho": 605,
      "ev": 606,
      "before": 607,
      "ated": 608,
      "ap": 609,
      "after": 610,
      "upon": 611,
      "Re": 612,
      "only": 613,
      "ction": 614,
      "bo": 615,
      "over": 616,
      "ser": 617,
      "down": 618,
      "ving": 619,
      "ame": 620,
      "believers": 621,
      "di": 622,
      "some": 623,
      "ide": 624,
      "ans": 625,
      "thou": 626,
      "eng": 627,
      "mess": 628,
      "ath": 629,
      "This": 630,
      "ved": 631,
      "sure": 632,
      "ound": 633,
      "ass": 634,
      "did": 635,
      "cept": 636,
      "like": 637,
      "Do": 638,
      "den": 639,
      "its": 640,
      "sent": 641,
      "ward": 642,
      "bl": 643,
      "ily": 644,
      "wr": 645,
      "whom": 646,
      "Our": 647,
      "made": 648,
      "how": 649,
      "ace": 650,
      "ple": 651,
      "Day": 652,
      "again": 653,
      "ted": 654,
      "ask": 655,
      "pre": 656,
      "cl": 657,
      "),": 658,
      "If": 659,
      "give": 660,
      "tain": 661,
      "ive": 662,
      "than": 663,
      "among": 664,
      "ies": 665,
      "hea": 666,
      "What": 667,
      "ress": 668,
      "erc": 669,
      "Then": 670,
      "bet": 671,
      "comm": 672,
      "Mess": 673,
      "ach": 674,
      "ine": 675,
      "ount": 676,
      "llow": 677,
      "ime": 678,
      "ect": 679,
      "hear": 680,
      "about": 681,
      "whe": 682,
      "ings": 683,
      "cause": 684,
      "sign": 685,
      "ness": 686,
      "cer": 687,
      "indeed": 688,
      "unto": 689,
      "back": 690,
      "ase": 691,
      "just": 692,
      "should": 693,
      "des": 694,
      "au": 695,
      "nor": 696,
      "ink": 697,
      "ble": 698,
      ").": 699,
      "call": 700,
      "port": 701,
      "ew": 702,
      "ak": 703,
      "men": 704,
      "heaven": 705,
      "ook": 706,
      "Say": 707,
      "ship": 708,
      "ite": 709,
      "reat": 710,
      "lect": 711,
      "ject": 712,
      "ham": 713,
      "fear": 714,
      "here": 715,
      "ren": 716,
      "selves": 717,
      "ber": 718,
      "given": 719,
      "pun": 720,
      "her": 721,
      "truth": 722,
      "every": 723,
      "Who": 724,
      "led": 725,
      "make": 726,
      "surely": 727,
      "away": 728,
      "ith": 729,
      "punish": 730,
      "form": 731,
      "und": 732,
      "get": 733,
      "Pro": 734,
      "co": 735,
      "el": 736,
      "sp": 737,
      "For": 738,
      "str": 739,
      "follow": 740,
      "ange": 741,
      "wo": 742,
      "ire": 743,
      "My": 744,
      "time": 745,
      "ud": 746,
      "reve": 747,
      "ry": 748,
      "new": 749,
      "against": 750,
      "em": 751,
      "ty": 752,
      "That": 753,
      "into": 754,
      "Un": 755,
      "ep": 756,
      "ses": 757,
      "spe": 758,
      "guid": 759,
      "cle": 760,
      "pen": 761,
      "When": 762,
      "does": 763,
      "ue": 764,
      "iz": 765,
      "There": 766,
      "life": 767,
      "where": 768,
      "Book": 769,
      "ations": 770,
      "except": 771,
      "cur": 772,
      "evil": 773,
      "ning": 774,
      "ree": 775,
      "cri": 776,
      "came": 777,
      "read": 778,
      "fu": 779,
      "Se": 780,
      "ob": 781,
      "Messeng": 782,
      "want": 783,
      "Is": 784,
      "wrong": 785,
      "used": 786,
      "take": 787,
      "ory": 788,
      "As": 789,
      "aw": 790,
      "heavens": 791,
      "act": 792,
      "set": 793,
      "ls": 794,
      "war": 795,
      "hel": 796,
      "Lo": 797,
      "file": 798,
      ".”": 799,
      "part": 800,
      "sin": 801,
      "ext": 802,
      "punishment": 803,
      "mis": 804,
      "let": 805,
      "Indeed": 806,
      "things": 807,
      "put": 808,
      "De": 809,
      "most": 810,
      "ild": 811,
      "well": 812,
      "ail": 813,
      "ence": 814,
      "ror": 815,
      "int": 816,
      "ci": 817,
      "Ad": 818,
      "lder": 819,
      "mem": 820,
      "har": 821,
      "kind": 822,
      "created": 823,
      "ally": 824,
      "tri": 825,
      "world": 826,
      "pass": 827,
      "off": 828,
      "acc": 829,
      "To": 830,
      "ages": 831,
      "two": 832,
      "king": 833,
      "ef": 834,
      "Con": 835,
      "long": 836,
      "pos": 837,
      "worship": 838,
      "ions": 839,
      "under": 840,
      "Be": 841,
      "word": 842,
      "could": 843,
      "more": 844,
      "stand": 845,
      "wom": 846,
      "ary": 847,
      "av": 848,
      "return": 849,
      "fir": 850,
      "self": 851,
      "while": 852,
      "less": 853,
      "faith": 854,
      "ang": 855,
      "great": 856,
      "phe": 857,
      "hand": 858,
      "help": 859,
      "command": 860,
      "list": 861,
      "mat": 862,
      "hearts": 863,
      "signs": 864,
      "ween": 865,
      "deeds": 866,
      "might": 867,
      "merc": 868,
      "Ex": 869,
      "ks": 870,
      "between": 871,
      "thee": 872,
      "Those": 873,
      "certain": 874,
      "even": 875,
      "clear": 876,
      "ali": 877,
      "hamm": 878,
      "message": 879,
      "name": 880,
      "rep": 881,
      "bes": 882,
      "ants": 883,
      "because": 884,
      "ought": 885,
      "never": 886,
      "find": 887,
      "add": 888,
      "Ch": 889,
      "she": 890,
      "Ver": 891,
      "ens": 892,
      "iful": 893,
      "themselves": 894,
      "land": 895,
      "thy": 896,
      "Tr": 897,
      "prom": 898,
      "Messenger": 899,
      "ient": 900,
      "Mu": 901,
      "wat": 902,
      "ug": 903,
      "tle": 904,
      "En": 905,
      "ower": 906,
      "ied": 907,
      "bring": 908,
      "send": 909,
      "son": 910,
      "vers": 911,
      "ledge": 912,
      "Al": 913,
      "pray": 914,
      "ot": 915,
      "reward": 916,
      "cr": 917,
      "ult": 918,
      "place": 919,
      "fl": 920,
      "cess": 921,
      "rent": 922,
      "hast": 923,
      "wit": 924,
      "--": 925,
      "ph": 926,
      "On": 927,
      "don": 928,
      "rem": 929,
      "cal": 930,
      "light": 931,
      "got": 932,
      "St": 933,
      "ised": 934,
      "another": 935,
      "knowledge": 936,
      "these": 937,
      "fil": 938,
      "reveal": 939,
      "ough": 940,
      "ors": 941,
      "ft": 942,
      "Moses": 943,
      "night": 944,
      "play": 945,
      "hammad": 946,
      "think": 947,
      "rec": 948,
      "Muhammad": 949,
      "mar": 950,
      "jo": 951,
      "unt": 952,
      "Go": 953,
      "knows": 954,
      "ms": 955,
      "How": 956,
      "father": 957,
      "thr": 958,
      "ile": 959,
      "dr": 960,
      "sub": 961,
      "hap": 962,
      "lic": 963,
      "hath": 964,
      "mon": 965,
      "sup": 966,
      "ste": 967,
      "ition": 968,
      "IN": 969,
      "member": 970,
      "eous": 971,
      "ific": 972,
      "ious": 973,
      "full": 974,
      "bey": 975,
      "show": 976,
      "vis": 977,
      "Sure": 978,
      "ify": 979,
      "Can": 980,
      "Show": 981,
      "ither": 982,
      "ken": 983,
      "ub": 984,
      "mercy": 985,
      "hold": 986,
      "god": 987,
      "select": 988,
      "soever": 989,
      "believed": 990,
      "folder": 991,
      "move": 992,
      "Verily": 993,
      "igh": 994,
      "Com": 995,
      "Prophe": 996,
      "bro": 997,
      "certainly": 998,
      "?\"": 999,
      "ones": 1000,
      "sou": 1001,
      "forth": 1002,
      "Me": 1003,
      "Surely": 1004,
      "verily": 1005,
      "look": 1006,
      "dest": 1007,
      "better": 1008,
      "ting": 1009,
      "00": 1010,
      "rect": 1011,
      "mail": 1012,
      "open": 1013,
      "inv": 1014,
      "ond": 1015,
      "such": 1016,
      "uch": 1017,
      "ice": 1018,
      "very": 1019,
      "women": 1020,
      "righteous": 1021,
      "need": 1022,
      "until": 1023,
      "cont": 1024,
      "therein": 1025,
      "giving": 1026,
      "ff": 1027,
      "ian": 1028,
      "ia": 1029,
      "Res": 1030,
      "wind": 1031,
      "Merc": 1032,
      "warn": 1033,
      "Add": 1034,
      "gard": 1035,
      "tor": 1036,
      "tow": 1037,
      "post": 1038,
      "Your": 1039,
      "revealed": 1040,
      "ray": 1041,
      "ait": 1042,
      "others": 1043,
      "gl": 1044,
      "Qur": 1045,
      "witness": 1046,
      "work": 1047,
      "pat": 1048,
      "path": 1049,
      "found": 1050,
      "gave": 1051,
      "An": 1052,
      "many": 1053,
      "brought": 1054,
      "Here": 1055,
      "bar": 1056,
      "mit": 1057,
      "Most": 1058,
      "save": 1059,
      "par": 1060,
      "enter": 1061,
      "ces": 1062,
      "error": 1063,
      "miss": 1064,
      "oun": 1065,
      "ready": 1066,
      "inter": 1067,
      "top": 1068,
      "gra": 1069,
      "les": 1070,
      "Prophet": 1071,
      "guidance": 1072,
      "each": 1073,
      "pres": 1074,
      "ildren": 1075,
      "ica": 1076,
      "bre": 1077,
      "lease": 1078,
      "leave": 1079,
      "ins": 1080,
      "nothing": 1081,
      "Us": 1082,
      "tell": 1083,
      "Am": 1084,
      "lig": 1085,
      "min": 1086,
      "going": 1087,
      "ates": 1088,
      "power": 1089,
      "Know": 1090,
      "ey": 1091,
      "ides": 1092,
      "tact": 1093,
      "appo": 1094,
      "best": 1095,
      "Fire": 1096,
      "water": 1097,
      "obey": 1098,
      "deny": 1099,
      "comp": 1100,
      "Ab": 1101,
      "true": 1102,
      "angels": 1103,
      "Could": 1104,
      "na": 1105,
      "Or": 1106,
      "fav": 1107,
      "cript": 1108,
      "without": 1109,
      "kill": 1110,
      "ize": 1111,
      "keep": 1112,
      "val": 1113,
      "aught": 1114,
      "Please": 1115,
      "):": 1116,
      "sl": 1117,
      "oh": 1118,
      ".'": 1119,
      "Are": 1120,
      "torment": 1121,
      "rection": 1122,
      "cannot": 1123,
      "Select": 1124,
      "abo": 1125,
      "disbelieve": 1126,
      "selected": 1127,
      "sc": 1128,
      "ten": 1129,
      "ents": 1130,
      "too": 1131,
      "Fo": 1132,
      "though": 1133,
      "doers": 1134,
      "load": 1135,
      "lit": 1136,
      "being": 1137,
      "Pe": 1138,
      "belong": 1139,
      "brother": 1140,
      "aid": 1141,
      "understand": 1142,
      "seen": 1143,
      "ese": 1144,
      "Merciful": 1145,
      "ener": 1146,
      "remember": 1147,
      "try": 1148,
      "toward": 1149,
      "messeng": 1150,
      "Hell": 1151,
      "mankind": 1152,
      "ears": 1153,
      "pare": 1154,
      "fall": 1155,
      "fire": 1156,
      "col": 1157,
      "dif": 1158,
      "Ev": 1159,
      "disbelievers": 1160,
      "none": 1161,
      "quest": 1162,
      "wish": 1163,
      "hu": 1164,
      "whatever": 1165,
      "trans": 1166,
      "rest": 1167,
      "astray": 1168,
      "'%": 1169,
      "messages": 1170,
      "Dis": 1171,
      "death": 1172,
      "inform": 1173,
      "line": 1174,
      "car": 1175,
      "roy": 1176,
      "love": 1177,
      "dou": 1178,
      "head": 1179,
      "ie": 1180,
      "also": 1181,
      "Have": 1182,
      "arch": 1183,
      "ution": 1184,
      "view": 1185,
      "whose": 1186,
      "jud": 1187,
      "become": 1188,
      "revel": 1189,
      "ited": 1190,
      "heck": 1191,
      "num": 1192,
      "],": 1193,
      "cho": 1194,
      "cor": 1195,
      "image": 1196,
      "through": 1197,
      "ons": 1198,
      "pleas": 1199,
      "los": 1200,
      "kes": 1201,
      "tal": 1202,
      "saying": 1203,
      "old": 1204,
      "last": 1205,
      "destroy": 1206,
      "rece": 1207,
      "sk": 1208,
      "must": 1209,
      "ments": 1210,
      "speak": 1211,
      "New": 1212,
      "unbelievers": 1213,
      "ake": 1214,
      "oup": 1215,
      "ters": 1216,
      "live": 1217,
      "first": 1218,
      "ick": 1219,
      "ars": 1220,
      "dom": 1221,
      "ouse": 1222,
      "files": 1223,
      "ced": 1224,
      "Why": 1225,
      "turned": 1226,
      "ING": 1227,
      "yet": 1228,
      "ating": 1229,
      "pers": 1230,
      "order": 1231,
      "chast": 1232,
      "serv": 1233,
      "\"%": 1234,
      "doing": 1235,
      "Mus": 1236,
      "whoever": 1237,
      "test": 1238,
      "resp": 1239,
      "left": 1240,
      "dev": 1241,
      "char": 1242,
      "ible": 1243,
      "urrection": 1244,
      "raise": 1245,
      "fri": 1246,
      "pect": 1247,
      "already": 1248,
      "row": 1249,
      "account": 1250,
      "pri": 1251,
      "soci": 1252,
      "done": 1253,
      "idden": 1254,
      "window": 1255,
      "cu": 1256,
      "comes": 1257,
      "Hereafter": 1258,
      "Cannot": 1259,
      "She": 1260,
      "pur": 1261,
      ".’": 1262,
      "hind": 1263,
      "hands": 1264,
      "Pl": 1265,
      "soul": 1266,
      "friend": 1267,
      "Ar": 1268,
      "ains": 1269,
      "opy": 1270,
      "ified": 1271,
      "disc": 1272,
      "neither": 1273,
      "guided": 1274,
      "ash": 1275,
      "dead": 1276,
      "anything": 1277,
      "reject": 1278,
      "yourselves": 1279,
      "gether": 1280,
      "firm": 1281,
      "als": 1282,
      "change": 1283,
      "Not": 1284,
      "ben": 1285,
      "One": 1286,
      "tect": 1287,
      "known": 1288,
      "Pr": 1289,
      "promise": 1290,
      "little": 1291,
      "together": 1292,
      "reach": 1293,
      "book": 1294,
      "lie": 1295,
      "server": 1296,
      "much": 1297,
      "guide": 1298,
      "ligion": 1299,
      "support": 1300,
      "suc": 1301,
      "both": 1302,
      "everything": 1303,
      "bless": 1304,
      "trust": 1305,
      "mor": 1306,
      "meet": 1307,
      "gress": 1308,
      "ata": 1309,
      "wait": 1310,
      "current": 1311,
      "direct": 1312,
      "cond": 1313,
      "fault": 1314,
      "bu": 1315,
      "SA": 1316,
      "Phar": 1317,
      "sy": 1318,
      "poss": 1319,
      "seek": 1320,
      "Ed": 1321,
      "dec": 1322,
      "ark": 1323,
      "Phara": 1324,
      "side": 1325,
      "fin": 1326,
      "ished": 1327,
      "ided": 1328,
      "create": 1329,
      "tion": 1330,
      "Pharaoh": 1331,
      "lead": 1332,
      "Ye": 1333,
      "Wise": 1334,
      "Au": 1335,
      "associ": 1336,
      "prayer": 1337,
      "Amer": 1338,
      "ouch": 1339,
      "bit": 1340,
      "inted": 1341,
      "religion": 1342,
      "bear": 1343,
      "ont": 1344,
      "aces": 1345,
      "Resurrection": 1346,
      "fig": 1347,
      "ways": 1348,
      "ists": 1349,
      "Let": 1350,
      "guard": 1351,
      "behind": 1352,
      "ys": 1353,
      "run": 1354,
      "Par": 1355,
      "Vi": 1356,
      "suff": 1357,
      "alid": 1358,
      "task": 1359,
      "something": 1360,
      "ned": 1361,
      "enc": 1362,
      "accept": 1363,
      "Open": 1364,
      "fight": 1365,
      "concer": 1366,
      "Tru": 1367,
      "equ": 1368,
      "eat": 1369,
      "inn": 1370,
      "law": 1371,
      "forgiven": 1372,
      "tic": 1373,
      "lled": 1374,
      "fail": 1375,
      "fer": 1376,
      "stri": 1377,
      "doub": 1378,
      "ired": 1379,
      "gri": 1380,
      "pain": 1381,
      "atan": 1382,
      "vel": 1383,
      "cut": 1384,
      "AN": 1385,
      "alse": 1386,
      "forb": 1387,
      "hard": 1388,
      "These": 1389,
      "dri": 1390,
      "Abra": 1391,
      "children": 1392,
      "sor": 1393,
      "ures": 1394,
      "lot": 1395,
      "address": 1396,
      "Er": 1397,
      "lete": 1398,
      "towards": 1399,
      "start": 1400,
      "chang": 1401,
      "Abraham": 1402,
      "By": 1403,
      "unjust": 1404,
      "press": 1405,
      "chastise": 1406,
      "vice": 1407,
      "alth": 1408,
      "eyes": 1409,
      "fair": 1410,
      "lt": 1411,
      "Thus": 1412,
      "gon": 1413,
      "thor": 1414,
      "ank": 1415,
      "ners": 1416,
      "America": 1417,
      "olution": 1418,
      "die": 1419,
      "Now": 1420,
      "endar": 1421,
      "besides": 1422,
      "Whe": 1423,
      "mount": 1424,
      "appointed": 1425,
      "Name": 1426,
      "avail": 1427,
      "above": 1428,
      "lat": 1429,
      "compen": 1430,
      "Edit": 1431,
      "vide": 1432,
      "odu": 1433,
      "revelations": 1434,
      "Set": 1435,
      "ix": 1436,
      "File": 1437,
      "Save": 1438,
      "ained": 1439,
      "face": 1440,
      "gre": 1441,
      "wise": 1442,
      "Error": 1443,
      "mind": 1444,
      "false": 1445,
      "forgiveness": 1446,
      "Wor": 1447,
      "enjo": 1448,
      "Quran": 1449,
      "told": 1450,
      "belongs": 1451,
      "took": 1452,
      "Whether": 1453,
      "log": 1454,
      "Did": 1455,
      "prov": 1456,
      "called": 1457,
      "number": 1458,
      "ather": 1459,
      "text": 1460,
      "comple": 1461,
      "\".": 1462,
      "!\"": 1463,
      "oud": 1464,
      "fast": 1465,
      "lies": 1466,
      "sing": 1467,
      "hell": 1468,
      "information": 1469,
      "peace": 1470,
      "contact": 1471,
      "ites": 1472,
      "drink": 1473,
      "harm": 1474,
      "oc": 1475,
      "date": 1476,
      "near": 1477,
      "vision": 1478,
      "List": 1479,
      "Oh": 1480,
      "pay": 1481,
      "Will": 1482,
      "years": 1483,
      "dwell": 1484,
      "fathers": 1485,
      "Messengers": 1486,
      "Gr": 1487,
      "Where": 1488,
      "forgive": 1489,
      "repent": 1490,
      "Forgiving": 1491,
      "stead": 1492,
      "apost": 1493,
      "Sign": 1494,
      "pa": 1495,
      "servants": 1496,
      "hon": 1497,
      "lock": 1498,
      "taken": 1499,
      "bur": 1500,
      "mission": 1501,
      "mighty": 1502,
      "mag": 1503,
      "tern": 1504,
      "chastisement": 1505,
      "concerning": 1506,
      "vere": 1507,
      "wealth": 1508,
      "gonna": 1509,
      "sur": 1510,
      "tribut": 1511,
      "fam": 1512,
      "still": 1513,
      "sed": 1514,
      "group": 1515,
      "].": 1516,
      "doubt": 1517,
      "protect": 1518,
      "ual": 1519,
      "View": 1520,
      "ped": 1521,
      "Satan": 1522,
      "Sha": 1523,
      "project": 1524,
      "belief": 1525,
      "judge": 1526,
      "At": 1527,
      "tem": 1528,
      "mother": 1529,
      "Sh": 1530,
      "Evolution": 1531,
      "alone": 1532,
      "aim": 1533,
      "ource": 1534,
      "fli": 1535,
      "raised": 1536,
      "Br": 1537,
      "Yes": 1538,
      "adise": 1539,
      "raw": 1540,
      "far": 1541,
      "ined": 1542,
      "matter": 1543,
      "therefore": 1544,
      "Fr": 1545,
      "sky": 1546,
      "home": 1547,
      "Well": 1548,
      "free": 1549,
      "ware": 1550,
      "coming": 1551,
      "med": 1552,
      "Ma": 1553,
      "earch": 1554,
      "days": 1555,
      "eth": 1556,
      "sun": 1557,
      "Come": 1558,
      "Cre": 1559,
      "Gard": 1560,
      "tific": 1561,
      "abl": 1562,
      "wills": 1563,
      "ities": 1564,
      "Thou": 1565,
      "transgress": 1566,
      "please": 1567,
      "cli": 1568,
      "ner": 1569,
      "cour": 1570,
      "gener": 1571,
      "ched": 1572,
      "ger": 1573,
      "Ac": 1574,
      "hum": 1575,
      "means": 1576,
      "stay": 1577,
      ",\"": 1578,
      "lam": 1579,
      "SAW": 1580,
      "commit": 1581,
      "flow": 1582,
      "Search": 1583,
      "reas": 1584,
      "really": 1585,
      "diffe": 1586,
      "requ": 1587,
      "incre": 1588,
      "cast": 1589,
      "bod": 1590,
      "human": 1591,
      "painful": 1592,
      "patient": 1593,
      "etc": 1594,
      "nam": 1595,
      "believing": 1596,
      "promised": 1597,
      "Cl": 1598,
      "bestow": 1599,
      "destroyed": 1600,
      "news": 1601,
      "Pre": 1602,
      "sins": 1603,
      "gives": 1604,
      "UR": 1605,
      "Fil": 1606,
      "fully": 1607,
      "Message": 1608,
      "app": 1609,
      "Te": 1610,
      "ience": 1611,
      "recompen": 1612,
      "la": 1613,
      "allow": 1614,
      "conne": 1615,
      "success": 1616,
      "high": 1617,
      "tom": 1618,
      "bed": 1619,
      "sen": 1620,
      "Script": 1621,
      "ires": 1622,
      "remind": 1623,
      "ifest": 1624,
      "ib": 1625,
      "prostr": 1626,
      "Hey": 1627,
      "spend": 1628,
      "ailed": 1629,
      "swe": 1630,
      "aware": 1631,
      "town": 1632,
      "Move": 1633,
      "fru": 1634,
      "grace": 1635,
      "Don": 1636,
      "why": 1637,
      "cument": 1638,
      "plain": 1639,
      "Col": 1640,
      "Use": 1641,
      "Man": 1642,
      "nation": 1643,
      "fect": 1644,
      "Paradise": 1645,
      "heart": 1646,
      "spec": 1647,
      "AR": 1648,
      "lear": 1649,
      "stem": 1650,
      "iv": 1651,
      "grant": 1652,
      "Im": 1653,
      "Unto": 1654,
      "ugin": 1655,
      "same": 1656,
      "favour": 1657,
      "ush": 1658,
      "plan": 1659,
      "burn": 1660,
      "words": 1661,
      ".)": 1662,
      "ized": 1663,
      "data": 1664,
      "manifest": 1665,
      "establ": 1666,
      "dist": 1667,
      "saw": 1668,
      "ature": 1669,
      "messengers": 1670,
      "anyone": 1671,
      "gram": 1672,
      "benef": 1673,
      "Cer": 1674,
      "present": 1675,
      "Might": 1676,
      "search": 1677,
      "author": 1678,
      "around": 1679,
      "creation": 1680,
      "Po": 1681,
      "himself": 1682,
      "ateful": 1683,
      "exp": 1684,
      "People": 1685,
      "wer": 1686,
      "Truth": 1687,
      "ude": 1688,
      "whether": 1689,
      "?”": 1690,
      "desire": 1691,
      "Folder": 1692,
      "hy": 1693,
      "ident": 1694,
      "listen": 1695,
      "Failed": 1696,
      "ial": 1697,
      "ged": 1698,
      "key": 1699,
      "gone": 1700,
      "tid": 1701,
      "whosoever": 1702,
      "Ok": 1703,
      "ref": 1704,
      "thought": 1705,
      "possess": 1706,
      "wife": 1707,
      "Enter": 1708,
      "vious": 1709,
      "ME": 1710,
      "ived": 1711,
      "tificate": 1712,
      "proof": 1713,
      "verses": 1714,
      "writ": 1715,
      "valid": 1716,
      "proper": 1717,
      "Jud": 1718,
      "sto": 1719,
      "creen": 1720,
      "Isra": 1721,
      "cry": 1722,
      "claim": 1723,
      "due": 1724,
      "hood": 1725,
      "fact": 1726,
      "Knowing": 1727,
      "por": 1728,
      "month": 1729,
      "denied": 1730,
      "family": 1731,
      "Copy": 1732,
      "Had": 1733,
      "gment": 1734,
      "sol": 1735,
      "cked": 1736,
      "term": 1737,
      "body": 1738,
      "secre": 1739,
      "rain": 1740,
      "ton": 1741,
      "aced": 1742,
      "type": 1743,
      "Remove": 1744,
      "ene": 1745,
      "soon": 1746,
      "Ind": 1747,
      "state": 1748,
      "uring": 1749,
      "Their": 1750,
      "Create": 1751,
      "Get": 1752,
      "display": 1753,
      "jinn": 1754,
      "morning": 1755,
      "uck": 1756,
      "mode": 1757,
      "ils": 1758,
      "contain": 1759,
      "attle": 1760,
      "Nay": 1761,
      "bount": 1762,
      "using": 1763,
      "works": 1764,
      "stra": 1765,
      "que": 1766,
      "tidings": 1767,
      "Ser": 1768,
      "next": 1769,
      "count": 1770,
      "Up": 1771,
      "remo": 1772,
      "wives": 1773,
      "value": 1774,
      "Yeah": 1775,
      "check": 1776,
      "host": 1777,
      "grateful": 1778,
      "touch": 1779,
      "200": 1780,
      "taste": 1781,
      "till": 1782,
      "lied": 1783,
      "asked": 1784,
      "Yet": 1785,
      "ared": 1786,
      "ich": 1787,
      "ze": 1788,
      "failed": 1789,
      "knew": 1790,
      "blind": 1791,
      "decre": 1792,
      "mean": 1793,
      "cend": 1794,
      "user": 1795,
      "lest": 1796,
      "ians": 1797,
      "three": 1798,
      "Israel": 1799,
      "gin": 1800,
      "att": 1801,
      "box": 1802,
      "rop": 1803,
      "fort": 1804,
      "truthful": 1805,
      "feel": 1806,
      "person": 1807,
      "ices": 1808,
      "pty": 1809,
      "gardens": 1810,
      "low": 1811,
      "arer": 1812,
      "sons": 1813,
      "disbelieved": 1814,
      "sm": 1815,
      "spr": 1816,
      "Last": 1817,
      "Nor": 1818,
      "sim": 1819,
      "ird": 1820,
      "knowing": 1821,
      "ctions": 1822,
      "gods": 1823,
      "magic": 1824,
      ",-": 1825,
      "severe": 1826,
      "regard": 1827,
      "Send": 1828,
      "TH": 1829,
      "mountains": 1830,
      "Co": 1831,
      "tings": 1832,
      "rivers": 1833,
      "write": 1834,
      "ief": 1835,
      "eas": 1836,
      "venant": 1837,
      "ull": 1838,
      "cation": 1839,
      "version": 1840,
      "receive": 1841,
      "rup": 1842,
      "Some": 1843,
      "house": 1844,
      "disput": 1845,
      "directory": 1846,
      "went": 1847,
      "says": 1848,
      "serve": 1849,
      "idol": 1850,
      "accord": 1851,
      "Ap": 1852,
      "iness": 1853,
      "lders": 1854,
      "lost": 1855,
      "provided": 1856,
      "DE": 1857,
      "happen": 1858,
      "sea": 1859,
      "saved": 1860,
      "pocr": 1861,
      "thereof": 1862,
      "ON": 1863,
      "Of": 1864,
      "Right": 1865,
      "recompense": 1866,
      "Mary": 1867,
      "Every": 1868,
      "Islam": 1869,
      "commun": 1870,
      "ently": 1871,
      "produ": 1872,
      "meeting": 1873,
      "Mon": 1874,
      "question": 1875,
      "Bo": 1876,
      "IS": 1877,
      "messenger": 1878,
      "care": 1879,
      "sound": 1880,
      "mand": 1881,
      "pan": 1882,
      "Le": 1883,
      "expect": 1884,
      "ator": 1885,
      "appe": 1886,
      "ility": 1887,
      "covenant": 1888,
      "color": 1889,
      "ased": 1890,
      "uty": 1891,
      "flict": 1892,
      "ows": 1893,
      "Okay": 1894,
      "AP": 1895,
      "aves": 1896,
      "point": 1897,
      "tach": 1898,
      "ream": 1899,
      "heed": 1900,
      "Noah": 1901,
      "Asia": 1902,
      "alted": 1903,
      "Sub": 1904,
      "pi": 1905,
      "rel": 1906,
      "hypocr": 1907,
      "angu": 1908,
      "OU": 1909,
      "calendar": 1910,
      "either": 1911,
      "faces": 1912,
      "close": 1913,
      "eve": 1914,
      "associate": 1915,
      "ss": 1916,
      "Check": 1917,
      "Such": 1918,
      "lawful": 1919,
      "Look": 1920,
      "gn": 1921,
      "ret": 1922,
      "became": 1923,
      "watch": 1924,
      "Hour": 1925,
      "having": 1926,
      "ering": 1927,
      "Gu": 1928,
      "ered": 1929,
      "div": 1930,
      "obed": 1931,
      "sec": 1932,
      "remain": 1933,
      "cus": 1934,
      "second": 1935,
      "tar": 1936,
      "Musli": 1937,
      "vo": 1938,
      "forbidden": 1939,
      "forever": 1940,
      "argu": 1941,
      "mage": 1942,
      "desires": 1943,
      "hour": 1944,
      "male": 1945,
      "CD": 1946,
      "ER": 1947,
      "verse": 1948,
      "makes": 1949,
      "provision": 1950,
      "exam": 1951,
      "wronged": 1952,
      "vir": 1953,
      "uct": 1954,
      "Image": 1955,
      "ope": 1956,
      "ari": 1957,
      "break": 1958,
      "remove": 1959,
      "imes": 1960,
      "icient": 1961,
      "password": 1962,
      "enemy": 1963,
      "draw": 1964,
      "cell": 1965,
      "uration": 1966,
      "oper": 1967,
      "passed": 1968,
      "fun": 1969,
      "hur": 1970,
      "inst": 1971,
      "case": 1972,
      "Per": 1973,
      "sum": 1974,
      "justice": 1975,
      "cons": 1976,
      "sight": 1977,
      "food": 1978,
      "Fir": 1979,
      "city": 1980,
      "paren": 1981,
      "equal": 1982,
      "aring": 1983,
      "ical": 1984,
      "conce": 1985,
      "Mighty": 1986,
      "following": 1987,
      "Unable": 1988,
      "meas": 1989,
      "cent": 1990,
      "tra": 1991,
      "woman": 1992,
      "With": 1993,
      "partners": 1994,
      "ceed": 1995,
      "poly": 1996,
      "affair": 1997,
      "See": 1998,
      "since": 1999,
      "ination": 2000,
      "ught": 2001,
      "ried": 2002,
      "prof": 2003,
      "few": 2004,
      "leg": 2005,
      "evid": 2006,
      "Delete": 2007,
      "greater": 2008,
      "mark": 2009,
      "Path": 2010,
      "Would": 2011,
      "ground": 2012,
      "souls": 2013,
      "Children": 2014,
      "changes": 2015,
      "og": 2016,
      "fuck": 2017,
      "burden": 2018,
      "Cal": 2019,
      "returned": 2020,
      "Knower": 2021,
      "edit": 2022,
      "didn": 2023,
      "complete": 2024,
      "document": 2025,
      "exist": 2026,
      "bal": 2027,
      "praise": 2028,
      "admon": 2029,
      "secret": 2030,
      "Scripture": 2031,
      "followed": 2032,
      "ru": 2033,
      "aste": 2034,
      "pose": 2035,
      "ute": 2036,
      "enjoy": 2037,
      "ues": 2038,
      ");": 2039,
      "forgiving": 2040,
      "chief": 2041,
      "Start": 2042,
      "pread": 2043,
      "bell": 2044,
      "share": 2045,
      "appro": 2046,
      "Contact": 2047,
      "mal": 2048,
      "vict": 2049,
      "Em": 2050,
      "thus": 2051,
      "cribe": 2052,
      "Eur": 2053,
      "reg": 2054,
      "system": 2055,
      "ery": 2056,
      "dark": 2057,
      "heard": 2058,
      "appoint": 2059,
      "(%": 2060,
      "prepare": 2061,
      "reng": 2062,
      "Wind": 2063,
      "guil": 2064,
      "straight": 2065,
      "Des": 2066,
      "atch": 2067,
      "along": 2068,
      "within": 2069,
      "Sy": 2070,
      "Cli": 2071,
      "sir": 2072,
      "least": 2073,
      "always": 2074,
      "Tell": 2075,
      "eld": 2076,
      "tree": 2077,
      "answer": 2078,
      "wal": 2079,
      "connect": 2080,
      "Jes": 2081,
      "oney": 2082,
      "permission": 2083,
      "submit": 2084,
      "blessings": 2085,
      "authority": 2086,
      "atus": 2087,
      "coun": 2088,
      "Which": 2089,
      "warner": 2090,
      "ga": 2091,
      "Gardens": 2092,
      "Europe": 2093,
      "Jesus": 2094,
      "rejected": 2095,
      "orn": 2096,
      "mention": 2097,
      "lay": 2098,
      "child": 2099,
      "unless": 2100,
      "record": 2101,
      "Ho": 2102,
      "ili": 2103,
      "hope": 2104,
      "spo": 2105,
      "streng": 2106,
      "polythe": 2107,
      "Just": 2108,
      "supported": 2109,
      "parents": 2110,
      "page": 2111,
      "stop": 2112,
      "option": 2113,
      "Chr": 2114,
      "lication": 2115,
      "bestowed": 2116,
      "ism": 2117,
      "compan": 2118,
      "Cur": 2119,
      "ID": 2120,
      "bug": 2121,
      "pal": 2122,
      "killed": 2123,
      "Auto": 2124,
      "Li": 2125,
      "bus": 2126,
      "four": 2127,
      "corrup": 2128,
      "Bl": 2129,
      "hide": 2130,
      "termin": 2131,
      "party": 2132,
      "talk": 2133,
      "ider": 2134,
      "prophe": 2135,
      "empty": 2136,
      "default": 2137,
      "ager": 2138,
      "commanded": 2139,
      "according": 2140,
      "duty": 2141,
      "ouses": 2142,
      "Mr": 2143,
      "today": 2144,
      "field": 2145,
      "ann": 2146,
      "easy": 2147,
      "video": 2148,
      "size": 2149,
      "bad": 2150,
      "seven": 2151,
      "folders": 2152,
      "ek": 2153,
      "real": 2154,
      "rog": 2155,
      "merciful": 2156,
      "won": 2157,
      "swear": 2158,
      "La": 2159,
      "Even": 2160,
      "fice": 2161,
      "Jose": 2162,
      "format": 2163,
      "lood": 2164,
      "strong": 2165,
      "position": 2166,
      "oath": 2167,
      "moon": 2168,
      "fuge": 2169,
      "card": 2170,
      "Musa": 2171,
      "10": 2172,
      "Spe": 2173,
      "tract": 2174,
      "ckon": 2175,
      "guides": 2176,
      "Remember": 2177,
      "Import": 2178,
      "Joseph": 2179,
      "Mail": 2180,
      "main": 2181,
      "isdom": 2182,
      "hom": 2183,
      "fol": 2184,
      "program": 2185,
      "Whoever": 2186,
      "Therefore": 2187,
      "ply": 2188,
      "falsehood": 2189,
      "different": 2190,
      "weak": 2191,
      "Sp": 2192,
      "ened": 2193,
      "arm": 2194,
      "rate": 2195,
      "seized": 2196,
      "rol": 2197,
      "available": 2198,
      "reminder": 2199,
      "during": 2200,
      "spread": 2201,
      "ging": 2202,
      "refuge": 2203,
      "prepared": 2204,
      "Take": 2205,
      "adv": 2206,
      "measure": 2207,
      "ular": 2208,
      "ype": 2209,
      "deli": 2210,
      "From": 2211,
      "pleased": 2212,
      "instead": 2213,
      "Qu": 2214,
      "pet": 2215,
      "Beli": 2216,
      "glad": 2217,
      "oe": 2218,
      "thentic": 2219,
      "truly": 2220,
      "12": 2221,
      "incl": 2222,
      "umn": 2223,
      "friends": 2224,
      "ives": 2225,
      "Address": 2226,
      "reason": 2227,
      "hor": 2228,
      "contin": 2229,
      "hoto": 2230,
      "hidden": 2231,
      "rence": 2232,
      "prev": 2233,
      "daught": 2234,
      "behold": 2235,
      "ties": 2236,
      "oft": 2237,
      "course": 2238,
      "Out": 2239,
      "Only": 2240,
      "Word": 2241,
      "band": 2242,
      "pure": 2243,
      "ense": 2244,
      "abide": 2245,
      "secure": 2246,
      "IM": 2247,
      "cover": 2248,
      "lection": 2249,
      "pair": 2250,
      "placed": 2251,
      "single": 2252,
      "Ro": 2253,
      "benefit": 2254,
      "Jew": 2255,
      "unk": 2256,
      "HT": 2257,
      "posed": 2258,
      "faithful": 2259,
      "drive": 2260,
      "willed": 2261,
      "herit": 2262,
      "Afr": 2263,
      "matic": 2264,
      "sle": 2265,
      "ster": 2266,
      "ublic": 2267,
      "bounty": 2268,
      "ually": 2269,
      "auto": 2270,
      "caused": 2271,
      "hypocrites": 2272,
      "ping": 2273,
      "earned": 2274,
      "Good": 2275,
      "running": 2276,
      "mod": 2277,
      "ends": 2278,
      "May": 2279,
      "\\\\": 2280,
      "bs": 2281,
      "Adam": 2282,
      "Peace": 2283,
      "Gener": 2284,
      "High": 2285,
      "fill": 2286,
      "build": 2287,
      "thanks": 2288,
      "whomever": 2289,
      "wherein": 2290,
      "disbelief": 2291,
      "Color": 2292,
      "gir": 2293,
      "terri": 2294,
      "enough": 2295,
      "ative": 2296,
      "safe": 2297,
      "ines": 2298,
      "Muslims": 2299,
      "grow": 2300,
      "DV": 2301,
      "ption": 2302,
      "ech": 2303,
      "enance": 2304,
      "Christ": 2305,
      "deal": 2306,
      "conceal": 2307,
      "Enable": 2308,
      "Signs": 2309,
      "itude": 2310,
      "config": 2311,
      "apostles": 2312,
      "sis": 2313,
      "decl": 2314,
      "boy": 2315,
      ")?": 2316,
      "Project": 2317,
      "guilty": 2318,
      "gain": 2319,
      "plugin": 2320,
      "CK": 2321,
      "RE": 2322,
      "Believers": 2323,
      "LL": 2324,
      "living": 2325,
      "vert": 2326,
      "filled": 2327,
      "Judgment": 2328,
      "folk": 2329,
      "remem": 2330,
      "Call": 2331,
      "abri": 2332,
      "past": 2333,
      "Invalid": 2334,
      "object": 2335,
      "ier": 2336,
      "befall": 2337,
      "received": 2338,
      "Arab": 2339,
      "gg": 2340,
      "tool": 2341,
      "arrog": 2342,
      "yourself": 2343,
      "perform": 2344,
      "prostrate": 2345,
      "_B": 2346,
      "brance": 2347,
      "Africa": 2348,
      "sit": 2349,
      "grieve": 2350,
      "apostle": 2351,
      "Find": 2352,
      "year": 2353,
      "Config": 2354,
      "Apost": 2355,
      "losers": 2356,
      "bow": 2357,
      "wra": 2358,
      "Display": 2359,
      "example": 2360,
      "turns": 2361,
      "archive": 2362,
      "ession": 2363,
      "DVD": 2364,
      "Fa": 2365,
      "jour": 2366,
      "sends": 2367,
      "money": 2368,
      "once": 2369,
      "nder": 2370,
      "sust": 2371,
      "increase": 2372,
      "forget": 2373,
      "import": 2374,
      "Sa": 2375,
      "big": 2376,
      "dust": 2377,
      ":%": 2378,
      "ories": 2379,
      "AT": 2380,
      "bers": 2381,
      "game": 2382,
      "Hel": 2383,
      "event": 2384,
      "wrongdoers": 2385,
      "Jews": 2386,
      "dio": 2387,
      "Apostle": 2388,
      "CH": 2389,
      "sufficient": 2390,
      "spring": 2391,
      "polytheists": 2392,
      "anim": 2393,
      "source": 2394,
      "utter": 2395,
      "conf": 2396,
      "space": 2397,
      "returns": 2398,
      "Gl": 2399,
      "okay": 2400,
      "portion": 2401,
      "abode": 2402,
      "proofs": 2403,
      "gan": 2404,
      "langu": 2405,
      "hearing": 2406,
      "Tor": 2407,
      "delete": 2408,
      "rer": 2409,
      "admit": 2410,
      "Default": 2411,
      "homes": 2412,
      "Time": 2413,
      "forward": 2414,
      "tered": 2415,
      "respect": 2416,
      "worthy": 2417,
      "iss": 2418,
      "cattle": 2419,
      "memo": 2420,
      "backs": 2421,
      "Clear": 2422,
      "ran": 2423,
      "hal": 2424,
      "ended": 2425,
      "lle": 2426,
      "20": 2427,
      "occur": 2428,
      "\",": 2429,
      "copy": 2430,
      "dered": 2431,
      "OR": 2432,
      "az": 2433,
      "bond": 2434,
      "tre": 2435,
      "passion": 2436,
      "small": 2437,
      "cha": 2438,
      "outh": 2439,
      "step": 2440,
      "reckon": 2441,
      "disobey": 2442,
      "confirm": 2443,
      "fix": 2444,
      "whatsoever": 2445,
      "fruits": 2446,
      "peri": 2447,
      "board": 2448,
      "lasting": 2449,
      "ises": 2450,
      "fearing": 2451,
      "wid": 2452,
      "brings": 2453,
      "hasten": 2454,
      "patience": 2455,
      "Shall": 2456,
      "bab": 2457,
      "ignor": 2458,
      "Pass": 2459,
      "asts": 2460,
      "Command": 2461,
      "reached": 2462,
      "ML": 2463,
      "cogn": 2464,
      "haps": 2465,
      "ches": 2466,
      "ney": 2467,
      "descend": 2468,
      "happ": 2469,
      "simil": 2470,
      "bea": 2471,
      "images": 2472,
      "net": 2473,
      "apart": 2474,
      "speech": 2475,
      "request": 2476,
      "whole": 2477,
      "drop": 2478,
      "specified": 2479,
      "inherit": 2480,
      "Back": 2481,
      "pra": 2482,
      "Noble": 2483,
      "accepted": 2484,
      "terrible": 2485,
      "ling": 2486,
      "ences": 2487,
      "ket": 2488,
      "granted": 2489,
      ")!": 2490,
      "Type": 2491,
      "acious": 2492,
      "someone": 2493,
      "ony": 2494,
      "Mar": 2495,
      "fic": 2496,
      "mb": 2497,
      "ero": 2498,
      "sured": 2499,
      "replied": 2500,
      "wisdom": 2501,
      "Text": 2502,
      "atures": 2503,
      "taught": 2504,
      "looking": 2505,
      "Home": 2506,
      "Woe": 2507,
      "air": 2508,
      "screen": 2509,
      "gather": 2510,
      "exists": 2511,
      "poor": 2512,
      "thank": 2513,
      "Work": 2514,
      "certificate": 2515,
      "ease": 2516,
      "cks": 2517,
      "bound": 2518,
      "report": 2519,
      "Print": 2520,
      "warning": 2521,
      "?'": 2522,
      "room": 2523,
      "choose": 2524,
      "KDE": 2525,
      "Make": 2526,
      "NO": 2527,
      "ading": 2528,
      "delive": 2529,
      "trave": 2530,
      "waiting": 2531,
      "ES": 2532,
      "Give": 2533,
      "habit": 2534,
      "feed": 2535,
      "darkness": 2536,
      "later": 2537,
      "establish": 2538,
      "repentance": 2539,
      "ceive": 2540,
      "hurt": 2541,
      "houses": 2542,
      "believer": 2543,
      "umb": 2544,
      "clean": 2545,
      "lying": 2546,
      "ames": 2547,
      "der": 2548,
      "mult": 2549,
      "tw": 2550,
      "insp": 2551,
      "ison": 2552,
      "afflict": 2553,
      "anci": 2554,
      "ades": 2555,
      "sustenance": 2556,
      "else": 2557,
      "hus": 2558,
      "rences": 2559,
      "witnesses": 2560,
      "provide": 2561,
      "honour": 2562,
      "arri": 2563,
      "leted": 2564,
      "making": 2565,
      "Ca": 2566,
      "Ph": 2567,
      "job": 2568,
      "ktop": 2569,
      "attach": 2570,
      "sert": 2571,
      "times": 2572,
      "curity": 2573,
      "chosen": 2574,
      "believes": 2575,
      "Group": 2576,
      "blood": 2577,
      "theirs": 2578,
      "link": 2579,
      "takes": 2580,
      "Sup": 2581,
      "teach": 2582,
      "recite": 2583,
      "subject": 2584,
      "onder": 2585,
      "control": 2586,
      "xy": 2587,
      "clo": 2588,
      "deta": 2589,
      "afr": 2590,
      "kno": 2591,
      "ital": 2592,
      "ented": 2593,
      "Except": 2594,
      "earn": 2595,
      "button": 2596,
      "sorry": 2597,
      "Sol": 2598,
      "dear": 2599,
      "alty": 2600,
      "cribed": 2601,
      "access": 2602,
      "afraid": 2603,
      "cloud": 2604,
      "drown": 2605,
      "pret": 2606,
      "Aware": 2607,
      "Ke": 2608,
      "uses": 2609,
      "loss": 2610,
      "delivered": 2611,
      "bel": 2612,
      "blessed": 2613,
      "Files": 2614,
      "Task": 2615,
      "feet": 2616,
      "install": 2617,
      "Ge": 2618,
      "IC": 2619,
      "lobal": 2620,
      "respite": 2621,
      "del": 2622,
      "oured": 2623,
      "deser": 2624,
      "tribution": 2625,
      "names": 2626,
      "opt": 2627,
      "Cho": 2628,
      "Su": 2629,
      "pious": 2630,
      "brothers": 2631,
      "Page": 2632,
      "ges": 2633,
      "forgot": 2634,
      "shit": 2635,
      "whomsoever": 2636,
      "Cont": 2637,
      "established": 2638,
      "husband": 2639,
      "Lot": 2640,
      "naught": 2641,
      "cription": 2642,
      "anc": 2643,
      "race": 2644,
      "proud": 2645,
      "changed": 2646,
      "sil": 2647,
      "lives": 2648,
      "blame": 2649,
      "prayers": 2650,
      "liars": 2651,
      "wants": 2652,
      "Himself": 2653,
      "faithless": 2654,
      "forbid": 2655,
      "fruit": 2656,
      "Click": 2657,
      "arrogant": 2658,
      "ision": 2659,
      "irth": 2660,
      "suredly": 2661,
      "fell": 2662,
      "Num": 2663,
      "ateg": 2664,
      "Play": 2665,
      "myself": 2666,
      "worlds": 2667,
      "bird": 2668,
      "favor": 2669,
      "passionate": 2670,
      "fre": 2671,
      "uh": 2672,
      "yours": 2673,
      "ships": 2674,
      "opened": 2675,
      "virt": 2676,
      "treat": 2677,
      "glor": 2678,
      "lar": 2679,
      "foot": 2680,
      "track": 2681,
      "19": 2682,
      "status": 2683,
      "URL": 2684,
      "':": 2685,
      "irit": 2686,
      "Exalted": 2687,
      "obedient": 2688,
      "weth": 2689,
      "wanted": 2690,
      "assign": 2691,
      "thentication": 2692,
      "fine": 2693,
      "Ha": 2694,
      "understanding": 2695,
      "ron": 2696,
      "resu": 2697,
      "separ": 2698,
      "priv": 2699,
      "User": 2700,
      "kept": 2701,
      "Calendar": 2702,
      "recogn": 2703,
      "suffer": 2704,
      "mer": 2705,
      "taking": 2706,
      "intercess": 2707,
      "Free": 2708,
      "revelation": 2709,
      "Date": 2710,
      "ecut": 2711,
      "ately": 2712,
      "editor": 2713,
      ").\"": 2714,
      "Down": 2715,
      "six": 2716,
      "wicked": 2717,
      "plot": 2718,
      "xim": 2719,
      "shown": 2720,
      "Creat": 2721,
      "ai": 2722,
      "orph": 2723,
      "action": 2724,
      "story": 2725,
      "recited": 2726,
      "email": 2727,
      "ander": 2728,
      "ification": 2729,
      "remembrance": 2730,
      "ahim": 2731,
      "cro": 2732,
      "iding": 2733,
      "sho": 2734,
      "proble": 2735,
      "evidence": 2736,
      "Val": 2737,
      "bene": 2738,
      "spl": 2739,
      "deth": 2740,
      "unseen": 2741,
      "thered": 2742,
      "admonition": 2743,
      "OP": 2744,
      "enem": 2745,
      "struct": 2746,
      "enemies": 2747,
      "Other": 2748,
      "Opt": 2749,
      "gets": 2750,
      "dispute": 2751,
      "inte": 2752,
      "ady": 2753,
      "haply": 2754,
      "Current": 2755,
      "walk": 2756,
      "round": 2757,
      "esca": 2758,
      "deleted": 2759,
      "local": 2760,
      "journey": 2761,
      "IT": 2762,
      "abund": 2763,
      "seeking": 2764,
      "awn": 2765,
      "Close": 2766,
      "cam": 2767,
      "generations": 2768,
      "pane": 2769,
      "location": 2770,
      "Editor": 2771,
      "girl": 2772,
      "Help": 2773,
      "language": 2774,
      "ST": 2775,
      "brahim": 2776,
      "Tool": 2777,
      "humili": 2778,
      "half": 2779,
      "House": 2780,
      "ele": 2781,
      "”;": 2782,
      "utiful": 2783,
      "curse": 2784,
      "appointment": 2785,
      "fabri": 2786,
      "tong": 2787,
      "doom": 2788,
      "months": 2789,
      "Ibrahim": 2790,
      "fucking": 2791,
      "Pa": 2792,
      "ables": 2793,
      "female": 2794,
      "standing": 2795,
      "Wait": 2796,
      "Mercy": 2797,
      "griev": 2798,
      "idols": 2799,
      "Unknown": 2800,
      "Certain": 2801,
      "sper": 2802,
      "Certificate": 2803,
      "beneath": 2804,
      "uous": 2805,
      "imin": 2806,
      "abled": 2807,
      "ousand": 2808,
      "ardon": 2809,
      "function": 2810,
      "Oft": 2811,
      "ured": 2812,
      "ferred": 2813,
      "Bring": 2814,
      "Server": 2815,
      "pack": 2816,
      "creatures": 2817,
      "mid": 2818,
      "carry": 2819,
      "ention": 2820,
      "cellent": 2821,
      "tore": 2822,
      "approach": 2823,
      "RO": 2824,
      "mits": 2825,
      "itable": 2826,
      "settings": 2827,
      "repe": 2828,
      "charity": 2829,
      "Settings": 2830,
      "victory": 2831,
      "che": 2832,
      "sequ": 2833,
      "Because": 2834,
      "Like": 2835,
      "ising": 2836,
      "ries": 2837,
      "destination": 2838,
      "sinners": 2839,
      "dream": 2840,
      "ining": 2841,
      "stray": 2842,
      "Certainly": 2843,
      "blog": 2844,
      "calls": 2845,
      "daughters": 2846,
      "thousand": 2847,
      "rew": 2848,
      "viol": 2849,
      "Conne": 2850,
      "Islamic": 2851,
      "Screen": 2852,
      "Global": 2853,
      "Run": 2854,
      "Mohamm": 2855,
      "application": 2856,
      "consider": 2857,
      "Stop": 2858,
      "Vo": 2859,
      "othe": 2860,
      "iting": 2861,
      "ungrateful": 2862,
      "appear": 2863,
      "table": 2864,
      "defin": 2865,
      "abase": 2866,
      "rather": 2867,
      "knoweth": 2868,
      "Mohammed": 2869,
      "offer": 2870,
      "tory": 2871,
      "Thr": 2872,
      "doesn": 2873,
      "Plugin": 2874,
      "met": 2875,
      "thereby": 2876,
      "helper": 2877,
      "helped": 2878,
      "ield": 2879,
      "Over": 2880,
      "iling": 2881,
      "correct": 2882,
      "UN": 2883,
      "YOU": 2884,
      "van": 2885,
      "onse": 2886,
      "ctor": 2887,
      "fortun": 2888,
      "ng": 2889,
      "sw": 2890,
      "vy": 2891,
      "previous": 2892,
      "oke": 2893,
      "wishes": 2894,
      "relat": 2895,
      "sche": 2896,
      "Window": 2897,
      "entered": 2898,
      "cried": 2899,
      "lau": 2900,
      "Any": 2901,
      "reckoning": 2902,
      "Choose": 2903,
      "Ob": 2904,
      "lice": 2905,
      "determin": 2906,
      "Keep": 2907,
      "fabric": 2908,
      "marry": 2909,
      "steadfast": 2910,
      "Mark": 2911,
      "week": 2912,
      "Garden": 2913,
      "Ben": 2914,
      "rely": 2915,
      "Great": 2916,
      "Tham": 2917,
      "photo": 2918,
      "process": 2919,
      "evening": 2920,
      "Trans": 2921,
      "Praise": 2922,
      "seeing": 2923,
      "deaf": 2924,
      "ety": 2925,
      "service": 2926,
      "righteousness": 2927,
      "dam": 2928,
      "gar": 2929,
      "aster": 2930,
      "possible": 2931,
      "Way": 2932,
      "pu": 2933,
      "ring": 2934,
      "ury": 2935,
      "Filter": 2936,
      "gathered": 2937,
      "LA": 2938,
      "rejo": 2939,
      "alog": 2940,
      "nel": 2941,
      "tribute": 2942,
      "property": 2943,
      "Thamud": 2944,
      "cap": 2945,
      "posit": 2946,
      "sleep": 2947,
      "Inform": 2948,
      "seem": 2949,
      "kingdom": 2950,
      "ency": 2951,
      "oaths": 2952,
      "Ask": 2953,
      "strength": 2954,
      "pleasure": 2955,
      "produce": 2956,
      "Min": 2957,
      "Ne": 2958,
      "def": 2959,
      "sending": 2960,
      "burning": 2961,
      "communic": 2962,
      "Options": 2963,
      "Wr": 2964,
      "working": 2965,
      "clay": 2966,
      "cove": 2967,
      "presence": 2968,
      "Pac": 2969,
      "os": 2970,
      "Inter": 2971,
      "velop": 2972,
      "deliver": 2973,
      "Number": 2974,
      "sud": 2975,
      "moving": 2976,
      "anger": 2977,
      "Truly": 2978,
      "trees": 2979,
      "mort": 2980,
      "security": 2981,
      "code": 2982,
      "Said": 2983,
      "matically": 2984,
      "sudden": 2985,
      "Af": 2986,
      "mm": 2987,
      "offline": 2988,
      "removed": 2989,
      "sty": 2990,
      "Disable": 2991,
      "period": 2992,
      "igr": 2993,
      "warned": 2994,
      "written": 2995,
      "TP": 2996,
      "print": 2997,
      "preview": 2998,
      "former": 2999,
      "filter": 3000,
      "oom": 3001,
      "wa": 3002,
      "rebell": 3003,
      "attain": 3004,
      "trial": 3005,
      "idolat": 3006,
      "Best": 3007,
      "guardian": 3008,
      "wrath": 3009,
      "Tab": 3010,
      "dy": 3011,
      "?’": 3012,
      "session": 3013,
      "icent": 3014,
      "loading": 3015,
      "Ever": 3016,
      "Sim": 3017,
      "pend": 3018,
      "loves": 3019,
      "cursed": 3020,
      "Pacific": 3021,
      "whereas": 3022,
      "oppress": 3023,
      "pleases": 3024,
      "ordained": 3025,
      "jest": 3026,
      "lex": 3027,
      "lier": 3028,
      "mock": 3029,
      "tried": 3030,
      "beyond": 3031,
      "charact": 3032,
      "ternal": 3033,
      "script": 3034,
      "Monothe": 3035,
      "options": 3036,
      "eting": 3037,
      "Har": 3038,
      "Sal": 3039,
      "US": 3040,
      "War": 3041,
      "je": 3042,
      "ags": 3043,
      "content": 3044,
      "Solom": 3045,
      "sick": 3046,
      "map": 3047,
      "excellent": 3048,
      "tempt": 3049,
      "Torah": 3050,
      "ding": 3051,
      "Web": 3052,
      "column": 3053,
      "Password": 3054,
      "wall": 3055,
      "guy": 3056,
      "quit": 3057,
      "distress": 3058,
      "onto": 3059,
      "acing": 3060,
      "Whatever": 3061,
      "click": 3062,
      "allowed": 3063,
      "reflect": 3064,
      "males": 3065,
      "inion": 3066,
      "disgrace": 3067,
      "Does": 3068,
      "marks": 3069,
      "company": 3070,
      "World": 3071,
      "drowned": 3072,
      "LD": 3073,
      "cup": 3074,
      "mom": 3075,
      "white": 3076,
      "ename": 3077,
      "below": 3078,
      "belied": 3079,
      "slaves": 3080,
      "transgressors": 3081,
      "decreed": 3082,
      "Monotheism": 3083,
      "'.": 3084,
      "Isa": 3085,
      "getting": 3086,
      "woe": 3087,
      "drag": 3088,
      "chan": 3089,
      "itional": 3090,
      "Faith": 3091,
      "Solomon": 3092,
      "everyone": 3093,
      "actor": 3094,
      "effect": 3095,
      "inside": 3096,
      "slay": 3097,
      "contains": 3098,
      "attack": 3099,
      "cul": 3100,
      "gen": 3101,
      "io": 3102,
      "Ta": 3103,
      "bled": 3104,
      "ality": 3105,
      "wered": 3106,
      "invoke": 3107,
      "continue": 3108,
      "Source": 3109,
      "died": 3110,
      "alive": 3111,
      "Change": 3112,
      "lling": 3113,
      "orig": 3114,
      "aron": 3115,
      "device": 3116,
      "happy": 3117,
      "Car": 3118,
      "aun": 3119,
      "prison": 3120,
      "beside": 3121,
      "King": 3122,
      "mir": 3123,
      "tab": 3124,
      "50": 3125,
      "Thank": 3126,
      "guys": 3127,
      "ics": 3128,
      "garden": 3129,
      "origin": 3130,
      "Full": 3131,
      "Hide": 3132,
      "level": 3133,
      "fulfilled": 3134,
      "store": 3135,
      "Aaron": 3136,
      "MS": 3137,
      "kid": 3138,
      "Rec": 3139,
      "worldly": 3140,
      "favours": 3141,
      "/%": 3142,
      "birth": 3143,
      "sat": 3144,
      "ordin": 3145,
      "proclaim": 3146,
      "calling": 3147,
      "Burn": 3148,
      "Fl": 3149,
      "ouble": 3150,
      "Were": 3151,
      "expected": 3152,
      "Data": 3153,
      "Head": 3154,
      "quot": 3155,
      "escape": 3156,
      "Next": 3157,
      "Red": 3158,
      "oid": 3159,
      "seal": 3160,
      "stor": 3161,
      "ipient": 3162,
      "Arabic": 3163,
      "pop": 3164,
      "vain": 3165,
      "held": 3166,
      "cred": 3167,
      "decree": 3168,
      "operation": 3169,
      "multip": 3170,
      "Has": 3171,
      "assuredly": 3172,
      "short": 3173,
      "setting": 3174,
      "remote": 3175,
      "Jac": 3176,
      "Never": 3177,
      "Vide": 3178,
      "Behold": 3179,
      "bearing": 3180,
      "target": 3181,
      "pardon": 3182,
      "vey": 3183,
      "unaware": 3184,
      "ava": 3185,
      "mad": 3186,
      "pie": 3187,
      "goes": 3188,
      "AL": 3189,
      "Pres": 3190,
      "encry": 3191,
      "Bu": 3192,
      "Mak": 3193,
      "bones": 3194,
      "retribution": 3195,
      "weight": 3196,
      "irect": 3197,
      "trying": 3198,
      "corruption": 3199,
      "sake": 3200,
      "els": 3201,
      "follows": 3202,
      "width": 3203,
      "End": 3204,
      "asse": 3205,
      "active": 3206,
      "reply": 3207,
      "response": 3208,
      "affairs": 3209,
      "nal": 3210,
      "stars": 3211,
      "wel": 3212,
      "ests": 3213,
      "Dr": 3214,
      "kinds": 3215,
      "witch": 3216,
      "required": 3217,
      "regarding": 3218,
      "join": 3219,
      "contents": 3220,
      "problem": 3221,
      "evi": 3222,
      "lieve": 3223,
      "contacts": 3224,
      "beautiful": 3225,
      "threat": 3226,
      "jinns": 3227,
      "sees": 3228,
      "answered": 3229,
      "worshipped": 3230,
      "needy": 3231,
      "General": 3232,
      "Jacob": 3233,
      "None": 3234,
      "ases": 3235,
      "unch": 3236,
      "offspring": 3237,
      "soft": 3238,
      "ife": 3239,
      "agree": 3240,
      "ump": 3241,
      "Christians": 3242,
      "rat": 3243,
      "conside": 3244,
      "audio": 3245,
      "!’": 3246,
      "iles": 3247,
      "exalted": 3248,
      "izon": 3249,
      "considered": 3250,
      "clos": 3251,
      "itle": 3252,
      "Hearing": 3253,
      "ung": 3254,
      "thereafter": 3255,
      "perhaps": 3256,
      "cra": 3257,
      "fed": 3258,
      "issu": 3259,
      "road": 3260,
      "Video": 3261,
      "Ay": 3262,
      "born": 3263,
      "sque": 3264,
      "neg": 3265,
      "respond": 3266,
      "happened": 3267,
      "Throne": 3268,
      "public": 3269,
      "cale": 3270,
      "graph": 3271,
      "sal": 3272,
      "yes": 3273,
      "atabase": 3274,
      "item": 3275,
      "After": 3276,
      "Dav": 3277,
      "community": 3278,
      "divor": 3279,
      "mouth": 3280,
      "wilt": 3281,
      "rich": 3282,
      "cance": 3283,
      "black": 3284,
      "medi": 3285,
      "Voices": 3286,
      "pes": 3287,
      "amongst": 3288,
      "Key": 3289,
      "Lic": 3290,
      "oth": 3291,
      "wan": 3292,
      "lif": 3293,
      "acy": 3294,
      "heavy": 3295,
      "font": 3296,
      "sacri": 3297,
      "scat": 3298,
      "Holy": 3299,
      "SS": 3300,
      "ya": 3301,
      "Follow": 3302,
      "diffic": 3303,
      "tasks": 3304,
      "hardship": 3305,
      "large": 3306,
      "waste": 3307,
      "zing": 3308,
      "ints": 3309,
      "ats": 3310,
      "deb": 3311,
      "ldo": 3312,
      "utes": 3313,
      "twain": 3314,
      "rise": 3315,
      "replace": 3316,
      "encom": 3317,
      "pled": 3318,
      "invalid": 3319,
      "respons": 3320,
      "hosts": 3321,
      "Cus": 3322,
      "athe": 3323,
      "execut": 3324,
      "breasts": 3325,
      "grievous": 3326,
      "TO": 3327,
      "infi": 3328,
      "fur": 3329,
      "five": 3330,
      "turning": 3331,
      "Proper": 3332,
      "visible": 3333,
      "treas": 3334,
      "young": 3335,
      "causes": 3336,
      "mischief": 3337,
      "private": 3338,
      "License": 3339,
      "iers": 3340,
      "front": 3341,
      "amond": 3342,
      "ache": 3343,
      "capt": 3344,
      "obedience": 3345,
      "laugh": 3346,
      "Sam": 3347,
      "clearly": 3348,
      "covered": 3349,
      "rid": 3350,
      "ascribe": 3351,
      "judgement": 3352,
      "Ah": 3353,
      "Power": 3354,
      "ago": 3355,
      "ples": 3356,
      "dialog": 3357,
      "spades": 3358,
      "business": 3359,
      "HTML": 3360,
      "CO": 3361,
      "Link": 3362,
      "Thy": 3363,
      "keys": 3364,
      "signature": 3365,
      "match": 3366,
      "slave": 3367,
      "talking": 3368,
      "protector": 3369,
      "eye": 3370,
      "ugins": 3371,
      "values": 3372,
      "selection": 3373,
      "manner": 3374,
      "Class": 3375,
      "similar": 3376,
      "evildo": 3377,
      "ule": 3378,
      "started": 3379,
      "hours": 3380,
      "companions": 3381,
      "inc": 3382,
      "Remind": 3383,
      "undred": 3384,
      "angel": 3385,
      "activ": 3386,
      "Location": 3387,
      "crimin": 3388,
      "(*": 3389,
      "riage": 3390,
      "iled": 3391,
      "Whom": 3392,
      "eft": 3393,
      "Exchange": 3394,
      "ounts": 3395,
      "tical": 3396,
      "strive": 3397,
      "enjoyment": 3398,
      "thankful": 3399,
      "libr": 3400,
      "ift": 3401,
      "configuration": 3402,
      "Left": 3403,
      "SE": 3404,
      "eness": 3405,
      "whenever": 3406,
      "Messages": 3407,
      "Size": 3408,
      "mary": 3409,
      "force": 3410,
      "coll": 3411,
      "Inst": 3412,
      "ibility": 3413,
      "wage": 3414,
      "begin": 3415,
      "stream": 3416,
      "groups": 3417,
      "birds": 3418,
      "ina": 3419,
      "fighting": 3420,
      "split": 3421,
      "Benef": 3422,
      "convey": 3423,
      "heads": 3424,
      "successful": 3425,
      "Custom": 3426,
      "squ": 3427,
      "render": 3428,
      "prosper": 3429,
      "diamond": 3430,
      "Information": 3431,
      "GH": 3432,
      "sn": 3433,
      "aside": 3434,
      "gotta": 3435,
      "purify": 3436,
      "Line": 3437,
      "Ret": 3438,
      "ban": 3439,
      "willing": 3440,
      "committed": 3441,
      "Ste": 3442,
      "fought": 3443,
      "hundred": 3444,
      "doth": 3445,
      "ifies": 3446,
      "perfect": 3447,
      "fixed": 3448,
      "David": 3449,
      "late": 3450,
      "dece": 3451,
      "plate": 3452,
      "LE": 3453,
      "mun": 3454,
      "Indian": 3455,
      "Email": 3456,
      "lord": 3457,
      "smo": 3458,
      "pha": 3459,
      "ama": 3460,
      "oblig": 3461,
      "steps": 3462,
      "fresh": 3463,
      "liken": 3464,
      "favors": 3465,
      "questioned": 3466,
      "prophet": 3467,
      "fortune": 3468,
      "Act": 3469,
      "places": 3470,
      "oked": 3471,
      "followers": 3472,
      "sinful": 3473,
      "custom": 3474,
      "ignorant": 3475,
      "ross": 3476,
      "gold": 3477,
      "greatest": 3478,
      "Judge": 3479,
      "Beneficent": 3480,
      "diamonds": 3481,
      "Ant": 3482,
      "Bus": 3483,
      "lose": 3484,
      "“%": 3485,
      "star": 3486,
      "pract": 3487,
      "glorify": 3488,
      "reme": 3489,
      "club": 3490,
      "throw": 3491,
      "completed": 3492,
      "Leave": 3493,
      "bondmen": 3494,
      "Char": 3495,
      "lived": 3496,
      "wherewith": 3497,
      "remained": 3498,
      "Game": 3499,
      "Sor": 3500,
      "entire": 3501,
      "destru": 3502,
      "marriage": 3503,
      "servant": 3504,
      "charge": 3505,
      "morrow": 3506,
      "Should": 3507,
      "IP": 3508,
      "pag": 3509,
      "revi": 3510,
      "uta": 3511,
      "ride": 3512,
      "exc": 3513,
      "ferences": 3514,
      "regular": 3515,
      "occurred": 3516,
      "30": 3517,
      "battle": 3518,
      "var": 3519,
      "injustice": 3520,
      "evidences": 3521,
      "liar": 3522,
      "subjected": 3523,
      "clouds": 3524,
      "Joh": 3525,
      "Light": 3526,
      "Sir": 3527,
      "Wid": 3528,
      "wherever": 3529,
      "loaded": 3530,
      "argument": 3531,
      "Ra": 3532,
      "mine": 3533,
      "nment": 3534,
      "cial": 3535,
      "ounce": 3536,
      "purpose": 3537,
      "stayed": 3538,
      "sister": 3539,
      "Configure": 3540,
      "Properties": 3541,
      "RA": 3542,
      "Vers": 3543,
      "eight": 3544,
      "limits": 3545,
      "asero": 3546,
      "door": 3547,
      "history": 3548,
      "guess": 3549,
      "asking": 3550,
      "phone": 3551,
      "parts": 3552,
      "porary": 3553,
      "tt": 3554,
      "third": 3555,
      "Comple": 3556,
      "minutes": 3557,
      "Account": 3558,
      "Glory": 3559,
      "inspired": 3560,
      ")]": 3561,
      "pel": 3562,
      "(.": 3563,
      "SH": 3564,
      "string": 3565,
      "retched": 3566,
      "Alex": 3567,
      "EN": 3568,
      "esh": 3569,
      "limit": 3570,
      "dog": 3571,
      "items": 3572,
      "price": 3573,
      "mothers": 3574,
      "oted": 3575,
      "glory": 3576,
      "double": 3577,
      "strengthen": 3578,
      "palm": 3579,
      "Mis": 3580,
      "iti": 3581,
      "wary": 3582,
      "rightly": 3583,
      "matters": 3584,
      "fle": 3585,
      "Believe": 3586,
      "Anj": 3587,
      "judgment": 3588,
      "sincere": 3589,
      "country": 3590,
      "swi": 3591,
      "style": 3592,
      "Her": 3593,
      "sever": 3594,
      "irt": 3595,
      "ably": 3596,
      "supp": 3597,
      "communications": 3598,
      "idolaters": 3599,
      "Mode": 3600,
      "Encry": 3601,
      "currently": 3602,
      "touched": 3603,
      "NU": 3604,
      "ler": 3605,
      "wonder": 3606,
      "ances": 3607,
      "shame": 3608,
      "named": 3609,
      "companion": 3610,
      "based": 3611,
      "gy": 3612,
      "sort": 3613,
      "uc": 3614,
      "depart": 3615,
      "aged": 3616,
      "Document": 3617,
      "dwelling": 3618,
      "connection": 3619,
      "India": 3620,
      "baby": 3621,
      "evildoers": 3622,
      "\"{": 3623,
      "Jack": 3624,
      "aving": 3625,
      "mn": 3626,
      "exceed": 3627,
      "ourselves": 3628,
      "const": 3629,
      "Mod": 3630,
      "wed": 3631,
      "unable": 3632,
      "earlier": 3633,
      "partic": 3634,
      "gover": 3635,
      "fied": 3636,
      "seconds": 3637,
      "ps": 3638,
      "unknown": 3639,
      "class": 3640,
      "spent": 3641,
      "awa": 3642,
      "helpers": 3643,
      "recipient": 3644,
      "suddenly": 3645,
      "inde": 3646,
      "inhabit": 3647,
      "reli": 3648,
      "manager": 3649,
      "parent": 3650,
      "speaking": 3651,
      "ISO": 3652,
      "Isaac": 3653,
      "Reminder": 3654,
      "11": 3655,
      "mill": 3656,
      "leaves": 3657,
      "avoid": 3658,
      "odule": 3659,
      "profit": 3660,
      "prophets": 3661,
      "hair": 3662,
      "entr": 3663,
      "sett": 3664,
      "mates": 3665,
      "testify": 3666,
      "Value": 3667,
      "actions": 3668,
      "bot": 3669,
      "First": 3670,
      "era": 3671,
      "chance": 3672,
      "suf": 3673,
      "Anjuta": 3674,
      "Kor": 3675,
      "dawn": 3676,
      "alley": 3677,
      "preh": 3678,
      "pursu": 3679,
      "Previous": 3680,
      "Shu": 3681,
      "army": 3682,
      "proxy": 3683,
      "conduct": 3684,
      "dwellers": 3685,
      "_BAR": 3686,
      "mirac": 3687,
      "DO": 3688,
      "sought": 3689,
      "wide": 3690,
      "ference": 3691,
      "antly": 3692,
      "subs": 3693,
      "LDAP": 3694,
      "likeness": 3695,
      "paid": 3696,
      "uf": 3697,
      "ued": 3698,
      "authentication": 3699,
      "Creator": 3700,
      "destruction": 3701,
      "!”": 3702,
      "sex": 3703,
      "fears": 3704,
      "suppor": 3705,
      "!'": 3706,
      "ahead": 3707,
      "cometh": 3708,
      "needs": 3709,
      "pairs": 3710,
      "_BAR_": 3711,
      "becomes": 3712,
      "accounts": 3713,
      "BE": 3714,
      "Public": 3715,
      "hit": 3716,
      "lad": 3717,
      "pts": 3718,
      "ane": 3719,
      "roll": 3720,
      "explain": 3721,
      "camel": 3722,
      "ension": 3723,
      "strike": 3724,
      "Eat": 3725,
      "Sk": 3726,
      "Sin": 3727,
      "strain": 3728,
      "commands": 3729,
      "leaders": 3730,
      "clip": 3731,
      "Spec": 3732,
      "gent": 3733,
      "sli": 3734,
      "uss": 3735,
      "igno": 3736,
      "worst": 3737,
      "result": 3738,
      "Tem": 3739,
      "zy": 3740,
      "although": 3741,
      "ength": 3742,
      "observe": 3743,
      "Almighty": 3744,
      "Preview": 3745,
      "clubs": 3746,
      "Direct": 3747,
      "cities": 3748,
      "reali": 3749,
      "therewith": 3750,
      "Oneness": 3751,
      "Evil": 3752,
      "izontal": 3753,
      "fit": 3754,
      "vol": 3755,
      "arms": 3756,
      "pict": 3757,
      "win": 3758,
      "chose": 3759,
      "Log": 3760,
      "warnings": 3761,
      "John": 3762,
      "MAN": 3763,
      "manently": 3764,
      "aff": 3765,
      "added": 3766,
      "Categ": 3767,
      "Fe": 3768,
      "Nothing": 3769,
      "voice": 3770,
      "desktop": 3771,
      "orphans": 3772,
      "nigh": 3773,
      "Uni": 3774,
      "Place": 3775,
      "honor": 3776,
      "busy": 3777,
      "ancients": 3778,
      "SO": 3779,
      "Thee": 3780,
      "reading": 3781,
      "pathy": 3782,
      "sense": 3783,
      "mentioned": 3784,
      "Lam": 3785,
      "eg": 3786,
      "nations": 3787,
      "ister": 3788,
      "itan": 3789,
      "resur": 3790,
      "maintain": 3791,
      "Able": 3792,
      "CA": 3793,
      "consequ": 3794,
      "affli": 3795,
      "decided": 3796,
      "Maybe": 3797,
      "tomorrow": 3798,
      "preci": 3799,
      "ively": 3800,
      "powerful": 3801,
      "heedless": 3802,
      "Syn": 3803,
      "virtuous": 3804,
      "60": 3805,
      "GP": 3806,
      "ded": 3807,
      "nine": 3808,
      "iter": 3809,
      "stones": 3810,
      "Unseen": 3811,
      "piety": 3812,
      "_Re": 3813,
      "cy": 3814,
      "dle": 3815,
      "Forward": 3816,
      "devil": 3817,
      "resurrect": 3818,
      "Pen": 3819,
      "alt": 3820,
      "assist": 3821,
      "gate": 3822,
      "Selected": 3823,
      "differ": 3824,
      "Disc": 3825,
      "testim": 3826,
      "Prom": 3827,
      "MI": 3828,
      "san": 3829,
      "itation": 3830,
      "umph": 3831,
      "decision": 3832,
      "relatives": 3833,
      "mortal": 3834,
      "Tod": 3835,
      "rul": 3836,
      "uture": 3837,
      "numbers": 3838,
      "assigned": 3839,
      "Hi": 3840,
      "ood": 3841,
      "Whosoever": 3842,
      "righteously": 3843,
      "missions": 3844,
      "toolbar": 3845,
      "inhabitants": 3846,
      "C_": 3847,
      "Fin": 3848,
      "Font": 3849,
      "quick": 3850,
      "springs": 3851,
      "tongue": 3852,
      "Mount": 3853,
      "hun": 3854,
      "rant": 3855,
      "scal": 3856,
      "twi": 3857,
      "police": 3858,
      "joy": 3859,
      "Guard": 3860,
      "various": 3861,
      "Hor": 3862,
      "almost": 3863,
      "usion": 3864,
      "tax": 3865,
      "plugins": 3866,
      "specify": 3867,
      "lines": 3868,
      "advice": 3869,
      "iff": 3870,
      "Loading": 3871,
      "flesh": 3872,
      "000": 3873,
      "successfully": 3874,
      "triumph": 3875,
      "Prophets": 3876,
      "writing": 3877,
      "Two": 3878,
      "mix": 3879,
      "vouch": 3880,
      "wont": 3881,
      "chat": 3882,
      "boiling": 3883,
      "formed": 3884,
      "Export": 3885,
      "blessing": 3886,
      "learn": 3887,
      "MB": 3888,
      "Men": 3889,
      "Mal": 3890,
      "plo": 3891,
      "enna": 3892,
      "dels": 3893,
      "devils": 3894,
      "Cance": 3895,
      "iving": 3896,
      "lean": 3897,
      "web": 3898,
      "ilt": 3899,
      "patiently": 3900,
      "Alexander": 3901,
      "verted": 3902,
      "prayed": 3903,
      "temporary": 3904,
      "Spirit": 3905,
      "Unt": 3906,
      "pted": 3907,
      "Moo": 3908,
      "THE": 3909,
      "ruin": 3910,
      "neglect": 3911,
      "library": 3912,
      "staff": 3913,
      "area": 3914,
      "succeed": 3915,
      "Attach": 3916,
      "mbol": 3917,
      "Put": 3918,
      "Stra": 3919,
      "ba": 3920,
      "rad": 3921,
      "females": 3922,
      "goodly": 3923,
      "whereof": 3924,
      "defend": 3925,
      "Straight": 3926,
      "UCK": 3927,
      "pil": 3928,
      "tection": 3929,
      "punished": 3930,
      "green": 3931,
      "Judgement": 3932,
      "Ow": 3933,
      "non": 3934,
      "dominion": 3935,
      "firmly": 3936,
      "encoun": 3937,
      "URI": 3938,
      "bounties": 3939,
      "24": 3940,
      "alike": 3941,
      "ators": 3942,
      "tocol": 3943,
      "interpret": 3944,
      "Windows": 3945,
      "Ayat": 3946,
      "OK": 3947,
      "isn": 3948,
      "stone": 3949,
      "entry": 3950,
      "perceive": 3951,
      "Majest": 3952,
      "rebellious": 3953,
      "Bless": 3954,
      "Fear": 3955,
      "upright": 3956,
      "forefathers": 3957,
      "preferred": 3958,
      "menu": 3959,
      "Sco": 3960,
      "cir": 3961,
      "mur": 3962,
      "sides": 3963,
      "indec": 3964,
      "alms": 3965,
      "sole": 3966,
      "master": 3967,
      "blis": 3968,
      "hereafter": 3969,
      "grief": 3970,
      "Sorry": 3971,
      "awaits": 3972,
      "settled": 3973,
      "affliction": 3974,
      "02": 3975,
      "Tar": 3976,
      "Taste": 3977,
      "WH": 3978,
      "beings": 3979,
      "tray": 3980,
      "Program": 3981,
      "Toolbar": 3982,
      "Turn": 3983,
      "laid": 3984,
      "uce": 3985,
      "acts": 3986,
      "Hello": 3987,
      "final": 3988,
      "Gracious": 3989,
      "ggle": 3990,
      "Phone": 3991,
      "ximum": 3992,
      "infidels": 3993,
      "Today": 3994,
      "dow": 3995,
      "rier": 3996,
      "Insert": 3997,
      "Mosque": 3998,
      "idea": 3999,
      "struck": 4000,
      "syn": 4001,
      "Brasero": 4002,
      "testimony": 4003,
      "deities": 4004,
      "fool": 4005,
      "Debug": 4006,
      "windows": 4007,
      "equals": 4008,
      "Hold": 4009,
      "Mid": 4010,
      "vari": 4011,
      "lly": 4012,
      "trouble": 4013,
      "exact": 4014,
      "shows": 4015,
      "flowing": 4016,
      "sisters": 4017,
      "Worlds": 4018,
      "Pray": 4019,
      "SC": 4020,
      "ker": 4021,
      "pic": 4022,
      "bearer": 4023,
      "height": 4024,
      "immedi": 4025,
      "damn": 4026,
      "Life": 4027,
      "ja": 4028,
      "onent": 4029,
      "installed": 4030,
      "Top": 4031,
      "gates": 4032,
      "beg": 4033,
      "prove": 4034,
      "winds": 4035,
      "distin": 4036,
      "',": 4037,
      "Ori": 4038,
      "Tom": 4039,
      "valley": 4040,
      "output": 4041,
      "therefrom": 4042,
      "speed": 4043,
      "whereon": 4044,
      "Memo": 4045,
      "Alif": 4046,
      "GNU": 4047,
      "mate": 4048,
      "perish": 4049,
      "wards": 4050,
      "Prof": 4051,
      "associated": 4052,
      "Moosa": 4053,
      "Cor": 4054,
      "El": 4055,
      "threw": 4056,
      "seed": 4057,
      "express": 4058,
      "Alone": 4059,
      "Compassionate": 4060,
      "slaught": 4061,
      "increased": 4062,
      "_P": 4063,
      "hat": 4064,
      "recall": 4065,
      "seas": 4066,
      "alarm": 4067,
      "Load": 4068,
      "lessons": 4069,
      "parable": 4070,
      "Listen": 4071,
      "Update": 4072,
      "IMAP": 4073,
      "15": 4074,
      "owed": 4075,
      "ending": 4076,
      "pot": 4077,
      "lesson": 4078,
      "married": 4079,
      "driven": 4080,
      "animals": 4081,
      "cop": 4082,
      "fish": 4083,
      "ux": 4084,
      "retri": 4085,
      "develop": 4086,
      "fulfil": 4087,
      "uded": 4088,
      "intercession": 4089,
      "moment": 4090,
      "Card": 4091,
      "Di": 4092,
      "ming": 4093,
      "ny": 4094,
      "yout": 4095,
      "Ass": 4096,
      "flu": 4097,
      "Worship": 4098,
      "Configuration": 4099,
      "further": 4100,
      "events": 4101,
      "calf": 4102,
      "thinking": 4103,
      "Bar": 4104,
      "enabled": 4105,
      "terror": 4106,
      "preced": 4107,
      "ganiz": 4108,
      "determined": 4109,
      "Each": 4110,
      "Mi": 4111,
      "bor": 4112,
      "ju": 4113,
      "kin": 4114,
      "sus": 4115,
      "resol": 4116,
      "iders": 4117,
      "Stand": 4118,
      "header": 4119,
      "submitted": 4120,
      "declare": 4121,
      "Object": 4122,
      "San": 4123,
      "dread": 4124,
      "vill": 4125,
      "Read": 4126,
      "kindness": 4127,
      "showed": 4128,
      "Build": 4129,
      "Was": 4130,
      "range": 4131,
      "heir": 4132,
      "theme": 4133,
      "invent": 4134,
      "Among": 4135,
      "grees": 4136,
      "refused": 4137,
      "modify": 4138,
      "wanna": 4139,
      "Sac": 4140,
      "bind": 4141,
      "lin": 4142,
      "rans": 4143,
      "deep": 4144,
      "sacred": 4145,
      "venge": 4146,
      "direction": 4147,
      "criminals": 4148,
      "twice": 4149,
      "14": 4150,
      "Ju": 4151,
      "sell": 4152,
      "imag": 4153,
      "abb": 4154,
      "ulation": 4155,
      "fered": 4156,
      "possessed": 4157,
      "befalls": 4158,
      "ransom": 4159,
      "Gree": 4160,
      "expl": 4161,
      "humble": 4162,
      "interest": 4163,
      "CV": 4164,
      "Junk": 4165,
      "mut": 4166,
      "rot": 4167,
      "fet": 4168,
      "permanently": 4169,
      "Selection": 4170,
      "angle": 4171,
      "joined": 4172,
      "Desktop": 4173,
      "SP": 4174,
      "ours": 4175,
      "team": 4176,
      "despair": 4177,
      "enjoined": 4178,
      "dwellings": 4179,
      "Ear": 4180,
      "orders": 4181,
      "grad": 4182,
      "backend": 4183,
      "Access": 4184,
      "benefits": 4185,
      "household": 4186,
      "existing": 4187,
      "Part": 4188,
      "Photo": 4189,
      "database": 4190,
      "future": 4191,
      "hop": 4192,
      "station": 4193,
      "cele": 4194,
      "ults": 4195,
      "consu": 4196,
      "Manager": 4197,
      "details": 4198,
      "85": 4199,
      "Bre": 4200,
      "GNO": 4201,
      "afore": 4202,
      "leads": 4203,
      "celebr": 4204,
      "Iblis": 4205,
      "stu": 4206,
      "compassionate": 4207,
      "nearer": 4208,
      "channel": 4209,
      "GNOME": 4210,
      "ium": 4211,
      "length": 4212,
      "pix": 4213,
      "thod": 4214,
      "onts": 4215,
      "itself": 4216,
      "description": 4217,
      "locks": 4218,
      "produced": 4219,
      "Empathy": 4220,
      "automatically": 4221,
      "Until": 4222,
      "Mem": 4223,
      "imp": 4224,
      "sold": 4225,
      "penalty": 4226,
      "versity": 4227,
      "associates": 4228,
      "Suff": 4229,
      "footsteps": 4230,
      "fate": 4231,
      "ths": 4232,
      "whoso": 4233,
      "bling": 4234,
      "stru": 4235,
      "calam": 4236,
      "sorrow": 4237,
      "prevent": 4238,
      "mouths": 4239,
      "sacrifice": 4240,
      "difficult": 4241,
      "LO": 4242,
      "Net": 4243,
      "brow": 4244,
      "signed": 4245,
      "uddy": 4246,
      "Always": 4247,
      "invest": 4248,
      "cuments": 4249,
      "mountain": 4250,
      "properties": 4251,
      "Hand": 4252,
      "ade": 4253,
      "nice": 4254,
      "gry": 4255,
      "worshipping": 4256,
      "Contacts": 4257,
      "azing": 4258,
      "confirming": 4259,
      "Cam": 4260,
      "Mim": 4261,
      "omet": 4262,
      "spel": 4263,
      "Gospel": 4264,
      "prescribed": 4265,
      "publ": 4266,
      "Install": 4267,
      "bottom": 4268,
      "vest": 4269,
      "About": 4270,
      "network": 4271,
      "afflicted": 4272,
      "Sacred": 4273,
      "Sum": 4274,
      "Tha": 4275,
      "atory": 4276,
      "demand": 4277,
      "shot": 4278,
      "wasn": 4279,
      "served": 4280,
      "Status": 4281,
      "rejoice": 4282,
      "Hearer": 4283,
      "worry": 4284,
      "solute": 4285,
      "SI": 4286,
      "ore": 4287,
      "insol": 4288,
      "ching": 4289,
      "imate": 4290,
      "safed": 4291,
      "caut": 4292,
      "disobedient": 4293,
      "persons": 4294,
      "disobeyed": 4295,
      "bounds": 4296,
      "Geh": 4297,
      "defined": 4298,
      "Koran": 4299,
      "Brow": 4300,
      "acity": 4301,
      "wrongdoing": 4302,
      "Chang": 4303,
      "writable": 4304,
      "character": 4305,
      "MIME": 4306,
      "LI": 4307,
      "comfort": 4308,
      "early": 4309,
      "invented": 4310,
      "package": 4311,
      "recipients": 4312,
      "Rather": 4313,
      "TS": 4314,
      "bright": 4315,
      "aries": 4316,
      "seize": 4317,
      "stud": 4318,
      "comput": 4319,
      "goodness": 4320,
      "preach": 4321,
      "App": 4322,
      "daughter": 4323,
      "encompass": 4324,
      "Bad": 4325,
      "sets": 4326,
      "root": 4327,
      "hot": 4328,
      "minute": 4329,
      "carried": 4330,
      "chool": 4331,
      "Shaitan": 4332,
      "displayed": 4333,
      "vouchsafed": 4334,
      "CVS": 4335,
      "iah": 4336,
      "attribute": 4337,
      "began": 4338,
      "wherefore": 4339,
      "Stay": 4340,
      "slain": 4341,
      "wished": 4342,
      "decide": 4343,
      "arguments": 4344,
      "pository": 4345,
      "swift": 4346,
      "Gehenna": 4347,
      "Dad": 4348,
      "POP": 4349,
      "wast": 4350,
      "ador": 4351,
      "necess": 4352,
      "missing": 4353,
      "telling": 4354,
      "building": 4355,
      "descendants": 4356,
      "forgotten": 4357,
      "Zoom": 4358,
      "bid": 4359,
      "gush": 4360,
      "title": 4361,
      "icon": 4362,
      "rewarded": 4363,
      "barrier": 4364,
      "chiefs": 4365,
      "Fuck": 4366,
      "fly": 4367,
      "mil": 4368,
      "zed": 4369,
      "gracious": 4370,
      "blown": 4371,
      "Unbelievers": 4372,
      "parties": 4373,
      "unjustly": 4374,
      "recompensed": 4375,
      "towns": 4376,
      "System": 4377,
      "da": 4378,
      "feared": 4379,
      "grain": 4380,
      "Books": 4381,
      "True": 4382,
      "divided": 4383,
      "ignorance": 4384,
      "Rot": 4385,
      "Ter": 4386,
      "flo": 4387,
      "mus": 4388,
      "nar": 4389,
      "unlawful": 4390,
      "worse": 4391,
      "Reply": 4392,
      "Before": 4393,
      "wombs": 4394,
      "Ber": 4395,
      "Dom": 4396,
      "dad": 4397,
      "gun": 4398,
      "thread": 4399,
      "fellow": 4400,
      "maybe": 4401,
      "spirit": 4402,
      "suffering": 4403,
      "separate": 4404,
      "Ya": 4405,
      "fat": 4406,
      "ik": 4407,
      "luck": 4408,
      "saving": 4409,
      "Toggle": 4410,
      "enjoin": 4411,
      "travel": 4412,
      "attachment": 4413,
      "ax": 4414,
      "noble": 4415,
      "aming": 4416,
      "restore": 4417,
      "cool": 4418,
      "viron": 4419,
      "abundance": 4420,
      "Sm": 4421,
      "ball": 4422,
      "cket": 4423,
      "oo": 4424,
      "zz": 4425,
      "orious": 4426,
      "rill": 4427,
      "terms": 4428,
      "desp": 4429,
      "Max": 4430,
      "humiliating": 4431,
      "interpretation": 4432,
      "100": 4433,
      "Tra": 4434,
      "lower": 4435,
      "anch": 4436,
      "wear": 4437,
      "disk": 4438,
      "Author": 4439,
      "API": 4440,
      "ranks": 4441,
      "Main": 4442,
      "South": 4443,
      "special": 4444,
      "However": 4445,
      "ifications": 4446,
      "Event": 4447,
      "Audio": 4448,
      "Download": 4449,
      "pagans": 4450,
      "Mac": 4451,
      "Nuh": 4452,
      "Str": 4453,
      "inity": 4454,
      "leaving": 4455,
      "delay": 4456,
      "pelled": 4457,
      "ico": 4458,
      "looks": 4459,
      "Cause": 4460,
      "Salat": 4461,
      "wine": 4462,
      "input": 4463,
      "anks": 4464,
      "deity": 4465,
      "eved": 4466,
      "differed": 4467,
      "Guardian": 4468,
      "Mic": 4469,
      "Vis": 4470,
      "chron": 4471,
      "cts": 4472,
      "exchange": 4473,
      "submission": 4474,
      "built": 4475,
      "secretly": 4476,
      "Connection": 4477,
      "Origin": 4478,
      "'?": 4479,
      "Cr": 4480,
      "City": 4481,
      "Pers": 4482,
      "asunder": 4483,
      "altern": 4484,
      "acce": 4485,
      "excl": 4486,
      "upd": 4487,
      "ources": 4488,
      "crash": 4489,
      "graves": 4490,
      "ridic": 4491,
      "Cy": 4492,
      "Java": 4493,
      "devi": 4494,
      "qui": 4495,
      "Protect": 4496,
      "Format": 4497,
      "ugg": 4498,
      "Highlight": 4499,
      "flee": 4500,
      "government": 4501,
      "GR": 4502,
      "Pri": 4503,
      "hi": 4504,
      "itions": 4505,
      "deem": 4506,
      "ald": 4507,
      "supre": 4508,
      "White": 4509,
      "wood": 4510,
      "partner": 4511,
      "throne": 4512,
      "advan": 4513,
      "Tasks": 4514,
      "\"?": 4515,
      "DI": 4516,
      "Tur": 4517,
      "swer": 4518,
      "regre": 4519,
      "online": 4520,
      "delight": 4521,
      "ourse": 4522,
      "fee": 4523,
      "apan": 4524,
      "Header": 4525,
      "divorce": 4526,
      "Table": 4527,
      "vin": 4528,
      "ordered": 4529,
      "tored": 4530,
      "trad": 4531,
      "protection": 4532,
      "quar": 4533,
      "tende": 4534,
      "averse": 4535,
      "fing": 4536,
      "atur": 4537,
      "agement": 4538,
      "overcome": 4539,
      "desist": 4540,
      "mailbox": 4541,
      "headers": 4542,
      "ANT": 4543,
      "pledge": 4544,
      "debug": 4545,
      "neath": 4546,
      "usted": 4547,
      "striving": 4548,
      "\";": 4549,
      "SV": 4550,
      "hate": 4551,
      "andon": 4552,
      "haven": 4553,
      "acqu": 4554,
      "worth": 4555,
      "longer": 4556,
      "Vertical": 4557,
      "broken": 4558,
      "openly": 4559,
      "CC": 4560,
      "Draw": 4561,
      "Switch": 4562,
      "thunder": 4563,
      "lia": 4564,
      "ascend": 4565,
      "disbelieving": 4566,
      "flag": 4567,
      "Comp": 4568,
      "looked": 4569,
      "Description": 4570,
      "silver": 4571,
      "Directory": 4572,
      ".).": 4573,
      "Lu": 4574,
      "West": 4575,
      "pages": 4576,
      "defe": 4577,
      "iring": 4578,
      "ishment": 4579,
      "prec": 4580,
      "actually": 4581,
      "visit": 4582,
      "parame": 4583,
      "rows": 4584,
      "buy": 4585,
      "responsible": 4586,
      "willingly": 4587,
      "25": 4588,
      "Bount": 4589,
      "HE": 4590,
      "dumb": 4591,
      "gno": 4592,
      "ume": 4593,
      "erous": 4594,
      "standard": 4595,
      "persist": 4596,
      "gypt": 4597,
      "()": 4598,
      "Yus": 4599,
      "tur": 4600,
      "grand": 4601,
      "blow": 4602,
      "tribe": 4603,
      "inner": 4604,
      "Everlasting": 4605,
      "Bla": 4606,
      "Egypt": 4607,
      "Stri": 4608,
      "usage": 4609,
      "indic": 4610,
      "background": 4611,
      "settle": 4612,
      "choo": 4613,
      "cards": 4614,
      "streams": 4615,
      "23": 4616,
      "Sing": 4617,
      "likes": 4618,
      "rock": 4619,
      "across": 4620,
      "resurrection": 4621,
      "ender": 4622,
      "ignt": 4623,
      "obtain": 4624,
      "vereignt": 4625,
      "Perhaps": 4626,
      "Empty": 4627,
      "satis": 4628,
      "resurrected": 4629,
      "vereignty": 4630,
      "Found": 4631,
      "thren": 4632,
      "points": 4633,
      "design": 4634,
      "Subject": 4635,
      "swallow": 4636,
      "East": 4637,
      "base": 4638,
      "lation": 4639,
      "imum": 4640,
      "urity": 4641,
      "ican": 4642,
      "shade": 4643,
      "creates": 4644,
      "Remo": 4645,
      "await": 4646,
      "underneath": 4647,
      "Authentication": 4648,
      "Yusuf": 4649,
      "Japan": 4650,
      "Port": 4651,
      "Ram": 4652,
      "Rename": 4653,
      "Wit": 4654,
      "`%": 4655,
      "wretched": 4656,
      "antic": 4657,
      "fulfill": 4658,
      "Whenever": 4659,
      "broke": 4660,
      "brethren": 4661,
      "Muslim": 4662,
      "drawn": 4663,
      "scattered": 4664,
      "clipboard": 4665,
      "Horizontal": 4666,
      "*.": 4667,
      "couch": 4668,
      "zone": 4669,
      "ornam": 4670,
      "heal": 4671,
      "outside": 4672,
      "permissions": 4673,
      "finished": 4674,
      "important": 4675,
      "recognize": 4676,
      "'{": 4677,
      "rising": 4678,
      "often": 4679,
      "entation": 4680,
      "Exp": 4681,
      "preser": 4682,
      "pride": 4683,
      "Preferences": 4684,
      "Post": 4685,
      "supreme": 4686,
      "_Open": 4687,
      "rank": 4688,
      "initi": 4689,
      "weigh": 4690,
      "disease": 4691,
      "holds": 4692,
      "obeyed": 4693,
      "condition": 4694,
      "software": 4695,
      "encounter": 4696,
      "immediately": 4697,
      "vironment": 4698,
      "Night": 4699,
      "Neither": 4700,
      "Und": 4701,
      "gor": 4702,
      "gift": 4703,
      "pick": 4704,
      "thir": 4705,
      "isco": 4706,
      "forgives": 4707,
      "abandon": 4708,
      "careful": 4709,
      "Grace": 4710,
      "Jo": 4711,
      "Mult": 4712,
      "ets": 4713,
      "hire": 4714,
      "kah": 4715,
      "nay": 4716,
      "degrees": 4717,
      "deniers": 4718,
      "fallen": 4719,
      "Sufficient": 4720,
      "Hy": 4721,
      "II": 4722,
      "Id": 4723,
      "bag": 4724,
      "wouldn": 4725,
      "devot": 4726,
      "expend": 4727,
      "Apply": 4728,
      "summon": 4729,
      "Penalty": 4730,
      "Lat": 4731,
      "inmates": 4732,
      "oding": 4733,
      "icing": 4734,
      "loved": 4735,
      "Local": 4736,
      "couldn": 4737,
      "reminded": 4738,
      "orphan": 4739,
      "Burning": 4740,
      "shel": 4741,
      "insert": 4742,
      "cease": 4743,
      "adorn": 4744,
      "unbelief": 4745,
      "sugg": 4746,
      "creature": 4747,
      "mislead": 4748,
      "licate": 4749,
      "breathe": 4750,
      "argue": 4751,
      "bellies": 4752,
      "tongues": 4753,
      "Div": 4754,
      "Pun": 4755,
      "ivers": 4756,
      "junk": 4757,
      "ini": 4758,
      "deceive": 4759,
      "proceed": 4760,
      "humans": 4761,
      "wrap": 4762,
      "several": 4763,
      "Face": 4764,
      "Soft": 4765,
      "Watch": 4766,
      "fonts": 4767,
      "migr": 4768,
      "beware": 4769,
      "ainted": 4770,
      "shirt": 4771,
      "spoken": 4772,
      "GHS": 4773,
      "Owner": 4774,
      ",'": 4775,
      ";-": 4776,
      "Aust": 4777,
      "Mer": 4778,
      "Mad": 4779,
      "ict": 4780,
      "urat": 4781,
      "riches": 4782,
      "Reg": 4783,
      "Sort": 4784,
      "TL": 4785,
      "extreme": 4786,
      "calamity": 4787,
      "Witness": 4788,
      "Bug": 4789,
      "Try": 4790,
      "dry": 4791,
      "ka": 4792,
      "recur": 4793,
      "amount": 4794,
      "exper": 4795,
      "offering": 4796,
      "Trash": 4797,
      "Arch": 4798,
      "completely": 4799,
      "HTTP": 4800,
      "strayed": 4801,
      "16": 4802,
      "Father": 4803,
      "inj": 4804,
      "rev": 4805,
      "noon": 4806,
      "notification": 4807,
      "river": 4808,
      "compreh": 4809,
      "boys": 4810,
      "midst": 4811,
      "Med": 4812,
      "inese": 4813,
      "akat": 4814,
      "misdeeds": 4815,
      "misfortune": 4816,
      "memory": 4817,
      "Trust": 4818,
      "mitted": 4819,
      "killing": 4820,
      "restri": 4821,
      "Wherefore": 4822,
      "tarried": 4823,
      "storm": 4824,
      "Width": 4825,
      "GRUN": 4826,
      "school": 4827,
      "tag": 4828,
      "fold": 4829,
      "trash": 4830,
      "illa": 4831,
      "colle": 4832,
      "skins": 4833,
      "surrender": 4834,
      "profile": 4835,
      "Sar": 4836,
      "Sali": 4837,
      "hang": 4838,
      "zoom": 4839,
      "frust": 4840,
      "barren": 4841,
      "provides": 4842,
      "disputed": 4843,
      "SSL": 4844,
      "_Add": 4845,
      "inno": 4846,
      "bles": 4847,
      "prefer": 4848,
      "offic": 4849,
      "template": 4850,
      "magician": 4851,
      "praises": 4852,
      "abundant": 4853,
      "sealed": 4854,
      "pilgr": 4855,
      "Py": 4856,
      "native": 4857,
      "lets": 4858,
      "Taurat": 4859,
      "closed": 4860,
      "Bri": 4861,
      "Many": 4862,
      "bum": 4863,
      "everlasting": 4864,
      "protocol": 4865,
      "yeah": 4866,
      "bliss": 4867,
      "ithm": 4868,
      "supposed": 4869,
      "Reset": 4870,
      "informed": 4871,
      "sweet": 4872,
      "marked": 4873,
      "objects": 4874,
      "clothe": 4875,
      "original": 4876,
      "Cancel": 4877,
      "\":": 4878,
      "PI": 4879,
      "ram": 4880,
      "sco": 4881,
      "ority": 4882,
      "beha": 4883,
      "asy": 4884,
      "Wel": 4885,
      "teth": 4886,
      "godfearing": 4887,
      "payment": 4888,
      "paper": 4889,
      "Blessed": 4890,
      "Icon": 4891,
      "Russ": 4892,
      "_Copy": 4893,
      "scale": 4894,
      "ational": 4895,
      "aging": 4896,
      "calcul": 4897,
      "thrown": 4898,
      "parse": 4899,
      "possessions": 4900,
      "counsel": 4901,
      "piece": 4902,
      "aforetime": 4903,
      "suggest": 4904,
      "Uh": 4905,
      "bul": 4906,
      "heat": 4907,
      "restored": 4908,
      "perse": 4909,
      "desired": 4910,
      "rename": 4911,
      "penit": 4912,
      "crazy": 4913,
      "collect": 4914,
      "index": 4915,
      "regret": 4916,
      "Salih": 4917,
      "DA": 4918,
      "bin": 4919,
      "block": 4920,
      "cou": 4921,
      "satan": 4922,
      "whis": 4923,
      "Soon": 4924,
      "common": 4925,
      "cious": 4926,
      "playing": 4927,
      "hapter": 4928,
      "ieve": 4929,
      "media": 4930,
      "secrets": 4931,
      "connected": 4932,
      "characters": 4933,
      "sanct": 4934,
      "Application": 4935,
      "18": 4936,
      "Field": 4937,
      "Ham": 4938,
      "itute": 4939,
      "ston": 4940,
      "areth": 4941,
      "convers": 4942,
      "quite": 4943,
      "rendered": 4944,
      "invite": 4945,
      "questions": 4946,
      "watching": 4947,
      "pieces": 4948,
      "pour": 4949,
      "oub": 4950,
      "ley": 4951,
      "idence": 4952,
      "Andy": 4953,
      "allies": 4954,
      "ability": 4955,
      "train": 4956,
      "loc": 4957,
      "endure": 4958,
      "polit": 4959,
      "ishing": 4960,
      "gotten": 4961,
      "refuse": 4962,
      "palms": 4963,
      "Automatically": 4964,
      "bably": 4965,
      "pretty": 4966,
      "Universe": 4967,
      "cautious": 4968,
      "couches": 4969,
      "IF": 4970,
      "stret": 4971,
      "ically": 4972,
      "faults": 4973,
      "subst": 4974,
      "purified": 4975,
      "magicians": 4976,
      "Level": 4977,
      "excuse": 4978,
      "Mom": 4979,
      "_Save": 4980,
      "trem": 4981,
      "}\".": 4982,
      "aright": 4983,
      "Weather": 4984,
      "oples": 4985,
      "via": 4986,
      "overtook": 4987,
      "certainty": 4988,
      "lications": 4989,
      "visions": 4990,
      "meaning": 4991,
      "miracles": 4992,
      "realize": 4993,
      ".),": 4994,
      "17": 4995,
      "MA": 4996,
      "cache": 4997,
      "gest": 4998,
      "aren": 4999,
      "roof": 5000,
      "excess": 5001,
      "hosp": 5002,
      "authentic": 5003,
      "driver": 5004,
      "Everything": 5005,
      "Saving": 5006,
      "detail": 5007,
      ";{": 5008,
      "GL": 5009,
      "Hast": 5010,
      "Test": 5011,
      "_S": 5012,
      "flight": 5013,
      "iver": 5014,
      "iration": 5015,
      "roast": 5016,
      "mael": 5017,
      "necks": 5018,
      "otherwise": 5019,
      "goods": 5020,
      "cost": 5021,
      "guardians": 5022,
      "sorce": 5023,
      "burdens": 5024,
      "prevented": 5025,
      "htt": 5026,
      "err": 5027,
      "rove": 5028,
      "terday": 5029,
      "blast": 5030,
      "Chinese": 5031,
      "interced": 5032,
      "resting": 5033,
      "picture": 5034,
      ".,": 5035,
      "Cisco": 5036,
      "VE": 5037,
      "bon": 5038,
      "reet": 5039,
      "reform": 5040,
      "emer": 5041,
      "Deta": 5042,
      "operations": 5043,
      "similitude": 5044,
      "Contin": 5045,
      "treaty": 5046,
      "hatred": 5047,
      "Center": 5048,
      "Coun": 5049,
      "GE": 5050,
      "awe": 5051,
      "mity": 5052,
      "mouse": 5053,
      "While": 5054,
      "shalt": 5055,
      "anyway": 5056,
      "ills": 5057,
      "leting": 5058,
      "huh": 5059,
      "trusted": 5060,
      "minds": 5061,
      "cuses": 5062,
      "Seeing": 5063,
      "utterly": 5064,
      "popup": 5065,
      "gentle": 5066,
      "Welcome": 5067,
      "Fun": 5068,
      "NA": 5069,
      "Zali": 5070,
      "bank": 5071,
      "behalf": 5072,
      "mocked": 5073,
      "More": 5074,
      "cery": 5075,
      "Dec": 5076,
      "crime": 5077,
      "Column": 5078,
      "strait": 5079,
      "Maryam": 5080,
      "fields": 5081,
      "safety": 5082,
      "President": 5083,
      "debt": 5084,
      "particip": 5085,
      "Hon": 5086,
      "sland": 5087,
      "intell": 5088,
      "arest": 5089,
      "conject": 5090,
      "Copying": 5091,
      "Black": 5092,
      "sitting": 5093,
      "shoot": 5094,
      "indecency": 5095,
      "859": 5096,
      "Ish": 5097,
      "fif": 5098,
      "rush": 5099,
      "betray": 5100,
      "mere": 5101,
      "saith": 5102,
      "exalt": 5103,
      "shut": 5104,
      "serious": 5105,
      "likely": 5106,
      "lands": 5107,
      "worked": 5108,
      "compress": 5109,
      "summary": 5110,
      "garments": 5111,
      "Zalimun": 5112,
      "Ger": 5113,
      "XML": 5114,
      "aib": 5115,
      "lust": 5116,
      "ored": 5117,
      "office": 5118,
      "frame": 5119,
      "sail": 5120,
      "plent": 5121,
      "spouses": 5122,
      "choice": 5123,
      "surround": 5124,
      "camera": 5125,
      "Encryption": 5126,
      "**": 5127,
      "snow": 5128,
      "swo": 5129,
      "sens": 5130,
      "ita": 5131,
      "itial": 5132,
      "detect": 5133,
      "Height": 5134,
      "exit": 5135,
      "agre": 5136,
      "tast": 5137,
      "hears": 5138,
      "cursor": 5139,
      "avan": 5140,
      "ONE": 5141,
      "Background": 5142,
      "ancient": 5143,
      "million": 5144,
      "Again": 5145,
      "Sur": 5146,
      "Tag": 5147,
      "cue": 5148,
      "dig": 5149,
      "enable": 5150,
      "estern": 5151,
      "peoples": 5152,
      "proved": 5153,
      "poser": 5154,
      "holy": 5155,
      "dies": 5156,
      "aked": 5157,
      "Engl": 5158,
      "president": 5159,
      "chaste": 5160,
      "books": 5161,
      "distance": 5162,
      "appeared": 5163,
      "ometimes": 5164,
      "devotion": 5165,
      "English": 5166,
      "40": 5167,
      "UT": 5168,
      "amed": 5169,
      "disobedience": 5170,
      "sorcery": 5171,
      "slew": 5172,
      "honourable": 5173,
      "issue": 5174,
      "Ishmael": 5175,
      ",’": 5176,
      "8859": 5177,
      "ell": 5178,
      "py": 5179,
      "excuses": 5180,
      "guile": 5181,
      "Note": 5182,
      "emigr": 5183,
      "Therein": 5184,
      "armies": 5185,
      "LAU": 5186,
      "Network": 5187,
      "sorcerer": 5188,
      "Hu": 5189,
      "Master": 5190,
      "hib": 5191,
      "qun": 5192,
      "tons": 5193,
      "wand": 5194,
      "thood": 5195,
      "org": 5196,
      "asing": 5197,
      "Track": 5198,
      "ounced": 5199,
      "advance": 5200,
      "Retri": 5201,
      "Prompt": 5202,
      "Summary": 5203,
      "Protector": 5204,
      "Dou": 5205,
      "Dist": 5206,
      "Fit": 5207,
      "site": 5208,
      "uary": 5209,
      "iron": 5210,
      "motion": 5211,
      "tage": 5212,
      "seems": 5213,
      "plement": 5214,
      "flags": 5215,
      "mindful": 5216,
      "harmdoers": 5217,
      "Maximum": 5218,
      "girls": 5219,
      "laden": 5220,
      "Category": 5221,
      "Austra": 5222,
      "Dep": 5223,
      "Mut": 5224,
      "_New": 5225,
      "exerc": 5226,
      "conde": 5227,
      "disbelieves": 5228,
      "cold": 5229,
      "commandment": 5230,
      "promises": 5231,
      "nights": 5232,
      "played": 5233,
      "guideth": 5234,
      "survi": 5235,
      "Accept": 5236,
      "Automatic": 5237,
      "scheme": 5238,
      "Record": 5239,
      "http": 5240,
      "Lut": 5241,
      "Tri": 5242,
      "avert": 5243,
      "bly": 5244,
      "kins": 5245,
      "istr": 5246,
      "adversity": 5247,
      "amin": 5248,
      "printer": 5249,
      "generation": 5250,
      "balance": 5251,
      "ruined": 5252,
      "REA": 5253,
      "Specify": 5254,
      "exactly": 5255,
      "Dest": 5256,
      "Gra": 5257,
      "Vol": 5258,
      "lab": 5259,
      "uation": 5260,
      "mach": 5261,
      "neigh": 5262,
      "handle": 5263,
      "prostrating": 5264,
      "Upon": 5265,
      "relation": 5266,
      "photos": 5267,
      "Prayer": 5268,
      "Break": 5269,
      "Eli": 5270,
      "MD": 5271,
      "RI": 5272,
      "Rom": 5273,
      "Snow": 5274,
      "pull": 5275,
      "beat": 5276,
      "weap": 5277,
      "geth": 5278,
      "sym": 5279,
      "transgression": 5280,
      "Appoint": 5281,
      "virtue": 5282,
      "strengthened": 5283,
      "sexual": 5284,
      "Earth": 5285,
      "Hud": 5286,
      "Langu": 5287,
      "ked": 5288,
      "Rece": 5289,
      "Replace": 5290,
      "scoff": 5291,
      "devour": 5292,
      "reaches": 5293,
      "requited": 5294,
      "recorded": 5295,
      "Makkah": 5296,
      "Changes": 5297,
      "ornaments": 5298,
      "adornment": 5299,
      ",”": 5300,
      "Bur": 5301,
      "Sun": 5302,
      "_m": 5303,
      "cook": 5304,
      "itive": 5305,
      "plead": 5306,
      "falls": 5307,
      "addresses": 5308,
      "protectors": 5309,
      "client": 5310,
      "incline": 5311,
      "requested": 5312,
      "dreams": 5313,
      "Assist": 5314,
      "Da": 5315,
      "Gre": 5316,
      "danger": 5317,
      "ival": 5318,
      "method": 5319,
      "ila": 5320,
      "exposed": 5321,
      "ards": 5322,
      "disclose": 5323,
      "awful": 5324,
      "ails": 5325,
      "Very": 5326,
      "ashion": 5327,
      "corrupt": 5328,
      "Label": 5329,
      "happiness": 5330,
      "husbands": 5331,
      "Del": 5332,
      "üh": 5333,
      "Godwary": 5334,
      "needed": 5335,
      "rule": 5336,
      "desert": 5337,
      "separated": 5338,
      "encrypted": 5339,
      "crop": 5340,
      "han": 5341,
      "nu": 5342,
      "rang": 5343,
      "bears": 5344,
      "achieve": 5345,
      "Thereupon": 5346,
      "Extract": 5347,
      "Alas": 5348,
      "layout": 5349,
      "happens": 5350,
      "retrieve": 5351,
      "village": 5352,
      "Bounty": 5353,
      "Cut": 5354,
      "EX": 5355,
      "bri": 5356,
      "jack": 5357,
      "nic": 5358,
      "inflict": 5359,
      "restrain": 5360,
      "update": 5361,
      "progress": 5362,
      "Info": 5363,
      "mailing": 5364,
      "breast": 5365,
      "bookmarks": 5366,
      "honoured": 5367,
      "Pos": 5368,
      "Office": 5369,
      "Everyone": 5370,
      "ogle": 5371,
      "stronger": 5372,
      "links": 5373,
      "middle": 5374,
      "Fight": 5375,
      "Lit": 5376,
      "Rain": 5377,
      "Under": 5378,
      "Yah": 5379,
      "_e": 5380,
      "lod": 5381,
      "rik": 5382,
      "external": 5383,
      "expel": 5384,
      "shape": 5385,
      "sender": 5386,
      "AND": 5387,
      "arrive": 5388,
      "ancy": 5389,
      "treasures": 5390,
      "computer": 5391,
      "exclus": 5392,
      "++": 5393,
      "Wal": 5394,
      "cas": 5395,
      "drew": 5396,
      "yield": 5397,
      "resource": 5398,
      "clining": 5399,
      "normal": 5400,
      "passing": 5401,
      "keeping": 5402,
      "relative": 5403,
      "fabricate": 5404,
      "Warning": 5405,
      "Version": 5406,
      "ührer": 5407,
      "Bro": 5408,
      "cow": 5409,
      "pit": 5410,
      "uced": 5411,
      "resh": 5412,
      "withdraw": 5413,
      "doer": 5414,
      "pear": 5415,
      "compl": 5416,
      "ulate": 5417,
      "consp": 5418,
      "guests": 5419,
      "pron": 5420,
      "eving": 5421,
      "denies": 5422,
      "----": 5423,
      "pleasing": 5424,
      "devoted": 5425,
      "arrived": 5426,
      "resul": 5427,
      "assem": 5428,
      "rillic": 5429,
      "cing": 5430,
      "Three": 5431,
      "appreci": 5432,
      "bolic": 5433,
      "harvest": 5434,
      "guarded": 5435,
      "highlight": 5436,
      "burned": 5437,
      "Subversion": 5438,
      "admitted": 5439,
      "Verses": 5440,
      ")?\"": 5441,
      "CE": 5442,
      "Imag": 5443,
      "nig": 5444,
      "ening": 5445,
      "llen": 5446,
      "notify": 5447,
      "sage": 5448,
      "moved": 5449,
      "Requ": 5450,
      "Proclaim": 5451,
      "miser": 5452,
      "rewards": 5453,
      "recently": 5454,
      "Meeting": 5455,
      "Viewer": 5456,
      "expects": 5457,
      "admonish": 5458,
      "animal": 5459,
      "inheritance": 5460,
      "Connect": 5461,
      "pursued": 5462,
      "Software": 5463,
      "hospital": 5464,
      "Position": 5465,
      "ALL": 5466,
      "EA": 5467,
      "arrest": 5468,
      "veget": 5469,
      "usury": 5470,
      "disting": 5471,
      "disabled": 5472,
      "probably": 5473,
      "strained": 5474,
      "addy": 5475,
      "discourse": 5476,
      "increases": 5477,
      "allows": 5478,
      "integr": 5479,
      "Midian": 5480,
      "abbath": 5481,
      "distingu": 5482,
      "GO": 5483,
      "ius": 5484,
      "uni": 5485,
      "extra": 5486,
      "upper": 5487,
      "justly": 5488,
      "worshipers": 5489,
      "holding": 5490,
      "presented": 5491,
      "Box": 5492,
      "existence": 5493,
      "requests": 5494,
      "kids": 5495,
      "Australia": 5496,
      "Av": 5497,
      "CT": 5498,
      "IR": 5499,
      "dra": 5500,
      "nature": 5501,
      "slot": 5502,
      "dep": 5503,
      "tery": 5504,
      "rase": 5505,
      "quer": 5506,
      "quality": 5507,
      "Ark": 5508,
      "tonight": 5509,
      "Mailbox": 5510,
      "Flag": 5511,
      "solemn": 5512,
      "celebrate": 5513,
      "stuff": 5514,
      "pixels": 5515,
      "\")": 5516,
      "13": 5517,
      "Mag": 5518,
      "Module": 5519,
      "bing": 5520,
      "jj": 5521,
      "west": 5522,
      "neck": 5523,
      "iga": 5524,
      "colors": 5525,
      "fabricated": 5526,
      "axis": 5527,
      "(\"": 5528,
      "Führer": 5529,
      "bas": 5530,
      "module": 5531,
      "Week": 5532,
      "adu": 5533,
      "tedly": 5534,
      "judges": 5535,
      "figure": 5536,
      "generous": 5537,
      "statement": 5538,
      "Support": 5539,
      "Kingdom": 5540,
      "Remote": 5541,
      "Fav": 5542,
      "MP": 5543,
      "Pack": 5544,
      "Sent": 5545,
      "sport": 5546,
      "section": 5547,
      "asp": 5548,
      "shout": 5549,
      "felt": 5550,
      "yellow": 5551,
      "istan": 5552,
      "download": 5553,
      "cally": 5554,
      "Issu": 5555,
      "visited": 5556,
      "grave": 5557,
      "denying": 5558,
      "bitter": 5559,
      "greet": 5560,
      "Host": 5561,
      "Output": 5562,
      "ordinate": 5563,
      "Missing": 5564,
      "A_": 5565,
      "Pal": 5566,
      "Scan": 5567,
      "categ": 5568,
      "eks": 5569,
      "onal": 5570,
      "stories": 5571,
      "ford": 5572,
      "ops": 5573,
      "didst": 5574,
      "cially": 5575,
      "keeps": 5576,
      "Folders": 5577,
      "loveth": 5578,
      "Normal": 5579,
      "canceled": 5580,
      "Lay": 5581,
      "PH": 5582,
      "Ze": 5583,
      "center": 5584,
      "thon": 5585,
      "pets": 5586,
      "abiding": 5587,
      "uls": 5588,
      "giveth": 5589,
      "Messiah": 5590,
      "Alpha": 5591,
      "Compan": 5592,
      "slow": 5593,
      "requite": 5594,
      "sendeth": 5595,
      "stern": 5596,
      "attachments": 5597,
      "Drag": 5598,
      "Debugger": 5599,
      "distinct": 5600,
      "study": 5601,
      "oubtedly": 5602,
      "Bes": 5603,
      "DPI": 5604,
      "ED": 5605,
      "Gabri": 5606,
      "Kon": 5607,
      "Mor": 5608,
      "Off": 5609,
      "Tal": 5610,
      "rehear": 5611,
      "forged": 5612,
      "depend": 5613,
      "prohib": 5614,
      "anymore": 5615,
      "receiving": 5616,
      "mbly": 5617,
      "199": 5618,
      "welve": 5619,
      "consequence": 5620,
      "niggard": 5621,
      "Job": 5622,
      "Mat": 5623,
      "etern": 5624,
      "omen": 5625,
      "suitable": 5626,
      "rescu": 5627,
      "evident": 5628,
      "pens": 5629,
      "corn": 5630,
      "launch": 5631,
      "rebellion": 5632,
      "dreadful": 5633,
      "Cyrillic": 5634,
      "frustrate": 5635,
      "1st": 5636,
      "Aye": 5637,
      "Obey": 5638,
      "PGP": 5639,
      "dpi": 5640,
      "scribe": 5641,
      "forced": 5642,
      "expelled": 5643,
      "loan": 5644,
      "disd": 5645,
      "fuel": 5646,
      "tested": 5647,
      "suffices": 5648,
      "pressed": 5649,
      "learned": 5650,
      "expand": 5651,
      "attention": 5652,
      "simple": 5653,
      "Return": 5654,
      "necessary": 5655,
      "Continue": 5656,
      "Pat": 5657,
      "fashion": 5658,
      "incur": 5659,
      "rele": 5660,
      "aby": 5661,
      "giver": 5662,
      "tached": 5663,
      "query": 5664,
      "useful": 5665,
      "Whoso": 5666,
      "scroll": 5667,
      "charged": 5668,
      "honest": 5669,
      "Poss": 5670,
      "spoke": 5671,
      "wax": 5672,
      "subscribe": 5673,
      "ilies": 5674,
      "pent": 5675,
      "thine": 5676,
      "Allow": 5677,
      "merely": 5678,
      "weep": 5679,
      "icons": 5680,
      "fection": 5681,
      "Decre": 5682,
      "steal": 5683,
      "Pelle": 5684,
      "Player": 5685,
      "encryption": 5686,
      "Powerful": 5687,
      "hunger": 5688,
      "Majestic": 5689,
      "browser": 5690,
      "innocent": 5691,
      "Details": 5692,
      "Dev": 5693,
      "enmity": 5694,
      "defi": 5695,
      "tran": 5696,
      "quake": 5697,
      "ips": 5698,
      "blazing": 5699,
      "clude": 5700,
      "strugg": 5701,
      "startup": 5702,
      "families": 5703,
      "humility": 5704,
      "humbled": 5705,
      "successors": 5706,
      "thoughts": 5707,
      "confirmation": 5708,
      "multiple": 5709,
      "suffice": 5710,
      "exercise": 5711,
      "hort": 5712,
      "ris": 5713,
      "andom": 5714,
      "adul": 5715,
      "Whose": 5716,
      "locally": 5717,
      "owners": 5718,
      "Device": 5719,
      "greeting": 5720,
      "regarded": 5721,
      "Checking": 5722,
      "closer": 5723,
      "starts": 5724,
      "mutual": 5725,
      "intercede": 5726,
      "Assistant": 5727,
      "Gabriel": 5728,
      "gree": 5729,
      "tro": 5730,
      "reth": 5731,
      "Bookmark": 5732,
      "finish": 5733,
      "applications": 5734,
      "Completed": 5735,
      "Sel": 5736,
      "games": 5737,
      "ote": 5738,
      "uk": 5739,
      "ww": 5740,
      "wound": 5741,
      "angry": 5742,
      "alle": 5743,
      "mood": 5744,
      "pol": 5745,
      "overtake": 5746,
      "Google": 5747,
      "Signature": 5748,
      "differences": 5749,
      "North": 5750,
      "Internet": 5751,
      "Little": 5752,
      "Wisdom": 5753,
      "ada": 5754,
      "ifier": 5755,
      "strange": 5756,
      "suppose": 5757,
      "buff": 5758,
      "symbol": 5759,
      "lamp": 5760,
      "trade": 5761,
      "beauty": 5762,
      "crooked": 5763,
      "accepts": 5764,
      "tendee": 5765,
      "gorithm": 5766,
      "agreed": 5767,
      "AB": 5768,
      "FUCK": 5769,
      "MAPI": 5770,
      "Sabbath": 5771,
      "beasts": 5772,
      "liation": 5773,
      "uding": 5774,
      "obvious": 5775,
      "Ext": 5776,
      "transgressed": 5777,
      "prostration": 5778,
      "stood": 5779,
      "covering": 5780,
      "packages": 5781,
      "Standard": 5782,
      "Punishment": 5783,
      "Doug": 5784,
      "Count": 5785,
      "S_": 5786,
      "Sn": 5787,
      "Sty": 5788,
      "Tree": 5789,
      "Vari": 5790,
      "fount": 5791,
      "gers": 5792,
      "scre": 5793,
      "recon": 5794,
      "eder": 5795,
      "bered": 5796,
      "veil": 5797,
      "lid": 5798,
      "gious": 5799,
      "Remem": 5800,
      "dict": 5801,
      "avig": 5802,
      "cruc": 5803,
      "ashes": 5804,
      "compens": 5805,
      "tributed": 5806,
      "Arabs": 5807,
      "Control": 5808,
      "Busy": 5809,
      "heirs": 5810,
      "ridicule": 5811,
      "Remembrance": 5812,
      "PLA": 5813,
      "_All": 5814,
      "clock": 5815,
      "oce": 5816,
      "repository": 5817,
      "icken": 5818,
      "afterwards": 5819,
      "however": 5820,
      "intend": 5821,
      "laws": 5822,
      "personal": 5823,
      "OUT": 5824,
      "deluded": 5825,
      "oppressed": 5826,
      "expression": 5827,
      "Greek": 5828,
      "published": 5829,
      "shelter": 5830,
      "CMS": 5831,
      "IL": 5832,
      "Its": 5833,
      "Title": 5834,
      "asphe": 5835,
      "notifications": 5836,
      "doors": 5837,
      "amb": 5838,
      "buttons": 5839,
      "creating": 5840,
      "permitted": 5841,
      "Seer": 5842,
      "letter": 5843,
      "Exc": 5844,
      "invited": 5845,
      "grade": 5846,
      "ministr": 5847,
      "Short": 5848,
      "Praiseworthy": 5849,
      "closing": 5850,
      "Ba": 5851,
      "Dra": 5852,
      "Due": 5853,
      "Flo": 5854,
      "Rever": 5855,
      "Sul": 5856,
      "TER": 5857,
      "cure": 5858,
      "twelve": 5859,
      "va": 5860,
      "xic": 5861,
      "ince": 5862,
      "ert": 5863,
      "verify": 5864,
      "iment": 5865,
      "imal": 5866,
      "units": 5867,
      "Think": 5868,
      "iced": 5869,
      "ulty": 5870,
      "shake": 5871,
      "neth": 5872,
      "management": 5873,
      "plans": 5874,
      "Initial": 5875,
      "bore": 5876,
      "ception": 5877,
      "izes": 5878,
      "Execut": 5879,
      "warners": 5880,
      "Couldn": 5881,
      "strip": 5882,
      "drinking": 5883,
      "stored": 5884,
      "feeling": 5885,
      "weakness": 5886,
      "Quick": 5887,
      "welcome": 5888,
      "updated": 5889,
      "PA": 5890,
      "Rad": 5891,
      "Spl": 5892,
      "ots": 5893,
      "song": 5894,
      "udes": 5895,
      "proach": 5896,
      "proportion": 5897,
      "Additional": 5898,
      "falling": 5899,
      "starting": 5900,
      "Atl": 5901,
      "European": 5902,
      "repeat": 5903,
      "practice": 5904,
      "quickly": 5905,
      "Attachment": 5906,
      "crops": 5907,
      "Kai": 5908,
      "Match": 5909,
      "WE": 5910,
      "befell": 5911,
      "kets": 5912,
      "aint": 5913,
      "olf": 5914,
      "Request": 5915,
      "Days": 5916,
      "component": 5917,
      "tificates": 5918,
      "prostrated": 5919,
      "knowingly": 5920,
      "victorious": 5921,
      "dealt": 5922,
      "Write": 5923,
      "Warn": 5924,
      "potent": 5925,
      "couple": 5926,
      "results": 5927,
      "Blog": 5928,
      "GRO": 5929,
      "KING": 5930,
      "Map": 5931,
      "bol": 5932,
      "ongeth": 5933,
      "ric": 5934,
      "Thanks": 5935,
      "grants": 5936,
      "blasphe": 5937,
      "clar": 5938,
      "unders": 5939,
      "additional": 5940,
      "sheep": 5941,
      "latter": 5942,
      "queen": 5943,
      "Words": 5944,
      "constant": 5945,
      "explained": 5946,
      "Rotate": 5947,
      "Foundation": 5948,
      "pilgrimage": 5949,
      "ee": 5950,
      "mac": 5951,
      "orts": 5952,
      "aly": 5953,
      "users": 5954,
      "ample": 5955,
      "shadow": 5956,
      "aggress": 5957,
      "vior": 5958,
      "boast": 5959,
      "whel": 5960,
      "Forbearing": 5961,
      "camels": 5962,
      "mistake": 5963,
      "members": 5964,
      "Chat": 5965,
      "Once": 5966,
      "surrendered": 5967,
      "Supreme": 5968,
      "intercessors": 5969,
      "binding": 5970,
      "Undo": 5971,
      "Multip": 5972,
      "niggardly": 5973,
      "Aad": 5974,
      "GA": 5975,
      "Kill": 5976,
      "Law": 5977,
      "Miss": 5978,
      "catch": 5979,
      "push": 5980,
      "ana": 5981,
      "lla": 5982,
      "ofty": 5983,
      "maid": 5984,
      "contr": 5985,
      "Really": 5986,
      "Proxy": 5987,
      "State": 5988,
      "opening": 5989,
      "glass": 5990,
      "paths": 5991,
      "restart": 5992,
      "caravan": 5993,
      "completion": 5994,
      "protected": 5995,
      "committing": 5996,
      "checked": 5997,
      "attend": 5998,
      "modified": 5999,
      "rejoicing": 6000,
      "agreement": 6001,
      "chooses": 6002,
      "CR": 6003,
      "Mas": 6004,
      "Tim": 6005,
      "duration": 6006,
      "itical": 6007,
      "heels": 6008,
      "notice": 6009,
      "unexpected": 6010,
      "comb": 6011,
      "mol": 6012,
      "backup": 6013,
      "Thereafter": 6014,
      "warrant": 6015,
      "repaid": 6016,
      "friendship": 6017,
      "Shut": 6018,
      "admonished": 6019,
      "Cong": 6020,
      "Got": 6021,
      "Jim": 6022,
      "PO": 6023,
      "aver": 6024,
      "pow": 6025,
      "thro": 6026,
      "release": 6027,
      "omb": 6028,
      "lihood": 6029,
      "weeks": 6030,
      "exem": 6031,
      "endowed": 6032,
      "owner": 6033,
      "umin": 6034,
      "invol": 6035,
      "Both": 6036,
      "relate": 6037,
      "Guid": 6038,
      "plotted": 6039,
      "birthday": 6040,
      "deceived": 6041,
      "slip": 6042,
      "Cry": 6043,
      "Scale": 6044,
      "bour": 6045,
      "cord": 6046,
      "cum": 6047,
      "kne": 6048,
      "pli": 6049,
      "wro": 6050,
      "ernal": 6051,
      "atom": 6052,
      "forces": 6053,
      "tel": 6054,
      "boss": 6055,
      "intends": 6056,
      "returning": 6057,
      "Meem": 6058,
      "speaks": 6059,
      "bodies": 6060,
      "configure": 6061,
      "shameful": 6062,
      "zzle": 6063,
      "Companions": 6064,
      "Self": 6065,
      "GROAN": 6066,
      "Guidance": 6067,
      "Rah": 6068,
      "Sli": 6069,
      "Vin": 6070,
      "Wra": 6071,
      "east": 6072,
      "lofty": 6073,
      "abs": 6074,
      "endars": 6075,
      "warm": 6076,
      "lightened": 6077,
      "livelihood": 6078,
      "succour": 6079,
      "paired": 6080,
      "examples": 6081,
      "125": 6082,
      "Geor": 6083,
      "Minimum": 6084,
      "mixed": 6085,
      "Profile": 6086,
      "Excuse": 6087,
      "%%": 6088,
      "KE": 6089,
      "oring": 6090,
      "alter": 6091,
      "crush": 6092,
      "magn": 6093,
      "Shaw": 6094,
      "searching": 6095,
      "performed": 6096,
      "mockery": 6097,
      "encompassed": 6098,
      "rules": 6099,
      "preceded": 6100,
      "participants": 6101,
      "Baby": 6102,
      "Press": 6103,
      "Rev": 6104,
      "]?": 6105,
      "_Help": 6106,
      "rained": 6107,
      "za": 6108,
      "hab": 6109,
      "maxim": 6110,
      "exhort": 6111,
      "pover": 6112,
      "affect": 6113,
      "History": 6114,
      "brand": 6115,
      "overwrite": 6116,
      "harsh": 6117,
      "lightning": 6118,
      "contro": 6119,
      "transgressing": 6120,
      "court": 6121,
      "Firaun": 6122,
      "legal": 6123,
      "announce": 6124,
      "inspiration": 6125,
      "GroupWise": 6126,
      "violent": 6127,
      "correctly": 6128,
      "Writing": 6129,
      "scatter": 6130,
      "execute": 6131,
      "condem": 6132,
      "Cap": 6133,
      "Fra": 6134,
      "buddy": 6135,
      "ponder": 6136,
      "wond": 6137,
      "attract": 6138,
      "attempt": 6139,
      "disbeliever": 6140,
      "rights": 6141,
      "fullscreen": 6142,
      "Organiz": 6143,
      "favoured": 6144,
      "judged": 6145,
      "directories": 6146,
      "locked": 6147,
      "porter": 6148,
      "Symbol": 6149,
      "walking": 6150,
      "prevail": 6151,
      "treasure": 6152,
      "Template": 6153,
      "consequences": 6154,
      ":)": 6155,
      "?-": 6156,
      "Oper": 6157,
      "bra": 6158,
      "ffect": 6159,
      "kers": 6160,
      "rum": 6161,
      "vation": 6162,
      "vast": 6163,
      "tood": 6164,
      "allery": 6165,
      "endous": 6166,
      "crow": 6167,
      "surpr": 6168,
      "include": 6169,
      "reported": 6170,
      "yesterday": 6171,
      "religious": 6172,
      "insolent": 6173,
      "Bal": 6174,
      "Cle": 6175,
      "Session": 6176,
      "_C": 6177,
      "elect": 6178,
      "iot": 6179,
      "incoming": 6180,
      "ller": 6181,
      "token": 6182,
      "depri": 6183,
      "withhold": 6184,
      "Report": 6185,
      "embr": 6186,
      "Assuredly": 6187,
      "misled": 6188,
      "containing": 6189,
      "Sending": 6190,
      "retreat": 6191,
      "languages": 6192,
      "smoke": 6193,
      "Charact": 6194,
      "Complete": 6195,
      "encompasses": 6196,
      "28": 6197,
      "CP": 6198,
      "Scro": 6199,
      "eating": 6200,
      "eager": 6201,
      "stair": 6202,
      "keth": 6203,
      "accompl": 6204,
      "cave": 6205,
      "caught": 6206,
      "dislike": 6207,
      "percent": 6208,
      "denial": 6209,
      "Forgive": 6210,
      "market": 6211,
      "minal": 6212,
      "devout": 6213,
      "Yea": 6214,
      "ocation": 6215,
      "Sender": 6216,
      "declared": 6217,
      "scriptures": 6218,
      "quiet": 6219,
      "Blaze": 6220,
      "Archive": 6221,
      "EP": 6222,
      "Sound": 6223,
      "Valid": 6224,
      "cat": 6225,
      "oil": 6226,
      "seat": 6227,
      "vels": 6228,
      "note": 6229,
      "absolute": 6230,
      "amid": 6231,
      "pless": 6232,
      "worn": 6233,
      "ville": 6234,
      "hole": 6235,
      "aking": 6236,
      "Sean": 6237,
      "intention": 6238,
      "witched": 6239,
      "Commit": 6240,
      "greed": 6241,
      "Turk": 6242,
      "Database": 6243,
      "Lar": 6244,
      "Ru": 6245,
      "sand": 6246,
      "treach": 6247,
      "ino": 6248,
      "environment": 6249,
      "tock": 6250,
      "altogether": 6251,
      "meat": 6252,
      "opinion": 6253,
      "nearest": 6254,
      "mans": 6255,
      "okes": 6256,
      "acting": 6257,
      "Adjust": 6258,
      "bringing": 6259,
      "interface": 6260,
      "trustworthy": 6261,
      "appears": 6262,
      "instance": 6263,
      "spoils": 6264,
      "feeding": 6265,
      "tasted": 6266,
      "Images": 6267,
      "Gadu": 6268,
      "Kar": 6269,
      "Pop": 6270,
      "bought": 6271,
      "ials": 6272,
      "rs": 6273,
      "oul": 6274,
      "erce": 6275,
      "stal": 6276,
      "stage": 6277,
      "abber": 6278,
      "super": 6279,
      "loose": 6280,
      "poses": 6281,
      "boo": 6282,
      "engine": 6283,
      "Trum": 6284,
      "witnessed": 6285,
      "pattern": 6286,
      "rests": 6287,
      "bookmark": 6288,
      "failure": 6289,
      "IST": 6290,
      "obligatory": 6291,
      "ignore": 6292,
      "Accessible": 6293,
      "Travel": 6294,
      "conjecture": 6295,
      "!)": 6296,
      "Mart": 6297,
      "_Delete": 6298,
      "ani": 6299,
      "assu": 6300,
      "compet": 6301,
      "disci": 6302,
      "tech": 6303,
      "Process": 6304,
      "entertain": 6305,
      "stopped": 6306,
      "merch": 6307,
      "humiliation": 6308,
      "elements": 6309,
      "carrying": 6310,
      "difficulty": 6311,
      "Ident": 6312,
      "MD5": 6313,
      "AD": 6314,
      "BO": 6315,
      "Long": 6316,
      "Rest": 6317,
      "SM": 6318,
      "cil": 6319,
      "chas": 6320,
      "gam": 6321,
      "lists": 6322,
      "sad": 6323,
      "esa": 6324,
      "documents": 6325,
      "suck": 6326,
      "extract": 6327,
      "Revel": 6328,
      "Refresh": 6329,
      "writes": 6330,
      "wrongfully": 6331,
      "extension": 6332,
      "remains": 6333,
      "destined": 6334,
      "Setup": 6335,
      "Shit": 6336,
      "highest": 6337,
      "Starting": 6338,
      "belongeth": 6339,
      "suffered": 6340,
      "Original": 6341,
      "Avail": 6342,
      "buffer": 6343,
      "Alig": 6344,
      "Dam": 6345,
      "Son": 6346,
      "_Show": 6347,
      "averted": 6348,
      "pred": 6349,
      "pound": 6350,
      "stub": 6351,
      "fearful": 6352,
      "diff": 6353,
      "aiman": 6354,
      "requires": 6355,
      "legs": 6356,
      "definite": 6357,
      "Overwrite": 6358,
      "adorned": 6359,
      "Python": 6360,
      "disdain": 6361,
      "Sulaiman": 6362,
      "Atlantic": 6363,
      "Scroll": 6364,
      "Qar": 6365,
      "RING": 6366,
      "Ten": 6367,
      "WA": 6368,
      "bare": 6369,
      "cc": 6370,
      "canst": 6371,
      "seeks": 6372,
      "shouldn": 6373,
      "spare": 6374,
      "Restore": 6375,
      "Service": 6376,
      "Month": 6377,
      "Client": 6378,
      "Blue": 6379,
      "Christian": 6380,
      "silk": 6381,
      "Paper": 6382,
      "sperm": 6383,
      "Majesty": 6384,
      "Judi": 6385,
      "music": 6386,
      "Japanese": 6387,
      "experience": 6388,
      "pearls": 6389,
      "rescued": 6390,
      "GHT": 6391,
      "Pan": 6392,
      "WI": 6393,
      "YING": 6394,
      "wander": 6395,
      "zakat": 6396,
      "isy": 6397,
      "rage": 6398,
      "wash": 6399,
      "Incre": 6400,
      "overwhel": 6401,
      "servers": 6402,
      "sentence": 6403,
      "cient": 6404,
      "flame": 6405,
      "paradise": 6406,
      "Knowledge": 6407,
      "Creation": 6408,
      "username": 6409,
      "Descend": 6410,
      "CHUCK": 6411,
      "deserve": 6412,
      "revive": 6413,
      "imagine": 6414,
      "conversation": 6415,
      "plenty": 6416,
      "poverty": 6417,
      "Trumpet": 6418,
      "';": 6419,
      "Cha": 6420,
      "Daddy": 6421,
      "Fli": 6422,
      "Jon": 6423,
      "LES": 6424,
      "Mah": 6425,
      "SD": 6426,
      "bill": 6427,
      "border": 6428,
      "clot": 6429,
      "dition": 6430,
      "mes": 6431,
      "atic": 6432,
      "stick": 6433,
      "frag": 6434,
      "united": 6435,
      "whence": 6436,
      "reser": 6437,
      "resort": 6438,
      "owned": 6439,
      "overtaken": 6440,
      "acted": 6441,
      "adding": 6442,
      "Also": 6443,
      "licit": 6444,
      "hardened": 6445,
      "horses": 6446,
      "sques": 6447,
      "neglected": 6448,
      "Memory": 6449,
      "fashioned": 6450,
      "Available": 6451,
      ")],": 6452,
      "22": 6453,
      "Birth": 6454,
      "CON": 6455,
      "Igno": 6456,
      "MY": 6457,
      "eper": 6458,
      "gger": 6459,
      "ater": 6460,
      "deleting": 6461,
      "fright": 6462,
      "provisions": 6463,
      "intended": 6464,
      "addition": 6465,
      "Alamin": 6466,
      "reciting": 6467,
      "licy": 6468,
      "losing": 6469,
      "hinder": 6470,
      "latest": 6471,
      "Point": 6472,
      "properly": 6473,
      "Code": 6474,
      "related": 6475,
      "relations": 6476,
      "ERE": 6477,
      "recognized": 6478,
      "responsibility": 6479,
      "90": 6480,
      "iny": 6481,
      "instru": 6482,
      "deleg": 6483,
      "meant": 6484,
      "doctor": 6485,
      "sooth": 6486,
      "distribution": 6487,
      "vile": 6488,
      "illeg": 6489,
      "Saying": 6490,
      "extent": 6491,
      "letters": 6492,
      "tries": 6493,
      "worshippers": 6494,
      "shell": 6495,
      "terminal": 6496,
      "including": 6497,
      "beginning": 6498,
      "SHA": 6499,
      "Target": 6500,
      "Thamood": 6501,
      "Yahoo": 6502,
      "Vincent": 6503,
      "Dri": 6504,
      "Kore": 6505,
      "Purity": 6506,
      "hallow": 6507,
      "nother": 6508,
      "urge": 6509,
      "abom": 6510,
      "focus": 6511,
      "disaster": 6512,
      "persevere": 6513,
      "vie": 6514,
      "Reload": 6515,
      "Reckon": 6516,
      "Documents": 6517,
      "observed": 6518,
      "Alarm": 6519,
      "showing": 6520,
      "Ann": 6521,
      "keepers": 6522,
      "purity": 6523,
      "township": 6524,
      "planet": 6525,
      "listening": 6526,
      "jection": 6527,
      "Modify": 6528,
      "Strike": 6529,
      "Drop": 6530,
      "Eden": 6531,
      "Jinn": 6532,
      "Kal": 6533,
      "Met": 6534,
      "UP": 6535,
      "Usage": 6536,
      "Wall": 6537,
      "apo": 6538,
      "brace": 6539,
      "farer": 6540,
      "facing": 6541,
      "waves": 6542,
      "bels": 6543,
      "wayfarer": 6544,
      "brid": 6545,
      "cline": 6546,
      "Convert": 6547,
      "leader": 6548,
      "fasting": 6549,
      "occup": 6550,
      "surface": 6551,
      "claimed": 6552,
      "2007": 6553,
      "meanings": 6554,
      "Firon": 6555,
      "counts": 6556,
      "continued": 6557,
      "arrogance": 6558,
      "memos": 6559,
      "investig": 6560,
      "Diff": 6561,
      "Low": 6562,
      "Prep": 6563,
      "_Edit": 6564,
      "bi": 6565,
      "gle": 6566,
      "hip": 6567,
      "scan": 6568,
      "vent": 6569,
      "vines": 6570,
      "revert": 6571,
      "offered": 6572,
      "vertical": 6573,
      "thereto": 6574,
      "disable": 6575,
      "somewhere": 6576,
      "Opening": 6577,
      "concern": 6578,
      "hypocrisy": 6579,
      "Outlook": 6580,
      "element": 6581,
      "captives": 6582,
      "Since": 6583,
      "Browser": 6584,
      "Merge": 6585,
      "prohibited": 6586,
      "%.": 6587,
      "Action": 6588,
      "Bas": 6589,
      "Effect": 6590,
      "Hank": 6591,
      "Patch": 6592,
      "hol": 6593,
      "jor": 6594,
      "assa": 6595,
      "oppose": 6596,
      "ules": 6597,
      "lots": 6598,
      "seless": 6599,
      "spect": 6600,
      "ization": 6601,
      "submiss": 6602,
      "News": 6603,
      "discard": 6604,
      "login": 6605,
      "ART": 6606,
      "Copyright": 6607,
      "divine": 6608,
      "Living": 6609,
      "CKS": 6610,
      "forbids": 6611,
      "seeming": 6612,
      "advantage": 6613,
      "tremendous": 6614,
      "understood": 6615,
      "Base": 6616,
      "Fast": 6617,
      "Ka": 6618,
      "Mur": 6619,
      "Paste": 6620,
      "UID": 6621,
      "].\"": 6622,
      "dates": 6623,
      "ota": 6624,
      "older": 6625,
      "tally": 6626,
      "zer": 6627,
      "instruct": 6628,
      "ende": 6629,
      "attached": 6630,
      "sem": 6631,
      "exult": 6632,
      "serving": 6633,
      "blue": 6634,
      "types": 6635,
      "posite": 6636,
      "finds": 6637,
      "criter": 6638,
      "phrase": 6639,
      "requital": 6640,
      "specific": 6641,
      "sounds": 6642,
      "remaining": 6643,
      "anny": 6644,
      "Creating": 6645,
      "GHING": 6646,
      "slander": 6647,
      "symbolic": 6648,
      "Hang": 6649,
      "fled": 6650,
      "forts": 6651,
      "Theme": 6652,
      "ilities": 6653,
      "ulations": 6654,
      "explan": 6655,
      "upid": 6656,
      "conflict": 6657,
      "consum": 6658,
      "convin": 6659,
      "resist": 6660,
      "brain": 6661,
      "missed": 6662,
      "region": 6663,
      "intercessor": 6664,
      "scales": 6665,
      "parameters": 6666,
      "breathed": 6667,
      "collection": 6668,
      "Package": 6669,
      "Split": 6670,
      "Double": 6671,
      "FF": 6672,
      "Rich": 6673,
      "YE": 6674,
      "aversion": 6675,
      "bewitched": 6676,
      "seest": 6677,
      "sects": 6678,
      "itary": 6679,
      "urance": 6680,
      "compe": 6681,
      "moves": 6682,
      "ippet": 6683,
      "emplo": 6684,
      "puts": 6685,
      "tribes": 6686,
      "calm": 6687,
      "thinks": 6688,
      "obeys": 6689,
      "purifies": 6690,
      "bull": 6691,
      "decis": 6692,
      "Quit": 6693,
      "growth": 6694,
      "tools": 6695,
      "ancest": 6696,
      "problems": 6697,
      "schema": 6698,
      "capacity": 6699,
      "geny": 6700,
      "supports": 6701,
      "vengeance": 6702,
      "hopes": 6703,
      "milk": 6704,
      "swore": 6705,
      "wandering": 6706,
      "Bob": 6707,
      "Bang": 6708,
      "TT": 6709,
      "Wow": 6710,
      "dir": 6711,
      "wages": 6712,
      "reproach": 6713,
      "orbit": 6714,
      "administr": 6715,
      "suit": 6716,
      "igrate": 6717,
      "commits": 6718,
      "Unexpected": 6719,
      "posing": 6720,
      "filters": 6721,
      "ileth": 6722,
      "foundation": 6723,
      "breach": 6724,
      "concerned": 6725,
      "apply": 6726,
      "listened": 6727,
      "attained": 6728,
      "Another": 6729,
      "Ek": 6730,
      "Pak": 6731,
      "TV": 6732,
      "mous": 6733,
      "mart": 6734,
      "sme": 6735,
      "alarms": 6736,
      "rival": 6737,
      "shad": 6738,
      "disregard": 6739,
      "progeny": 6740,
      "iger": 6741,
      "taqun": 6742,
      "Recall": 6743,
      "Doom": 6744,
      "Security": 6745,
      "crack": 6746,
      "gles": 6747,
      "numerous": 6748,
      "logy": 6749,
      "inheritors": 6750,
      "violence": 6751,
      "precise": 6752,
      "German": 6753,
      "Language": 6754,
      "ancestors": 6755,
      "Bot": 6756,
      "Ele": 6757,
      "Row": 6758,
      "Squ": 6759,
      "VER": 6760,
      "_Find": 6761,
      "ds": 6762,
      "flood": 6763,
      "sovereignty": 6764,
      "mosques": 6765,
      "causing": 6766,
      "rescue": 6767,
      "plants": 6768,
      "perce": 6769,
      "apse": 6770,
      "despaired": 6771,
      "herein": 6772,
      "player": 6773,
      "scour": 6774,
      "burst": 6775,
      "2000": 6776,
      "spreading": 6777,
      "Brian": 6778,
      "Haman": 6779,
      "stretch": 6780,
      "Ignore": 6781,
      "Cat": 6782,
      "Cop": 6783,
      "Pu": 6784,
      "_Remove": 6785,
      "chapter": 6786,
      "entries": 6787,
      "imary": 6788,
      "idle": 6789,
      "shared": 6790,
      "Forgiver": 6791,
      "strate": 6792,
      "Lock": 6793,
      "Construct": 6794,
      "torn": 6795,
      "tower": 6796,
      "compared": 6797,
      "bitch": 6798,
      "expi": 6799,
      "breaking": 6800,
      "Without": 6801,
      "occurrence": 6802,
      "umbn": 6803,
      "revives": 6804,
      "distinction": 6805,
      "Muttaqun": 6806,
      "absence": 6807,
      "Bet": 6808,
      "ji": 6809,
      "jr": 6810,
      "mass": 6811,
      "eds": 6812,
      "edge": 6813,
      "total": 6814,
      "comment": 6815,
      "bos": 6816,
      "Confirm": 6817,
      "Alt": 6818,
      "transport": 6819,
      "tests": 6820,
      "Printer": 6821,
      "American": 6822,
      "encoding": 6823,
      "lowest": 6824,
      "sincerely": 6825,
      "spool": 6826,
      "situation": 6827,
      "conveyed": 6828,
      "assistant": 6829,
      "iversary": 6830,
      "TLS": 6831,
      "GRUNTS": 6832,
      "vegetation": 6833,
      "FUCKING": 6834,
      "Est": 6835,
      "Iesa": 6836,
      "KC": 6837,
      "}'": 6838,
      "rebel": 6839,
      "stretched": 6840,
      "fornic": 6841,
      "superi": 6842,
      "grows": 6843,
      "engaged": 6844,
      "assin": 6845,
      "crad": 6846,
      "filename": 6847,
      "directed": 6848,
      "guards": 6849,
      "difference": 6850,
      "planned": 6851,
      "disputes": 6852,
      "tracks": 6853,
      "Pause": 6854,
      "Strong": 6855,
      "clothes": 6856,
      "Destination": 6857,
      "Den": 6858,
      "Kind": 6859,
      "Sat": 6860,
      "fare": 6861,
      "kn": 6862,
      "sched": 6863,
      "wing": 6864,
      "anno": 6865,
      "endeth": 6866,
      "rocks": 6867,
      "loy": 6868,
      "contract": 6869,
      "outcome": 6870,
      "division": 6871,
      "undoubtedly": 6872,
      "intoxic": 6873,
      "Deal": 6874,
      "reports": 6875,
      "waters": 6876,
      "Enc": 6877,
      "finally": 6878,
      "occas": 6879,
      "humbly": 6880,
      "higher": 6881,
      "termine": 6882,
      "walks": 6883,
      "inclined": 6884,
      "bsite": 6885,
      "concealed": 6886,
      "Fax": 6887,
      "dying": 6888,
      "Fullscreen": 6889,
      "madness": 6890,
      "Activ": 6891,
      "Categories": 6892,
      "consume": 6893,
      "lucky": 6894,
      "defeated": 6895,
      "authenticate": 6896,
      "Green": 6897,
      "Ekiga": 6898,
      "shadows": 6899,
      ";\"": 6900,
      "Ctr": 6901,
      "]:": 6902,
      "bat": 6903,
      "sometimes": 6904,
      "zilla": 6905,
      "revenge": 6906,
      "orient": 6907,
      "haught": 6908,
      "ascribed": 6909,
      "implement": 6910,
      "enduring": 6911,
      "forest": 6912,
      "foreign": 6913,
      "exception": 6914,
      "repres": 6915,
      "Absolute": 6916,
      "Fog": 6917,
      "secution": 6918,
      "spot": 6919,
      "Blank": 6920,
      "confirmed": 6921,
      "umbent": 6922,
      "Phil": 6923,
      "jeel": 6924,
      "proclaimed": 6925,
      "sacrific": 6926,
      "miracle": 6927,
      "02i": 6928,
      "SCREA": 6929,
      "icode": 6930,
      "intellig": 6931,
      "eternally": 6932,
      "Style": 6933,
      "Four": 6934,
      "GU": 6935,
      "OUR": 6936,
      "Pra": 6937,
      "Sta": 6938,
      "dress": 6939,
      "flocks": 6940,
      "loud": 6941,
      "restrained": 6942,
      "offee": 6943,
      "usually": 6944,
      "trace": 6945,
      "Input": 6946,
      "Injeel": 6947,
      "Real": 6948,
      "Ready": 6949,
      "grapes": 6950,
      "Discard": 6951,
      "strikes": 6952,
      "compense": 6953,
      "Colors": 6954,
      "simply": 6955,
      "Coll": 6956,
      "cross": 6957,
      "entral": 6958,
      "pictures": 6959,
      "Personal": 6960,
      "alternation": 6961,
      "Roman": 6962,
      "Layer": 6963,
      "Pakistan": 6964,
      "Central": 6965,
      "Det": 6966,
      "Mir": 6967,
      "MUS": 6968,
      "_Folder": 6969,
      "pg": 6970,
      "tes": 6971,
      "tim": 6972,
      "yo": 6973,
      "organiz": 6974,
      "totally": 6975,
      "ays": 6976,
      "uncle": 6977,
      "abort": 6978,
      "extr": 6979,
      "Inte": 6980,
      "appreh": 6981,
      "asks": 6982,
      "signal": 6983,
      "herself": 6984,
      "wenty": 6985,
      "watches": 6986,
      "fourth": 6987,
      "freed": 6988,
      "repeated": 6989,
      "periods": 6990,
      "printing": 6991,
      "assembly": 6992,
      "incumbent": 6993,
      "Hyper": 6994,
      "Function": 6995,
      "reconci": 6996,
      "Turkish": 6997,
      "HI": 6998,
      "Kam": 6999,
      "OH": 7000,
      "Option": 7001,
      "Tu": 7002,
      "_Search": 7003,
      "sch": 7004,
      "switch": 7005,
      "itled": 7006,
      "forbearing": 7007,
      "ungod": 7008,
      "uled": 7009,
      "Deleg": 7010,
      "firms": 7011,
      "ensions": 7012,
      "Answer": 7013,
      "tales": 7014,
      "distant": 7015,
      "Serv": 7016,
      "2002": 7017,
      "breaks": 7018,
      "ATE": 7019,
      "rotation": 7020,
      "Micro": 7021,
      "preserve": 7022,
      "weapons": 7023,
      "condemned": 7024,
      "SMTP": 7025,
      "Bottom": 7026,
      "\"(": 7027,
      ")'": 7028,
      "fts": 7029,
      "gains": 7030,
      "rout": 7031,
      "tags": 7032,
      "retain": 7033,
      "begotten": 7034,
      "forsake": 7035,
      "Throw": 7036,
      "ula": 7037,
      "trum": 7038,
      "afterward": 7039,
      "obli": 7040,
      "passwords": 7041,
      "Total": 7042,
      "Enjoy": 7043,
      "IND": 7044,
      "poster": 7045,
      "charitable": 7046,
      "directly": 7047,
      "protecting": 7048,
      "bestows": 7049,
      "factor": 7050,
      "checking": 7051,
      "blindly": 7052,
      "accordance": 7053,
      "Capt": 7054,
      "accessible": 7055,
      "Username": 7056,
      "Menu": 7057,
      "slaughter": 7058,
      "advanced": 7059,
      "Possible": 7060,
      "disciples": 7061,
      "Reckoning": 7062,
      "scourge": 7063,
      "Ctrl": 7064,
      "360": 7065,
      "80": 7066,
      ";.": 7067,
      "IB": 7068,
      "Jabber": 7069,
      "Ker": 7070,
      "Shar": 7071,
      "_Un": 7072,
      "_Send": 7073,
      "bast": 7074,
      "iCalendar": 7075,
      "wings": 7076,
      "une": 7077,
      "abiders": 7078,
      "poet": 7079,
      "wrought": 7080,
      "desiring": 7081,
      "izing": 7082,
      "Chan": 7083,
      "ensive": 7084,
      "interval": 7085,
      "Plan": 7086,
      "grew": 7087,
      "ibly": 7088,
      "Super": 7089,
      "smooth": 7090,
      "supporters": 7091,
      "initiali": 7092,
      "Divinity": 7093,
      "Honour": 7094,
      "CHUCKLES": 7095,
      "MUSIC": 7096,
      "Az": 7097,
      "DN": 7098,
      "FOR": 7099,
      "Mother": 7100,
      "Names": 7101,
      "iant": 7102,
      "arct": 7103,
      "behave": 7104,
      "compat": 7105,
      "resources": 7106,
      "plun": 7107,
      "cret": 7108,
      "believeth": 7109,
      "vient": 7110,
      "servient": 7111,
      "diverse": 7112,
      "bert": 7113,
      "everybody": 7114,
      "maketh": 7115,
      "Bookmarks": 7116,
      "kindred": 7117,
      "avag": 7118,
      "subservient": 7119,
      "context": 7120,
      "entering": 7121,
      "Theirs": 7122,
      "appropri": 7123,
      "horse": 7124,
      "divorced": 7125,
      "Herald": 7126,
      "SIGHS": 7127,
      "fellows": 7128,
      "acquainted": 7129,
      "penitent": 7130,
      "Hath": 7131,
      "Lady": 7132,
      "Mady": 7133,
      "Yor": 7134,
      "_List": 7135,
      "frequ": 7136,
      "yer": 7137,
      "algorithm": 7138,
      "abul": 7139,
      "Incoming": 7140,
      "affection": 7141,
      "artic": 7142,
      "Recompense": 7143,
      "somebody": 7144,
      "spell": 7145,
      "repents": 7146,
      "recent": 7147,
      "scor": 7148,
      "scared": 7149,
      "leading": 7150,
      "changing": 7151,
      "buried": 7152,
      "Upd": 7153,
      "smart": 7154,
      "panel": 7155,
      "void": 7156,
      "funny": 7157,
      "sickness": 7158,
      "effects": 7159,
      "Antarct": 7160,
      "Terminal": 7161,
      "emigrated": 7162,
      "Elias": 7163,
      "illegal": 7164,
      "submissive": 7165,
      "Madyan": 7166,
      "Bel": 7167,
      "Che": 7168,
      "Hal": 7169,
      "Hard": 7170,
      "Sho": 7171,
      "Ty": 7172,
      "Western": 7173,
      "ale": 7174,
      "aven": 7175,
      "rit": 7176,
      "sider": 7177,
      "tight": 7178,
      "tired": 7179,
      "refr": 7180,
      "lib": 7181,
      "determine": 7182,
      "thereupon": 7183,
      "feature": 7184,
      "printed": 7185,
      "surety": 7186,
      "pregn": 7187,
      "giveness": 7188,
      "rypt": 7189,
      "intense": 7190,
      "bringeth": 7191,
      "haste": 7192,
      "workers": 7193,
      "topic": 7194,
      "transfer": 7195,
      "skin": 7196,
      "seduce": 7197,
      "layer": 7198,
      "corrupted": 7199,
      "afflictive": 7200,
      "jobs": 7201,
      "earns": 7202,
      "entrusted": 7203,
      "suspic": 7204,
      "Burt": 7205,
      "queror": 7206,
      "compensation": 7207,
      "extravag": 7208,
      "Big": 7209,
      "Cast": 7210,
      "Five": 7211,
      "Gray": 7212,
      "Till": 7213,
      "hint": 7214,
      "rink": 7215,
      "stain": 7216,
      "stages": 7217,
      "ilst": 7218,
      "Thunder": 7219,
      "Though": 7220,
      "aba": 7221,
      "shi": 7222,
      "shower": 7223,
      "persecution": 7224,
      "Sovereignty": 7225,
      "whereat": 7226,
      "aud": 7227,
      "United": 7228,
      "evils": 7229,
      "extend": 7230,
      "Street": 7231,
      "Compress": 7232,
      "skies": 7233,
      "chastity": 7234,
      "expound": 7235,
      "happening": 7236,
      "chains": 7237,
      "repel": 7238,
      "Active": 7239,
      "realized": 7240,
      "Browse": 7241,
      "satisfied": 7242,
      "injury": 7243,
      "PLAYING": 7244,
      "Kaiju": 7245,
      "wrote": 7246,
      "Antarctica": 7247,
      "Ice": 7248,
      "Ite": 7249,
      "OL": 7250,
      "Taf": 7251,
      "ibl": 7252,
      "obe": 7253,
      "ograph": 7254,
      "ati": 7255,
      "beque": 7256,
      "itution": 7257,
      "wild": 7258,
      "forgave": 7259,
      "iche": 7260,
      "dispers": 7261,
      "tee": 7262,
      "illy": 7263,
      "illust": 7264,
      "ctionary": 7265,
      "repri": 7266,
      "China": 7267,
      "remit": 7268,
      "Stor": 7269,
      "license": 7270,
      "invoked": 7271,
      "brew": 7272,
      "huge": 7273,
      "trusts": 7274,
      "eaten": 7275,
      "Grand": 7276,
      "plane": 7277,
      "planning": 7278,
      "Subscribe": 7279,
      "confused": 7280,
      "Glor": 7281,
      "entirely": 7282,
      "Skip": 7283,
      "fluid": 7284,
      "parameter": 7285,
      "compressed": 7286,
      "struggle": 7287,
      "maidens": 7288,
      "trumpet": 7289,
      "Items": 7290,
      ",]": 7291,
      "32": 7292,
      "Pict": 7293,
      "dar": 7294,
      "nah": 7295,
      "inqu": 7296,
      "ayb": 7297,
      "outgoing": 7298,
      "quicken": 7299,
      "earthquake": 7300,
      "mayest": 7301,
      "heavi": 7302,
      "putting": 7303,
      "Album": 7304,
      "Resp": 7305,
      "availed": 7306,
      "generic": 7307,
      "lax": 7308,
      "ARS": 7309,
      "voices": 7310,
      "reality": 7311,
      "rers": 7312,
      "teaching": 7313,
      "Anyone": 7314,
      "scripture": 7315,
      "tabs": 7316,
      "infidel": 7317,
      "lords": 7318,
      "Encrypt": 7319,
      "Judith": 7320,
      "500": 7321,
      "Actions": 7322,
      "Ja": 7323,
      "Lon": 7324,
      "NT": 7325,
      "Um": 7326,
      "mas": 7327,
      "mud": 7328,
      "nes": 7329,
      "wolf": 7330,
      "arily": 7331,
      "liked": 7332,
      "decor": 7333,
      "degree": 7334,
      "Thread": 7335,
      "ament": 7336,
      "trait": 7337,
      "tea": 7338,
      "afternoon": 7339,
      "serpent": 7340,
      "embar": 7341,
      "tyrant": 7342,
      "Acqu": 7343,
      "touches": 7344,
      "Spam": 7345,
      "Scott": 7346,
      "foolish": 7347,
      "floor": 7348,
      "fifth": 7349,
      "machine": 7350,
      "Multiple": 7351,
      "convinced": 7352,
      "appropriate": 7353,
      "Isha": 7354,
      "MO": 7355,
      "Op": 7356,
      "Que": 7357,
      "ec": 7358,
      "lady": 7359,
      "miles": 7360,
      "}\"": 7361,
      "maximum": 7362,
      "contri": 7363,
      "plant": 7364,
      "cles": 7365,
      "Star": 7366,
      "recover": 7367,
      "losed": 7368,
      "append": 7369,
      "Permission": 7370,
      "habitations": 7371,
      "volume": 7372,
      "explains": 7373,
      "fingers": 7374,
      "iniqu": 7375,
      "Appointment": 7376,
      "PHONE": 7377,
      "stairs": 7378,
      "merchand": 7379,
      "explanation": 7380,
      "Tafsir": 7381,
      "AIM": 7382,
      "Buddy": 7383,
      "Cher": 7384,
      "COU": 7385,
      "Dig": 7386,
      "TI": 7387,
      "];": 7388,
      "award": 7389,
      "gency": 7390,
      "ki": 7391,
      "natur": 7392,
      "inev": 7393,
      "willeth": 7394,
      "shun": 7395,
      "construct": 7396,
      "cade": 7397,
      "worried": 7398,
      "deshow": 7399,
      "Extra": 7400,
      "encies": 7401,
      "freely": 7402,
      "Accord": 7403,
      "succession": 7404,
      "Manual": 7405,
      "keyboard": 7406,
      "2001": 7407,
      "conscious": 7408,
      "Cursor": 7409,
      "Bliss": 7410,
      "arrives": 7411,
      "clothing": 7412,
      "grieved": 7413,
      "Business": 7414,
      "ignomin": 7415,
      "circum": 7416,
      "SPEA": 7417,
      "Visible": 7418,
      "defeat": 7419,
      "ranged": 7420,
      "ocean": 7421,
      "Abo": 7422,
      "Cir": 7423,
      "KS": 7424,
      "Must": 7425,
      "Zak": 7426,
      "_File": 7427,
      "bite": 7428,
      "cham": 7429,
      "ggles": 7430,
      "whilst": 7431,
      "stated": 7432,
      "fro": 7433,
      "ams": 7434,
      "confound": 7435,
      "Whoa": 7436,
      "Unsupported": 7437,
      "Secret": 7438,
      "Love": 7439,
      "sinner": 7440,
      "Eng": 7441,
      "Indu": 7442,
      "drawing": 7443,
      "delusion": 7444,
      "threaten": 7445,
      "Anton": 7446,
      "exceeded": 7447,
      "consult": 7448,
      "brightness": 7449,
      "military": 7450,
      "despised": 7451,
      "Favor": 7452,
      "annoy": 7453,
      "merchandise": 7454,
      "45": 7455,
      "600": 7456,
      "Fine": 7457,
      "Jan": 7458,
      "Nice": 7459,
      "Ren": 7460,
      "Side": 7461,
      "bent": 7462,
      "cit": 7463,
      "dimin": 7464,
      "fan": 7465,
      "furn": 7466,
      "fund": 7467,
      "gro": 7468,
      "hiding": 7469,
      "ih": 7470,
      "lux": 7471,
      "naked": 7472,
      "poured": 7473,
      "sworn": 7474,
      "}.": 7475,
      "belled": 7476,
      "health": 7477,
      "forsa": 7478,
      "mast": 7479,
      "exha": 7480,
      "mob": 7481,
      "faction": 7482,
      "distributed": 7483,
      "reduce": 7484,
      "rench": 7485,
      "whereupon": 7486,
      "obst": 7487,
      "Too": 7488,
      "repay": 7489,
      "Area": 7490,
      "tryst": 7491,
      "runs": 7492,
      "veloper": 7493,
      "solve": 7494,
      "displaying": 7495,
      "communities": 7496,
      "covers": 7497,
      "ICE": 7498,
      "Headers": 7499,
      "munific": 7500,
      "fitting": 7501,
      "Promise": 7502,
      "extremely": 7503,
      "Retrieving": 7504,
      "exclusively": 7505,
      "llenge": 7506,
      "involved": 7507,
      "plified": 7508,
      "WITH": 7509,
      "Danny": 7510,
      "Fri": 7511,
      "False": 7512,
      "Lim": 7513,
      "PKC": 7514,
      "ias": 7515,
      "lack": 7516,
      "rebelled": 7517,
      "espe": 7518,
      "aration": 7519,
      "bequest": 7520,
      "befriend": 7521,
      "itor": 7522,
      "itch": 7523,
      "cel": 7524,
      "iday": 7525,
      "adjust": 7526,
      "dost": 7527,
      "icy": 7528,
      "distribute": 7529,
      "ague": 7530,
      "portents": 7531,
      "accuse": 7532,
      "reveals": 7533,
      "stell": 7534,
      "Comment": 7535,
      "Accounts": 7536,
      "Manage": 7537,
      "videos": 7538,
      "Launch": 7539,
      "advise": 7540,
      "\\\\\\\\": 7541,
      "widget": 7542,
      "elev": 7543,
      "mortals": 7544,
      "threatened": 7545,
      "abandoned": 7546,
      "ulsion": 7547,
      "released": 7548,
      "tranqu": 7549,
      "unexpectedly": 7550,
      "Acquainted": 7551,
      "PKCS": 7552,
      "especially": 7553,
      "FA": 7554,
      "GT": 7555,
      "_k": 7556,
      "i_": 7557,
      "improve": 7558,
      "adata": 7559,
      "amuse": 7560,
      "confirms": 7561,
      "thereon": 7562,
      "cape": 7563,
      "anybody": 7564,
      "Form": 7565,
      "Forget": 7566,
      "Forgiveness": 7567,
      "Being": 7568,
      "fline": 7569,
      "postp": 7570,
      "nearly": 7571,
      "courage": 7572,
      "spending": 7573,
      "expired": 7574,
      "Offline": 7575,
      "produces": 7576,
      "voys": 7577,
      "hurry": 7578,
      "Seek": 7579,
      "Query": 7580,
      "Room": 7581,
      "bowing": 7582,
      "imported": 7583,
      "arrogantly": 7584,
      "capital": 7585,
      "MSN": 7586,
      "obligations": 7587,
      "Final": 7588,
      "synchron": 7589,
      "brief": 7590,
      "cradle": 7591,
      "\\\\\\\\{": 7592,
      "1f": 7593,
      "Bra": 7594,
      "Fet": 7595,
      "Oc": 7596,
      "PE": 7597,
      "Pil": 7598,
      "Trev": 7599,
      "_As": 7600,
      "cs": 7601,
      "hid": 7602,
      "aning": 7603,
      "anches": 7604,
      "enlight": 7605,
      "doeth": 7606,
      "shining": 7607,
      "bution": 7608,
      "prolong": 7609,
      "bye": 7610,
      "perpet": 7611,
      "Prostrate": 7612,
      "coordinate": 7613,
      "irection": 7614,
      "Toggles": 7615,
      "Still": 7616,
      "INE": 7617,
      "forbade": 7618,
      "falsely": 7619,
      "honored": 7620,
      "sunrise": 7621,
      "identify": 7622,
      "Serve": 7623,
      "Cogl": 7624,
      "burdened": 7625,
      "gaze": 7626,
      "realise": 7627,
      "Layout": 7628,
      "horizontal": 7629,
      "recognise": 7630,
      "swine": 7631,
      "determines": 7632,
      "mocking": 7633,
      "distressed": 7634,
      "Camera": 7635,
      "Berlin": 7636,
      "Originator": 7637,
      "sensitive": 7638,
      "miserable": 7639,
      "Character": 7640,
      "pregnant": 7641,
      "ichever": 7642,
      ")].": 7643,
      "./": 7644,
      "FI": 7645,
      "Satur": 7646,
      "coffee": 7647,
      "drove": 7648,
      "fac": 7649,
      "gently": 7650,
      "mbox": 7651,
      "orrow": 7652,
      "heap": 7653,
      "forty": 7654,
      "amp": 7655,
      "shy": 7656,
      "concl": 7657,
      "agram": 7658,
      "reduced": 7659,
      "likewise": 7660,
      "describe": 7661,
      "aka": 7662,
      "Secure": 7663,
      "Conf": 7664,
      "avy": 7665,
      "maturity": 7666,
      "film": 7667,
      "Friday": 7668,
      "Something": 7669,
      "polytheism": 7670,
      "programs": 7671,
      "delivery": 7672,
      "configured": 7673,
      "sequence": 7674,
      "oppression": 7675,
      "clicking": 7676,
      "multiplied": 7677,
      "slaughtered": 7678,
      "JavaScript": 7679,
      "Decision": 7680,
      "lusts": 7681,
      "York": 7682,
      "Saturday": 7683,
      "26": 7684,
      "720": 7685,
      "Block": 7686,
      "Item": 7687,
      "Kr": 7688,
      "Sund": 7689,
      "TING": 7690,
      "eternal": 7691,
      "ture": 7692,
      "tears": 7693,
      "}'?": 7694,
      "itably": 7695,
      "devis": 7696,
      "complain": 7697,
      "apparent": 7698,
      "Recent": 7699,
      "akes": 7700,
      "punishes": 7701,
      "Second": 7702,
      "trick": 7703,
      "Chief": 7704,
      "hastened": 7705,
      "devices": 7706,
      "morn": 7707,
      "burg": 7708,
      "bedded": 7709,
      "beneficent": 7710,
      "ports": 7711,
      "Hajj": 7712,
      "walls": 7713,
      "particular": 7714,
      "Sinai": 7715,
      "Tomorrow": 7716,
      "developers": 7717,
      "Small": 7718,
      "Expand": 7719,
      "Join": 7720,
      "comprehend": 7721,
      "_mport": 7722,
      "achievement": 7723,
      "arrested": 7724,
      "Revert": 7725,
      "wonders": 7726,
      "Birthday": 7727,
      "HO": 7728,
      "Hidden": 7729,
      "ml": 7730,
      "rd": 7731,
      "rub": 7732,
      "ua": 7733,
      "insu": 7734,
      "reput": 7735,
      "uries": 7736,
      "adopt": 7737,
      "makers": 7738,
      "shed": 7739,
      "therefor": 7740,
      "disgr": 7741,
      "Inv": 7742,
      "qub": 7743,
      "cribes": 7744,
      "intent": 7745,
      "effort": 7746,
      "doubled": 7747,
      "devised": 7748,
      "pressing": 7749,
      "Someone": 7750,
      "Generic": 7751,
      "descends": 7752,
      "NOW": 7753,
      "slaying": 7754,
      "obligation": 7755,
      "limited": 7756,
      "wonderful": 7757,
      "dedic": 7758,
      "hoping": 7759,
      "impug": 7760,
      "Graph": 7761,
      "Revision": 7762,
      "attractive": 7763,
      "Damn": 7764,
      "definitely": 7765,
      "GTK": 7766,
      "Ban": 7767,
      "Cave": 7768,
      "Nick": 7769,
      "Zach": 7770,
      "len": 7771,
      "nur": 7772,
      "rod": 7773,
      "thin": 7774,
      "revision": 7775,
      "replaced": 7776,
      "beast": 7777,
      "chi": 7778,
      "cher": 7779,
      "immor": 7780,
      "ifts": 7781,
      "trodu": 7782,
      "pool": 7783,
      "Include": 7784,
      "perdition": 7785,
      "hoard": 7786,
      "apes": 7787,
      "),-": 7788,
      "emon": 7789,
      "guiding": 7790,
      "Prophethood": 7791,
      "barred": 7792,
      "inscribed": 7793,
      "Produ": 7794,
      "strict": 7795,
      "Signing": 7796,
      "Frank": 7797,
      "Guide": 7798,
      "Calcul": 7799,
      "Chris": 7800,
      "horiz": 7801,
      "Sale": 7802,
      "installation": 7803,
      "Content": 7804,
      "columns": 7805,
      "pardoned": 7806,
      "deceit": 7807,
      "hungry": 7808,
      "murder": 7809,
      "development": 7810,
      "MiB": 7811,
      "Mike": 7812,
      "soldiers": 7813,
      "finger": 7814,
      "migrated": 7815,
      "fountains": 7816,
      "Microsoft": 7817,
      "Trevor": 7818,
      ")!\"": 7819,
      "cand": 7820,
      "fy": 7821,
      "iod": 7822,
      "recomm": 7823,
      "anda": 7824,
      "inger": 7825,
      "stiff": 7826,
      "stupid": 7827,
      "alpha": 7828,
      "advis": 7829,
      "rope": 7830,
      "major": 7831,
      "indentation": 7832,
      "policy": 7833,
      "Inbox": 7834,
      "...?": 7835,
      "causeth": 7836,
      "justified": 7837,
      "Unicode": 7838,
      "lifeless": 7839,
      "actual": 7840,
      "efforts": 7841,
      "Alan": 7842,
      "drug": 7843,
      "goddamn": 7844,
      "Common": 7845,
      "lovely": 7846,
      "ontally": 7847,
      "Parame": 7848,
      "doubts": 7849,
      "paying": 7850,
      "tributes": 7851,
      "remembered": 7852,
      "silent": 7853,
      "thousands": 7854,
      "Modified": 7855,
      "independ": 7856,
      "honorable": 7857,
      "political": 7858,
      "integrity": 7859,
      "risk": 7860,
      "Revelation": 7861,
      "knife": 7862,
      "27": 7863,
      "Mm": 7864,
      "Pardon": 7865,
      "dd": 7866,
      "lend": 7867,
      "envelop": 7868,
      "youths": 7869,
      "leep": 7870,
      "lift": 7871,
      "impatient": 7872,
      "compar": 7873,
      "absent": 7874,
      "goal": 7875,
      "....": 7876,
      "Inc": 7877,
      "Inline": 7878,
      "hotel": 7879,
      "Re_": 7880,
      "achi": 7881,
      "hearken": 7882,
      "north": 7883,
      "Login": 7884,
      "trigger": 7885,
      "passes": 7886,
      "Tray": 7887,
      "subd": 7888,
      "loads": 7889,
      "ieves": 7890,
      "views": 7891,
      "domain": 7892,
      "climb": 7893,
      "URIs": 7894,
      "refresh": 7895,
      "smite": 7896,
      "Spell": 7897,
      "Special": 7898,
      "Space": 7899,
      "pasture": 7900,
      "biggest": 7901,
      "chase": 7902,
      "supporter": 7903,
      "SOCKS": 7904,
      "persecut": 7905,
      "crucify": 7906,
      "deprived": 7907,
      "bosom": 7908,
      "HIV": 7909,
      "According": 7910,
      "BCC": 7911,
      "Fill": 7912,
      "HAN": 7913,
      "NE": 7914,
      "P_": 7915,
      "Qual": 7916,
      "Sit": 7917,
      "cult": 7918,
      "wave": 7919,
      "zation": 7920,
      "imposed": 7921,
      "owe": 7922,
      "amazing": 7923,
      "opposite": 7924,
      "export": 7925,
      "conferred": 7926,
      "nels": 7927,
      "oking": 7928,
      "afford": 7929,
      "seemed": 7930,
      "Religion": 7931,
      "Seen": 7932,
      "helps": 7933,
      "mightier": 7934,
      "St_": 7935,
      "pleasant": 7936,
      "tically": 7937,
      "stock": 7938,
      "countries": 7939,
      "Period": 7940,
      "bondman": 7941,
      "chain": 7942,
      "plotting": 7943,
      "Currently": 7944,
      "Redo": 7945,
      "issued": 7946,
      "surrounded": 7947,
      "assemble": 7948,
      "Frame": 7949,
      "abomination": 7950,
      ".?": 7951,
      "Ender": 7952,
      "French": 7953,
      "GUN": 7954,
      "tender": 7955,
      "inher": 7956,
      "llar": 7957,
      "ares": 7958,
      "Heavy": 7959,
      "abased": 7960,
      "shaken": 7961,
      "Inde": 7962,
      "ippets": 7963,
      "evol": 7964,
      "strung": 7965,
      "whereby": 7966,
      "adds": 7967,
      "calendars": 7968,
      "invents": 7969,
      "Resize": 7970,
      "kills": 7971,
      "ashed": 7972,
      "driving": 7973,
      "paign": 7974,
      "label": 7975,
      "Boston": 7976,
      "guilt": 7977,
      "records": 7978,
      "journal": 7979,
      "treated": 7980,
      "Simon": 7981,
      "athed": 7982,
      "Synchron": 7983,
      "resolve": 7984,
      "thunderbol": 7985,
      "molten": 7986,
      "Georgi": 7987,
      "endeav": 7988,
      "London": 7989,
      "Air": 7990,
      "KD": 7991,
      "LAR": 7992,
      "Mouse": 7993,
      "SQ": 7994,
      "_Use": 7995,
      "hill": 7996,
      "hunt": 7997,
      "kick": 7998,
      "lag": 7999,
      "mp": 8000,
      "isa": 8001,
      "ingu": 8002,
      "aloud": 8003,
      "Hebrew": 8004,
      "iler": 8005,
      "abor": 8006,
      "mosque": 8007,
      "estival": 8008,
      "indul": 8009,
      "necked": 8010,
      "Moving": 8011,
      "preference": 8012,
      "mense": 8013,
      "spaces": 8014,
      "Unless": 8015,
      "destitute": 8016,
      "testing": 8017,
      "TeX": 8018,
      "crying": 8019,
      "attent": 8020,
      "truthfulness": 8021,
      "bowed": 8022,
      "begins": 8023,
      "GRUNTING": 8024,
      "straitened": 8025,
      "troops": 8026,
      "treacherous": 8027,
      "booty": 8028,
      "Descendants": 8029,
      "marty": 8030,
      "300": 8031,
      "9th": 8032,
      "Lower": 8033,
      "Pix": 8034,
      "T_": 8035,
      "_Next": 8036,
      "lon": 8037,
      "pig": 8038,
      "sites": 8039,
      "vity": 8040,
      "winter": 8041,
      "wake": 8042,
      "wipe": 8043,
      "forge": 8044,
      "defer": 8045,
      "meal": 8046,
      "unity": 8047,
      "essor": 8048,
      "accursed": 8049,
      "shine": 8050,
      "poll": 8051,
      "ishes": 8052,
      "branch": 8053,
      "ipher": 8054,
      "certificates": 8055,
      "Force": 8056,
      "prays": 8057,
      "praying": 8058,
      "phys": 8059,
      "calumn": 8060,
      "tells": 8061,
      "compact": 8062,
      "respited": 8063,
      "Mrs": 8064,
      "Importing": 8065,
      "sleeping": 8066,
      "lifted": 8067,
      "Skype": 8068,
      "succeeded": 8069,
      "resolved": 8070,
      "LAUGHS": 8071,
      "lodging": 8072,
      "perceived": 8073,
      "ungodly": 8074,
      "Saleh": 8075,
      "Index": 8076,
      "DB": 8077,
      "Far": 8078,
      "Gi": 8079,
      "Lou": 8080,
      "Mine": 8081,
      "hills": 8082,
      "kil": 8083,
      "pace": 8084,
      "reclining": 8085,
      "atar": 8086,
      "verts": 8087,
      "ims": 8088,
      "album": 8089,
      "ira": 8090,
      "rose": 8091,
      "icip": 8092,
      "uplicate": 8093,
      "Ourselves": 8094,
      "spam": 8095,
      "wool": 8096,
      "warri": 8097,
      "kindly": 8098,
      "Enough": 8099,
      "crimes": 8100,
      "thrust": 8101,
      "correspond": 8102,
      "drinks": 8103,
      "Searching": 8104,
      "Filename": 8105,
      "ivid": 8106,
      "contained": 8107,
      "forwarded": 8108,
      "NOT": 8109,
      "detailed": 8110,
      "statusbar": 8111,
      "wickedness": 8112,
      "Otherwise": 8113,
      "temptation": 8114,
      "departed": 8115,
      "plots": 8116,
      "imagined": 8117,
      "preaching": 8118,
      "gnome": 8119,
      "incurred": 8120,
      "Flip": 8121,
      "Jonah": 8122,
      "Honourable": 8123,
      "munificence": 8124,
      "devising": 8125,
      "Bear": 8126,
      "Dar": 8127,
      "Daw": 8128,
      "Jay": 8129,
      "Kong": 8130,
      "LY": 8131,
      "Sust": 8132,
      "Tun": 8133,
      "bidden": 8134,
      "gt": 8135,
      "smit": 8136,
      "incess": 8137,
      "rear": 8138,
      "erring": 8139,
      "impossible": 8140,
      "goble": 8141,
      "conse": 8142,
      "afflu": 8143,
      "tains": 8144,
      "shouldst": 8145,
      "Prov": 8146,
      "stands": 8147,
      "Angle": 8148,
      "rejects": 8149,
      "general": 8150,
      "Scriptures": 8151,
      "hearted": 8152,
      "disputing": 8153,
      "Clip": 8154,
      "ilip": 8155,
      "straying": 8156,
      "capable": 8157,
      "Simplified": 8158,
      "wallet": 8159,
      "executed": 8160,
      "perfected": 8161,
      "variable": 8162,
      "despite": 8163,
      "Single": 8164,
      "substance": 8165,
      "Konqueror": 8166,
      "Wrath": 8167,
      "mansions": 8168,
      "reconciliation": 8169,
      "inherited": 8170,
      "${": 8171,
      "=\\\\\\\\{": 8172,
      "BA": 8173,
      "Bah": 8174,
      "Finger": 8175,
      "Iq": 8176,
      "].’": 8177,
      "_Previous": 8178,
      "bath": 8179,
      "cdr": 8180,
      "gallery": 8181,
      "kens": 8182,
      "navig": 8183,
      "sink": 8184,
      "swell": 8185,
      "isha": 8186,
      "ena": 8187,
      "esome": 8188,
      "assert": 8189,
      "verting": 8190,
      "verified": 8191,
      "odes": 8192,
      "adop": 8193,
      "Gods": 8194,
      "creed": 8195,
      "gran": 8196,
      "wouldst": 8197,
      "hero": 8198,
      "Advan": 8199,
      "kingship": 8200,
      "playlist": 8201,
      "supply": 8202,
      "throughout": 8203,
      "Mush": 8204,
      "encod": 8205,
      "texture": 8206,
      "plainly": 8207,
      "checksum": 8208,
      "Philip": 8209,
      "ICQ": 8210,
      "sixth": 8211,
      "tableau": 8212,
      "Recipient": 8213,
      "cancelled": 8214,
      "medium": 8215,
      "activities": 8216,
      "deemed": 8217,
      "tradition": 8218,
      "debugging": 8219,
      "Singh": 8220,
      "gentlemen": 8221,
      "dangerous": 8222,
      "Issued": 8223,
      "Besides": 8224,
      "Advanced": 8225,
      "Hur": 8226,
      "Icons": 8227,
      "honey": 8228,
      "liness": 8229,
      "rance": 8230,
      "outr": 8231,
      "ouins": 8232,
      "edited": 8233,
      "itter": 8234,
      "hey": 8235,
      "lian": 8236,
      "urs": 8237,
      "weather": 8238,
      "amass": 8239,
      "lope": 8240,
      "constrain": 8241,
      "manual": 8242,
      "anywhere": 8243,
      "grown": 8244,
      "Recur": 8245,
      "Removing": 8246,
      "boat": 8247,
      "forms": 8248,
      "flash": 8249,
      "Online": 8250,
      "Shows": 8251,
      "intercourse": 8252,
      "Franc": 8253,
      "presentation": 8254,
      "moder": 8255,
      "modest": 8256,
      "confusion": 8257,
      "challenge": 8258,
      "onymous": 8259,
      "campaign": 8260,
      "population": 8261,
      "issues": 8262,
      "activity": 8263,
      "supplicate": 8264,
      "constantly": 8265,
      "Russian": 8266,
      "Increase": 8267,
      "smell": 8268,
      "70": 8269,
      "Ji": 8270,
      "Jour": 8271,
      "RW": 8272,
      "Random": 8273,
      "bah": 8274,
      "ere": 8275,
      "gs": 8276,
      "lump": 8277,
      "mber": 8278,
      "sow": 8279,
      "vCard": 8280,
      "xt": 8281,
      "weary": 8282,
      "abroad": 8283,
      "shield": 8284,
      "evolution": 8285,
      "Progress": 8286,
      "Environment": 8287,
      "mustered": 8288,
      "repented": 8289,
      "Att": 8290,
      "require": 8291,
      "touching": 8292,
      "2008": 8293,
      "THAT": 8294,
      "Speak": 8295,
      "Mailing": 8296,
      "confeder": 8297,
      "rooms": 8298,
      "splend": 8299,
      "previously": 8300,
      "credit": 8301,
      "activated": 8302,
      "DOOR": 8303,
      "WHAT": 8304,
      "whisper": 8305,
      "Depart": 8306,
      "relationship": 8307,
      "Brother": 8308,
      "waxed": 8309,
      "Chapter": 8310,
      "Fort": 8311,
      "FIT": 8312,
      "Mun": 8313,
      "Sche": 8314,
      "fs": 8315,
      "gas": 8316,
      "lah": 8317,
      "inf": 8318,
      "reta": 8319,
      "ingrat": 8320,
      "seated": 8321,
      "assum": 8322,
      "enting": 8323,
      "ural": 8324,
      "unbelieving": 8325,
      "thern": 8326,
      "Nobody": 8327,
      "Repository": 8328,
      "spite": 8329,
      "excepting": 8330,
      "helpless": 8331,
      "memor": 8332,
      "invites": 8333,
      "contend": 8334,
      "Resol": 8335,
      "aided": 8336,
      "cars": 8337,
      "Plain": 8338,
      "presently": 8339,
      "regards": 8340,
      "easily": 8341,
      "travelled": 8342,
      "glorious": 8343,
      "structure": 8344,
      "positive": 8345,
      "madman": 8346,
      "Step": 8347,
      "variance": 8348,
      "Assassin": 8349,
      "sanctuary": 8350,
      "ilaha": 8351,
      "category": 8352,
      "SpamAssassin": 8353,
      "ingratitude": 8354,
      "Cu": 8355,
      "Done": 8356,
      "Easy": 8357,
      "PD": 8358,
      "Pick": 8359,
      "Si": 8360,
      "_T": 8361,
      "gal": 8362,
      "ost": 8363,
      "tres": 8364,
      "tips": 8365,
      "vic": 8366,
      "inah": 8367,
      "attendee": 8368,
      "itudes": 8369,
      "stir": 8370,
      "abstain": 8371,
      "trap": 8372,
      "constell": 8373,
      "residence": 8374,
      "weren": 8375,
      "overtakes": 8376,
      "audi": 8377,
      "portent": 8378,
      "hamstrung": 8379,
      "Protocol": 8380,
      "timezone": 8381,
      "march": 8382,
      "breath": 8383,
      "carries": 8384,
      "conditions": 8385,
      "Shift": 8386,
      "anguish": 8387,
      "editing": 8388,
      "ESS": 8389,
      "Paul": 8390,
      "encrypt": 8391,
      "practise": 8392,
      "publish": 8393,
      "Domain": 8394,
      "Priv": 8395,
      "Required": 8396,
      "umbnail": 8397,
      "posterity": 8398,
      "extravagant": 8399,
      "Zachari": 8400,
      "Quality": 8401,
      "400": 8402,
      "Bye": 8403,
      "BLO": 8404,
      "Dark": 8405,
      "USA": 8406,
      "scr": 8407,
      "tun": 8408,
      "organ": 8409,
      "wet": 8410,
      "unsupported": 8411,
      "unwillingly": 8412,
      "factions": 8413,
      "gue": 8414,
      "isting": 8415,
      "serted": 8416,
      "sphere": 8417,
      "thyself": 8418,
      "Method": 8419,
      "Adding": 8420,
      "minister": 8421,
      "scar": 8422,
      "devote": 8423,
      "reaching": 8424,
      "associating": 8425,
      "strives": 8426,
      "MER": 8427,
      "solution": 8428,
      "performing": 8429,
      "smaller": 8430,
      "Minister": 8431,
      "osity": 8432,
      "originated": 8433,
      "ordinates": 8434,
      "activate": 8435,
      "Feed": 8436,
      "kinship": 8437,
      "fatig": 8438,
      "settlement": 8439,
      "picked": 8440,
      "Martin": 8441,
      "assume": 8442,
      "occasion": 8443,
      "natural": 8444,
      "adopted": 8445,
      "Jump": 8446,
      "Naz": 8447,
      "Omn": 8448,
      "Por": 8449,
      "Sw": 8450,
      "UES": 8451,
      "iy": 8452,
      "nick": 8453,
      "oon": 8454,
      "vs": 8455,
      "wers": 8456,
      "western": 8457,
      "atist": 8458,
      "keeper": 8459,
      "conv": 8460,
      "raising": 8461,
      "foremost": 8462,
      "grat": 8463,
      "answers": 8464,
      "Ours": 8465,
      "Uncle": 8466,
      "cience": 8467,
      "greatly": 8468,
      "replying": 8469,
      "Trad": 8470,
      "ultimate": 8471,
      "ixed": 8472,
      "ocate": 8473,
      "Shared": 8474,
      "reminders": 8475,
      "identity": 8476,
      "sooner": 8477,
      "decrees": 8478,
      "Everybody": 8479,
      "Boo": 8480,
      "horizon": 8481,
      "favorite": 8482,
      "ITY": 8483,
      "humiliated": 8484,
      "approaches": 8485,
      "Likewise": 8486,
      "Wrong": 8487,
      "aunts": 8488,
      "matching": 8489,
      "rehearsed": 8490,
      "haughty": 8491,
      "75": 8492,
      "CAR": 8493,
      "HA": 8494,
      "Ita": 8495,
      "Mill": 8496,
      "Sil": 8497,
      "bomb": 8498,
      "dare": 8499,
      "gained": 8500,
      "jan": 8501,
      "ky": 8502,
      "raging": 8503,
      "ssed": 8504,
      "onents": 8505,
      "ingrate": 8506,
      "begg": 8507,
      "immortal": 8508,
      "unclean": 8509,
      "rice": 8510,
      "amends": 8511,
      "umble": 8512,
      "holder": 8513,
      "cling": 8514,
      "blem": 8515,
      "accident": 8516,
      "Chance": 8517,
      "Mujr": 8518,
      "invitation": 8519,
      "Ange": 8520,
      "belonged": 8521,
      "domin": 8522,
      "Speed": 8523,
      "purer": 8524,
      "Rock": 8525,
      "declaration": 8526,
      "confess": 8527,
      "gathering": 8528,
      "habitation": 8529,
      "cleanse": 8530,
      "Contents": 8531,
      "bloggers": 8532,
      "laughing": 8533,
      "Indiana": 8534,
      "kinsmen": 8535,
      "RIGHT": 8536,
      "symbols": 8537,
      "clarify": 8538,
      "Preparing": 8539,
      "subdued": 8540,
      "Louis": 8541,
      "Mujrim": 8542,
      "51": 8543,
      "Land": 8544,
      "Maced": 8545,
      "Rama": 8546,
      "Sad": 8547,
      "TR": 8548,
      "Tam": 8549,
      "flying": 8550,
      "ht": 8551,
      "vot": 8552,
      "wate": 8553,
      "introdu": 8554,
      "anot": 8555,
      "opp": 8556,
      "opposition": 8557,
      "expun": 8558,
      "shop": 8559,
      "teous": 8560,
      "grab": 8561,
      "Repe": 8562,
      "Receive": 8563,
      "overlook": 8564,
      "clement": 8565,
      "wrongs": 8566,
      "Determin": 8567,
      "sheet": 8568,
      "Already": 8569,
      "drunk": 8570,
      "minimum": 8571,
      "Order": 8572,
      "Focus": 8573,
      "priority": 8574,
      "national": 8575,
      "model": 8576,
      "approval": 8577,
      "multitude": 8578,
      "Downloading": 8579,
      "shoes": 8580,
      "doomed": 8581,
      "Interface": 8582,
      "prisoners": 8583,
      "kidding": 8584,
      "radio": 8585,
      "fetters": 8586,
      "UTF": 8587,
      "Variable": 8588,
      "GASP": 8589,
      "CRL": 8590,
      "warranty": 8591,
      "chased": 8592,
      "Basic": 8593,
      "amusement": 8594,
      "Mushrik": 8595,
      "Macedon": 8596,
      "@}": 8597,
      "A1": 8598,
      "Han": 8599,
      "James": 8600,
      "WO": 8601,
      "_n": 8602,
      "_Discard": 8603,
      "bicy": 8604,
      "glo": 8605,
      "global": 8606,
      "hides": 8607,
      "ipt": 8608,
      "jid": 8609,
      "pill": 8610,
      "wd": 8611,
      "tol": 8612,
      "veils": 8613,
      "node": 8614,
      "alys": 8615,
      "rob": 8616,
      "rible": 8617,
      "abject": 8618,
      "loo": 8619,
      "loving": 8620,
      "knowest": 8621,
      "disposed": 8622,
      "disperse": 8623,
      "rade": 8624,
      "branches": 8625,
      "apa": 8626,
      "herald": 8627,
      "formation": 8628,
      "extingu": 8629,
      "Death": 8630,
      "align": 8631,
      "States": 8632,
      "Compose": 8633,
      "insight": 8634,
      "compiler": 8635,
      "devise": 8636,
      "inners": 8637,
      "ocabul": 8638,
      "Mankind": 8639,
      "approve": 8640,
      "hastening": 8641,
      "adesh": 8642,
      "livestock": 8643,
      "Running": 8644,
      "Anything": 8645,
      "craft": 8646,
      "Memos": 8647,
      "season": 8648,
      "Domin": 8649,
      "threads": 8650,
      "tendees": 8651,
      "turneth": 8652,
      "summoned": 8653,
      "Saru": 8654,
      "training": 8655,
      "LAUGHING": 8656,
      "Scanning": 8657,
      "Shortcut": 8658,
      "administrator": 8659,
      "IBM": 8660,
      "Zachariah": 8661,
      "Mujrimun": 8662,
      "ocabulary": 8663,
      "Fall": 8664,
      "Fif": 8665,
      "KI": 8666,
      "MING": 8667,
      "Na": 8668,
      "Pol": 8669,
      "Year": 8670,
      "YOUR": 8671,
      "Zakat": 8672,
      "_t": 8673,
      "a_": 8674,
      "bread": 8675,
      "gins": 8676,
      "ipe": 8677,
      "ko": 8678,
      "vow": 8679,
      "reload": 8680,
      "arbit": 8681,
      "entative": 8682,
      "unks": 8683,
      "conven": 8684,
      "tale": 8685,
      "isher": 8686,
      "Nooh": 8687,
      "umer": 8688,
      "blamed": 8689,
      "Express": 8690,
      "lights": 8691,
      "recitation": 8692,
      "discuss": 8693,
      "harmed": 8694,
      "sounded": 8695,
      "argued": 8696,
      "Quest": 8697,
      "arrival": 8698,
      "abundantly": 8699,
      "square": 8700,
      "insolence": 8701,
      "nuclear": 8702,
      "appreciate": 8703,
      "adultery": 8704,
      "ambush": 8705,
      "GROANS": 8706,
      "Murph": 8707,
      "freedom": 8708,
      "Picture": 8709,
      "heavily": 8710,
      "infidelity": 8711,
      "citiz": 8712,
      "forsaken": 8713,
      "obstin": 8714,
      "Cell": 8715,
      "Ir": 8716,
      "I_mport": 8717,
      "Kol": 8718,
      "Mil": 8719,
      "Pot": 8720,
      "Praised": 8721,
      "TA": 8722,
      "UE": 8723,
      "ZA": 8724,
      "jar": 8725,
      "null": 8726,
      "élie": 8727,
      "isance": 8728,
      "nobody": 8729,
      "enters": 8730,
      "wholly": 8731,
      "manually": 8732,
      "grasp": 8733,
      "Conflict": 8734,
      "helping": 8735,
      "listed": 8736,
      "External": 8737,
      "recount": 8738,
      "Comput": 8739,
      "Using": 8740,
      "Amélie": 8741,
      "tooth": 8742,
      "Fore": 8743,
      "succ": 8744,
      "providers": 8745,
      "Grant": 8746,
      "reasons": 8747,
      "Filters": 8748,
      "distort": 8749,
      "folks": 8750,
      "befallen": 8751,
      "shole": 8752,
      "positions": 8753,
      "filtering": 8754,
      "ordinance": 8755,
      "roads": 8756,
      "exceeding": 8757,
      "modifying": 8758,
      "fetch": 8759,
      "Thai": 8760,
      "Blazing": 8761,
      "Distri": 8762,
      "www": 8763,
      "contrary": 8764,
      "Rahman": 8765,
      "SPEAKING": 8766,
      "130": 8767,
      "Bin": 8768,
      "Blast": 8769,
      "Border": 8770,
      "Cache": 8771,
      "Pages": 8772,
      "Pull": 8773,
      "Ron": 8774,
      "SL": 8775,
      "Smo": 8776,
      "Trace": 8777,
      "_Rename": 8778,
      "dign": 8779,
      "fancy": 8780,
      "rated": 8781,
      "sources": 8782,
      "vig": 8783,
      "yn": 8784,
      "thieves": 8785,
      "inet": 8786,
      "aneous": 8787,
      "itate": 8788,
      "asleep": 8789,
      "chant": 8790,
      "imated": 8791,
      "iri": 8792,
      "odd": 8793,
      "fraud": 8794,
      "ado": 8795,
      "role": 8796,
      "rooted": 8797,
      "trading": 8798,
      "distract": 8799,
      "giance": 8800,
      "agon": 8801,
      "iph": 8802,
      "Reading": 8803,
      "Reclining": 8804,
      "downloaded": 8805,
      "prepar": 8806,
      "wheel": 8807,
      "everywhere": 8808,
      "tyr": 8809,
      "flat": 8810,
      "errors": 8811,
      "internal": 8812,
      "corner": 8813,
      "Primary": 8814,
      "temp": 8815,
      "freeing": 8816,
      "Cloud": 8817,
      "burnt": 8818,
      "counted": 8819,
      "hostility": 8820,
      "rupt": 8821,
      "Righteous": 8822,
      "parency": 8823,
      "Libr": 8824,
      "continuous": 8825,
      "Connector": 8826,
      "swallowed": 8827,
      "garment": 8828,
      "pending": 8829,
      "cancel": 8830,
      "criminal": 8831,
      "supplic": 8832,
      "depth": 8833,
      "allegiance": 8834,
      "watered": 8835,
      "Dial": 8836,
      "ELI": 8837,
      "Fur": 8838,
      "Gri": 8839,
      "Hmm": 8840,
      "Mari": 8841,
      "Nic": 8842,
      "Uk": 8843,
      "_Windows": 8844,
      "_Mac": 8845,
      "aileth": 8846,
      "bud": 8847,
      "cca": 8848,
      "iest": 8849,
      "olive": 8850,
      "twenty": 8851,
      "thick": 8852,
      "info": 8853,
      "refer": 8854,
      "recline": 8855,
      "imprison": 8856,
      "roots": 8857,
      "amat": 8858,
      "outstrip": 8859,
      "raq": 8860,
      "teen": 8861,
      "Initi": 8862,
      "prits": 8863,
      "engage": 8864,
      "clust": 8865,
      "Stu": 8866,
      "Gold": 8867,
      "thrones": 8868,
      "Argu": 8869,
      "Yellow": 8870,
      "Grid": 8871,
      "transgresses": 8872,
      "safely": 8873,
      "bigger": 8874,
      "animation": 8875,
      "Printing": 8876,
      "ategy": 8877,
      "oppressors": 8878,
      "dragon": 8879,
      "attacked": 8880,
      "storing": 8881,
      "BETH": 8882,
      "sync": 8883,
      "quarrel": 8884,
      "thirty": 8885,
      "Underline": 8886,
      "pronounce": 8887,
      "Channel": 8888,
      "dispersed": 8889,
      "Abode": 8890,
      "Sunday": 8891,
      "calumny": 8892,
      "Mushrikun": 8893,
      "ZABETH": 8894,
      "ELIZABETH": 8895,
      "\"-": 8896,
      "BB": 8897,
      "Bit": 8898,
      "Bow": 8899,
      "Equ": 8900,
      "Either": 8901,
      "Lin": 8902,
      "Shad": 8903,
      "Sometimes": 8904,
      "TIN": 8905,
      "WAR": 8906,
      "faced": 8907,
      "ystem": 8908,
      "zh": 8909,
      "youth": 8910,
      "sting": 8911,
      "ids": 8912,
      "wearing": 8913,
      "abuse": 8914,
      "foe": 8915,
      "earning": 8916,
      "trou": 8917,
      "trunk": 8918,
      "shaped": 8919,
      "hasn": 8920,
      "ously": 8921,
      "grud": 8922,
      "Mozilla": 8923,
      "passeng": 8924,
      "handed": 8925,
      "ighth": 8926,
      "patron": 8927,
      "paternal": 8928,
      "bargain": 8929,
      "Abort": 8930,
      "nake": 8931,
      "colour": 8932,
      "discover": 8933,
      "projects": 8934,
      "apping": 8935,
      "Okja": 8936,
      "2009": 8937,
      "divinity": 8938,
      "targets": 8939,
      "consist": 8940,
      "prophethood": 8941,
      "announced": 8942,
      "reasonable": 8943,
      "dealing": 8944,
      "ancial": 8945,
      "photograph": 8946,
      "deafness": 8947,
      "Simple": 8948,
      "dragged": 8949,
      "responded": 8950,
      "RAM": 8951,
      "maintainer": 8952,
      "Sync": 8953,
      "circle": 8954,
      "browsing": 8955,
      "debugger": 8956,
      "substitute": 8957,
      "GET": 8958,
      "sorcerers": 8959,
      "Received": 8960,
      "universe": 8961,
      "knees": 8962,
      "Operation": 8963,
      "stubborn": 8964,
      "Bangl": 8965,
      "superior": 8966,
      "Detect": 8967,
      "Captain": 8968,
      "refrain": 8969,
      "bequeathed": 8970,
      "Traditional": 8971,
      "!-": 8972,
      "110": 8973,
      "49": 8974,
      ";}": 8975,
      "CSV": 8976,
      "Ill": 8977,
      "Iraq": 8978,
      "Lau": 8979,
      "Nep": 8980,
      "Swi": 8981,
      "SIP": 8982,
      "Virt": 8983,
      "craw": 8984,
      "dable": 8985,
      "daz": 8986,
      "jug": 8987,
      "ucation": 8988,
      "zip": 8989,
      "zak": 8990,
      "rein": 8991,
      "enced": 8992,
      "sect": 8993,
      "hael": 8994,
      "itations": 8995,
      "nobles": 8996,
      "lime": 8997,
      "rolled": 8998,
      "opport": 8999,
      "solid": 9000,
      "feareth": 9001,
      "forelock": 9002,
      "clam": 9003,
      "caller": 9004,
      "strat": 9005,
      "cribing": 9006,
      "awesome": 9007,
      "accused": 9008,
      "womb": 9009,
      "flames": 9010,
      "phen": 9011,
      "Stream": 9012,
      "players": 9013,
      "possibly": 9014,
      "equival": 9015,
      "harder": 9016,
      "hardly": 9017,
      "minded": 9018,
      "Attendee": 9019,
      "climate": 9020,
      "staying": 9021,
      "2006": 9022,
      "connecting": 9023,
      "honourably": 9024,
      "walked": 9025,
      "Simulation": 9026,
      "disgraceful": 9027,
      "BEEP": 9028,
      "worthless": 9029,
      "Company": 9030,
      "healing": 9031,
      "Council": 9032,
      "intellect": 9033,
      "exclusive": 9034,
      "conspire": 9035,
      "pronounced": 9036,
      "accomplished": 9037,
      "gambling": 9038,
      "bracelets": 9039,
      "criterion": 9040,
      "SCREAMING": 9041,
      "aborted": 9042,
      "compatible": 9043,
      "Glorified": 9044,
      "iniquity": 9045,
      "Cover": 9046,
      "Ilah": 9047,
      "SCO": 9048,
      "Tok": 9049,
      "_De": 9050,
      "_Junk": 9051,
      "cd": 9052,
      "gifts": 9053,
      "pup": 9054,
      "vil": 9055,
      "‘‘": 9056,
      "inward": 9057,
      "rend": 9058,
      "rejection": 9059,
      "relax": 9060,
      "arrows": 9061,
      "ala": 9062,
      "meters": 9063,
      "unavailable": 9064,
      "doings": 9065,
      "shack": 9066,
      "upside": 9067,
      "conference": 9068,
      "individ": 9069,
      "disappointed": 9070,
      "anti": 9071,
      "rightful": 9072,
      "setup": 9073,
      "Developer": 9074,
      "ildir": 9075,
      "scene": 9076,
      "decides": 9077,
      "lawyer": 9078,
      "painting": 9079,
      "Didn": 9080,
      "Tech": 9081,
      "expose": 9082,
      "Cost": 9083,
      "traction": 9084,
      "victors": 9085,
      "counter": 9086,
      "annih": 9087,
      "Important": 9088,
      "widgets": 9089,
      "earnest": 9090,
      "camp": 9091,
      "culprits": 9092,
      "salt": 9093,
      "dogs": 9094,
      "Blessings": 9095,
      "indicated": 9096,
      "behaved": 9097,
      "Breakpoint": 9098,
      "weeping": 9099,
      "throat": 9100,
      "occupied": 9101,
      "confederates": 9102,
      "Ukrain": 9103,
      "annihil": 9104,
      "48": 9105,
      "Dan": 9106,
      "Erik": 9107,
      "Hun": 9108,
      "Mex": 9109,
      "PG": 9110,
      "Span": 9111,
      "Ur": 9112,
      "Veg": 9113,
      "cows": 9114,
      "hated": 9115,
      "ni": 9116,
      "oter": 9117,
      "zier": 9118,
      "demon": 9119,
      "immed": 9120,
      "irl": 9121,
      "faire": 9122,
      "agony": 9123,
      "pris": 9124,
      "prod": 9125,
      "cking": 9126,
      "digi": 9127,
      "sparing": 9128,
      "followeth": 9129,
      "visits": 9130,
      "Resource": 9131,
      "ieth": 9132,
      "Victor": 9133,
      "striking": 9134,
      "singing": 9135,
      "freezing": 9136,
      "Created": 9137,
      "stole": 9138,
      "2003": 9139,
      "appeal": 9140,
      "watchful": 9141,
      "draws": 9142,
      "measured": 9143,
      "anniversary": 9144,
      "automatic": 9145,
      "travelling": 9146,
      "Harun": 9147,
      "(*.": 9148,
      "pagan": 9149,
      "entrust": 9150,
      "ladies": 9151,
      "updates": 9152,
      "thirsty": 9153,
      "Volume": 9154,
      "Delay": 9155,
      "Supported": 9156,
      "Congrat": 9157,
      "oblivious": 9158,
      "exhausted": 9159,
      "csv": 9160,
      "bicycle": 9161,
      "?!": 9162,
      "Cook": 9163,
      "_Name": 9164,
      "bits": 9165,
      "du": 9166,
      "foul": 9167,
      "hic": 9168,
      "knot": 9169,
      "nut": 9170,
      "pse": 9171,
      "pard": 9172,
      "random": 9173,
      "incorrect": 9174,
      "reap": 9175,
      "ara": 9176,
      "selling": 9177,
      "vector": 9178,
      "cted": 9179,
      "meta": 9180,
      "accur": 9181,
      "upset": 9182,
      "crew": 9183,
      "resses": 9184,
      "Develop": 9185,
      "commandments": 9186,
      "Although": 9187,
      "devoid": 9188,
      "Sheet": 9189,
      "accepting": 9190,
      "equitable": 9191,
      "eats": 9192,
      "surah": 9193,
      "connections": 9194,
      "townships": 9195,
      "Poly": 9196,
      "polygon": 9197,
      "companies": 9198,
      "Backend": 9199,
      "Waiting": 9200,
      "covet": 9201,
      "cups": 9202,
      "supplication": 9203,
      "encountered": 9204,
      "murdered": 9205,
      "suspect": 9206,
      "wasted": 9207,
      "bidding": 9208,
      "narrow": 9209,
      "Michael": 9210,
      "acceler": 9211,
      "roasted": 9212,
      "inflicted": 9213,
      "obeisance": 9214,
      "horizontally": 9215,
      "Iqamat": 9216,
      "fatigue": 9217,
      "atistics": 9218,
      "stratage": 9219,
      "Vegas": 9220,
      "Ash": 9221,
      "Case": 9222,
      "Ep": 9223,
      "Eyes": 9224,
      "GB": 9225,
      "Niles": 9226,
      "Old": 9227,
      "Pay": 9228,
      "Pine": 9229,
      "TE": 9230,
      "Zero": 9231,
      "_Move": 9232,
      "cm": 9233,
      "kings": 9234,
      "nie": 9235,
      "whichever": 9236,
      "beloved": 9237,
      "omy": 9238,
      "street": 9239,
      "forgets": 9240,
      "idiot": 9241,
      "ordain": 9242,
      "ilah": 9243,
      "contempt": 9244,
      "disown": 9245,
      "manage": 9246,
      "fierce": 9247,
      "Defin": 9248,
      "Bella": 9249,
      "mater": 9250,
      "phan": 9251,
      "broad": 9252,
      "Mecca": 9253,
      "remembering": 9254,
      "viewer": 9255,
      "Signer": 9256,
      "Brit": 9257,
      "ully": 9258,
      "corrupters": 9259,
      "Spacing": 9260,
      "Through": 9261,
      "fortunate": 9262,
      "Salam": 9263,
      "cancelation": 9264,
      "ruling": 9265,
      "deeply": 9266,
      "hanging": 9267,
      "pouring": 9268,
      "Retribution": 9269,
      "weapon": 9270,
      "Talk": 9271,
      "defiantly": 9272,
      "Align": 9273,
      "Bobby": 9274,
      "rivals": 9275,
      "Square": 9276,
      "expiation": 9277,
      "orientation": 9278,
      "reprieved": 9279,
      "perpetual": 9280,
      "iphany": 9281,
      "equivalent": 9282,
      "digiKam": 9283,
      "Congratulations": 9284,
      "Bak": 9285,
      "Gent": 9286,
      "Non": 9287,
      "Ple": 9288,
      "R_": 9289,
      "RSA": 9290,
      "UST": 9291,
      "cash": 9292,
      "cipher": 9293,
      "hence": 9294,
      "ior": 9295,
      "mers": 9296,
      "uel": 9297,
      "viness": 9298,
      "vows": 9299,
      "outer": 9300,
      "vered": 9301,
      "forman": 9302,
      "rix": 9303,
      "Thurs": 9304,
      "compelled": 9305,
      "composer": 9306,
      "soil": 9307,
      "sels": 9308,
      "truck": 9309,
      "overturned": 9310,
      "spouse": 9311,
      "spelled": 9312,
      "greatness": 9313,
      "selecting": 9314,
      "glance": 9315,
      "patch": 9316,
      "insane": 9317,
      "belonging": 9318,
      "charges": 9319,
      "Plugins": 9320,
      "farther": 9321,
      "increasing": 9322,
      "OUN": 9323,
      "Spend": 9324,
      "advised": 9325,
      "Helper": 9326,
      "Marcus": 9327,
      "Observe": 9328,
      "astern": 9329,
      "dragons": 9330,
      "salms": 9331,
      "laughed": 9332,
      "Middle": 9333,
      "borne": 9334,
      "Smart": 9335,
      "deviate": 9336,
      "hibit": 9337,
      "thirst": 9338,
      "distinguished": 9339,
      "Zeus": 9340,
      "Decrease": 9341,
      "PATH": 9342,
      "aggression": 9343,
      "overwhelmed": 9344,
      "Updating": 9345,
      "iblah": 9346,
      "disgraced": 9347,
      "Parameters": 9348,
      "Synchronize": 9349,
      "=\\\\\\\\{@}": 9350,
      "Hurry": 9351,
      "Thursday": 9352,
      "//": 9353,
      "Aug": 9354,
      "Bright": 9355,
      "Duf": 9356,
      "HERE": 9357,
      "Navig": 9358,
      "Store": 9359,
      "Win": 9360,
      "dut": 9361,
      "tone": 9362,
      "useless": 9363,
      "vine": 9364,
      "winners": 9365,
      "inent": 9366,
      "enables": 9367,
      "asure": 9368,
      "chur": 9369,
      "withdrew": 9370,
      "rip": 9371,
      "foc": 9372,
      "...\"": 9373,
      "placing": 9374,
      "tele": 9375,
      "Internal": 9376,
      "canopy": 9377,
      "Reality": 9378,
      "series": 9379,
      "Dollar": 9380,
      "signific": 9381,
      "Unit": 9382,
      "kindle": 9383,
      "trip": 9384,
      "Consider": 9385,
      "ificent": 9386,
      "favored": 9387,
      "benevol": 9388,
      "enjoins": 9389,
      "Fran": 9390,
      "Pointer": 9391,
      "statements": 9392,
      "2005": 9393,
      "Cooper": 9394,
      "questioning": 9395,
      "conceived": 9396,
      "systems": 9397,
      "DVDs": 9398,
      "Torment": 9399,
      "disobeys": 9400,
[...]
